<unk>	0
<s>	0
</s>	0
<pad>	0
▁	-1.91186
|	-2.18093
:	-2.86926
▁pre	-2.86977
dict	-2.87403
▁head	-3.56369
▁tail	-3.56717
▁of	-3.67863
ation	-4.01623
▁occup	-4.05481
s	-4.47708
ed	-4.56631
,	-4.85138
country	-4.87432
y	-4.93973
▁place	-5.02633
ship	-5.08665
▁citizen	-5.0887
e	-5.2266
▁member	-5.22879
a	-5.50641
▁language	-5.55656
▁birth	-5.60491
▁or	-5.60512
▁sign	-5.64293
written	-5.64528
▁spoken	-5.64551
▁at	-5.73542
er	-5.74995
-	-5.76626
▁educat	-5.77111
▁university	-5.78415
▁german	-5.80152
▁death	-5.81128
▁the	-5.83453
al	-5.83649
.	-5.88142
o	-5.97756
genre	-5.99131
▁politic	-6.00133
▁actor	-6.00433
▁cast	-6.0317
▁unit	-6.03499
l	-6.15177
▁party	-6.15749
▁film	-6.27583
h	-6.29727
n	-6.29765
▁states	-6.33218
▁america	-6.3379
ian	-6.35713
i	-6.41077
t	-6.58156
▁record	-6.60041
▁writer	-6.62061
ic	-6.63911
ist	-6.68868
oyer	-6.69545
empl	-6.70395
▁de	-6.763
ive	-6.76905
▁instrument	-6.79083
on	-6.81263
▁and	-6.82098
▁von	-6.89864
land	-6.93605
▁king	-6.96132
'	-6.97201
▁in	-7.03058
dom	-7.03777
▁englis	-7.04466
▁journalist	-7.05106
▁john	-7.05522
▁academ	-7.05642
▁0	-7.06063
▁engineer	-7.07233
▁music	-7.11359
▁with	-7.12741
▁musician	-7.13588
en	-7.17676
▁border	-7.19603
▁share	-7.19898
▁label	-7.23129
writer	-7.24612
▁diplomat	-7.25791
ing	-7.26705
r	-7.26813
or	-7.28092
▁singer	-7.29902
▁caus	-7.30596
▁origin	-7.31748
▁administrat	-7.33822
person	-7.36048
▁work	-7.36807
p	-7.37726
▁religion	-7.37953
▁locat	-7.3981
▁voice	-7.40011
ce	-7.40014
▁terrori	-7.40425
▁relation	-7.43153
▁union	-7.43913
vision	-7.44598
us	-7.44823
▁business	-7.44867
▁tele	-7.45467
▁field	-7.51427
▁sciences	-7.51805
ty	-7.51871
▁peter	-7.54983
▁france	-7.55972
▁loc	-7.56761
▁robert	-7.59021
▁new	-7.60132
man	-7.60906
son	-7.62635
▁french	-7.62746
▁enti	-7.69478
▁buria	-7.69825
g	-7.70232
mann	-7.70549
in	-7.70811
▁paul	-7.70961
▁democratic	-7.72028
▁teacher	-7.72422
d	-7.73455
▁karl	-7.74137
▁scientist	-7.74574
▁russian	-7.75467
ry	-7.75522
▁michael	-7.75835
ia	-7.75925
▁sport	-7.76081
▁jean	-7.77562
▁soviet	-7.78196
▁republic	-7.78902
▁david	-7.79093
toria	-7.79391
▁director	-7.79711
▁william	-7.79893
▁poet	-7.80599
▁grou	-7.81845
▁hans	-7.82633
▁charles	-7.8286
m	-7.83129
▁guitar	-7.83214
▁g	-7.84397
▁paris	-7.84803
an	-7.86059
▁switzer	-7.87067
▁american	-7.87272
▁berlin	-7.87798
▁ethn	-7.88827
k	-7.90087
▁christian	-7.91167
▁james	-7.92679
z	-7.92717
▁d	-7.93201
▁friedrich	-7.93814
▁school	-7.95385
es	-7.97133
▁cemetery	-7.97519
▁arts	-7.98062
▁george	-7.98165
ner	-7.99077
▁city	-7.99324
ton	-7.99507
sh	-8.01628
berg	-8.02014
▁richard	-8.02041
▁j	-8.03405
▁producer	-8.0463
▁b	-8.04641
▁rock	-8.04712
▁college	-8.04831
ler	-8.0508
▁state	-8.06047
mpire	-8.06323
▁law	-8.06668
▁m	-8.06753
▁york	-8.06849
▁composer	-8.07123
ment	-8.08316
▁k	-8.08428
▁italy	-8.0857
▁wilhelm	-8.09148
▁screen	-8.09708
▁narrat	-8.09829
▁johann	-8.10005
▁c	-8.11588
ism	-8.13153
▁for	-8.13311
▁heinrich	-8.15015
▁thomas	-8.15949
el	-8.15963
▁austria	-8.16234
▁moscow	-8.16753
tion	-8.17465
le	-8.17599
▁alexander	-8.17979
▁japan	-8.19802
▁la	-8.21285
▁national	-8.21416
▁russia	-8.21449
ity	-8.21488
▁martin	-8.21684
▁residen	-8.22119
▁p	-8.22917
▁sibling	-8.23001
▁carl	-8.23645
th	-8.24408
▁1	-8.25672
▁london	-8.26737
▁stage	-8.27976
▁people	-8.29467
▁joseph	-8.2986
▁royal	-8.3
▁artist	-8.30894
▁maria	-8.31779
▁louis	-8.32488
st	-8.32974
▁by	-8.33068
▁saint	-8.33264
▁catholic	-8.33573
▁henry	-8.33573
ley	-8.35303
as	-8.35777
▁ernst	-8.37018
▁official	-8.37557
▁franz	-8.37808
▁author	-8.38498
▁frank	-8.39377
▁georg	-8.39529
▁bill	-8.39609
▁ludwig	-8.41686
▁institute	-8.42483
▁vladimir	-8.43742
use	-8.4405
ch	-8.44649
▁otto	-8.44697
▁vi	-8.4486
▁w	-8.45274
tori	-8.45718
ie	-8.45801
ball	-8.46272
▁novel	-8.4666
▁f	-8.47262
c	-8.48074
u	-8.49755
▁drama	-8.49797
▁vienna	-8.50118
▁spo	-8.5088
▁church	-8.50933
ard	-8.51311
▁brit	-8.52125
▁los	-8.5247
"	-8.52498
▁t	-8.52762
▁walter	-8.52872
na	-8.5302
burg	-8.53474
▁spani	-8.53759
▁bern	-8.54338
▁lee	-8.54409
▁alfred	-8.54505
▁military	-8.555
▁v	-8.55844
▁social	-8.56063
▁science	-8.56488
sen	-8.56792
▁art	-8.56917
▁angeles	-8.57149
yer	-8.57935
ain	-8.57939
▁hermann	-8.58123
▁child	-8.58231
▁pop	-8.58272
▁van	-8.59773
▁daniel	-8.6014
▁st	-8.60865
▁ii	-8.60999
ov	-8.61566
▁jan	-8.63098
ford	-8.63433
▁august	-8.63998
▁historia	-8.66286
▁canad	-8.66604
au	-8.66818
ction	-8.66905
▁albert	-8.67028
▁influen	-8.67163
ion	-8.67371
▁max	-8.67952
▁le	-8.68838
ced	-8.69009
▁jose	-8.69293
▁rudolf	-8.698
▁mode	-8.70047
▁buri	-8.70152
is	-8.70197
▁international	-8.71477
▁translat	-8.72375
▁great	-8.73036
▁munich	-8.73435
ago	-8.73556
song	-8.73676
ney	-8.73871
▁play	-8.7448
ne	-8.74676
▁part	-8.75118
▁italian	-8.75238
▁adolf	-8.7545
ese	-8.75609
▁societ	-8.7566
▁pierre	-8.76053
▁song	-8.76252
▁canc	-8.76889
▁to	-8.77672
▁ent	-8.77685
lin	-8.78764
ski	-8.79556
sburg	-8.80052
ka	-8.80316
▁jazz	-8.8068
▁arthur	-8.80852
▁comedy	-8.81103
wright	-8.81548
▁ben	-8.82154
pain	-8.82652
f	-8.83518
sky	-8.83572
den	-8.83662
▁san	-8.83883
▁baron	-8.83923
▁carlo	-8.84644
▁communist	-8.84964
stein	-8.86101
▁he	-8.86346
▁technolog	-8.8657
▁mark	-8.8702
▁associa	-8.87105
▁adam	-8.8752
▁rome	-8.87623
▁"	-8.88189
▁harr	-8.88332
▁antonio	-8.88521
▁roman	-8.88599
▁fountain	-8.89695
▁smith	-8.90617
▁foot	-8.9073
▁nazi	-8.9074
▁socialist	-8.91311
▁african	-8.91448
▁anna	-8.91862
ke	-8.92458
▁wolfgang	-8.92498
ar	-8.92552
sual	-8.92733
▁ire	-8.92886
▁gustav	-8.93147
residenc	-8.93197
▁di	-8.93354
▁joe	-8.93763
da	-8.93918
▁south	-8.93949
▁ray	-8.94635
ish	-8.9563
▁prince	-8.95646
▁man	-8.95777
▁california	-8.96014
▁mary	-8.96185
▁michel	-8.96261
▁fiction	-8.96826
la	-8.96888
que	-8.9715
senter	-8.97195
▁chris	-8.98212
▁johannes	-8.98392
ek	-8.98393
▁ivan	-8.98845
▁andre	-8.98867
et	-8.98948
▁poland	-8.99367
▁edward	-8.99445
ville	-8.9951
ius	-8.99784
▁gott	-9.00046
▁hungar	-9.00213
▁jack	-9.00372
▁fritz	-9.00432
▁theodor	-9.00475
▁francois	-9.01518
▁district	-9.01711
▁kurt	-9.02133
▁canton	-9.02428
▁tom	-9.03893
▁dis	-9.04299
▁sweden	-9.04336
re	-9.04949
▁anton	-9.04992
ingen	-9.05013
istan	-9.05171
fried	-9.0536
▁jacques	-9.05557
formation	-9.06315
neur	-9.0644
ta	-9.06678
▁physic	-9.0699
▁wern	-9.07116
old	-9.0806
▁entrepr	-9.08288
piano	-9.092
▁metal	-9.09558
▁china	-9.0958
▁bob	-9.0973
▁williams	-9.09783
▁un	-9.10627
▁julius	-9.10932
▁litera	-9.11193
▁mar	-9.11333
ni	-9.115
ical	-9.11561
▁critic	-9.11863
▁har	-9.12043
▁republican	-9.12341
▁philosopher	-9.12513
▁west	-9.12655
▁name	-9.12814
▁harvard	-9.13048
▁invent	-9.13049
am	-9.13253
▁simon	-9.13443
fer	-9.1365
▁jo	-9.13751
▁pr	-9.1408
▁du	-9.14525
▁iii	-9.14527
▁der	-9.15229
▁columbi	-9.15438
▁co	-9.16023
▁denmark	-9.16424
▁continent	-9.16438
wood	-9.17119
▁netherland	-9.1722
▁jackson	-9.1722
▁jones	-9.17282
1	-9.17405
▁josef	-9.17541
▁move	-9.17862
ecole	-9.18243
▁anne	-9.18356
ger	-9.18403
▁se	-9.18757
ovich	-9.18985
▁emil	-9.19008
▁am	-9.19047
▁francis	-9.19305
▁andreas	-9.19486
▁henri	-9.19573
▁black	-9.19716
▁eduard	-9.19942
▁me	-9.19948
▁victor	-9.20239
ey	-9.20567
▁brown	-9.21024
ue	-9.2116
▁scott	-9.21275
▁ta	-9.21407
▁jr	-9.21419
▁mikhail	-9.21555
▁roger	-9.21699
▁chic	-9.2179
▁jim	-9.2181
▁paint	-9.22194
ca	-9.22507
▁dan	-9.22534
0	-9.22744
▁europe	-9.22996
▁green	-9.23016
▁driv	-9.23067
▁herbert	-9.23352
▁air	-9.2367
▁aleksandr	-9.2376
▁del	-9.23926
amin	-9.23971
▁stephen	-9.24041
▁mike	-9.24229
▁australia	-9.24784
▁pian	-9.24901
▁boris	-9.25597
▁bavaria	-9.25642
ow	-9.25912
▁stan	-9.26067
erich	-9.26211
ra	-9.26422
evich	-9.2674
nel	-9.27056
ve	-9.27098
▁blue	-9.27567
inger	-9.2757
▁kim	-9.27886
▁bernard	-9.27896
▁barbara	-9.27899
ine	-9.27955
▁patric	-9.28406
▁ali	-9.28506
▁eric	-9.28875
▁wilson	-9.29094
▁mathematic	-9.29496
▁mexic	-9.29667
▁hamburg	-9.29668
▁ma	-9.30005
bach	-9.30106
▁alan	-9.30152
▁washington	-9.30442
mar	-9.31096
▁medic	-9.311
▁sam	-9.31349
infar	-9.31562
▁islam	-9.31769
lo	-9.3193
▁duke	-9.32354
▁johnson	-9.32579
▁myo	-9.32729
▁steve	-9.32841
▁literature	-9.32857
▁ferdinand	-9.32983
▁park	-9.33268
quarter	-9.33384
▁brook	-9.33425
university	-9.33679
ease	-9.33937
▁computer	-9.34553
▁econom	-9.34693
▁klaus	-9.34853
▁marie	-9.3513
▁swedish	-9.35261
te	-9.35723
▁andrew	-9.35868
ary	-9.35894
▁francisco	-9.35912
▁samuel	-9.36115
zig	-9.36115
▁jacob	-9.36135
▁norwa	-9.3634
▁mc	-9.36599
▁anthony	-9.36656
▁north	-9.37214
▁taylor	-9.3741
▁engineering	-9.37708
mond	-9.38018
▁abdul	-9.3839
enberg	-9.38616
▁frederick	-9.39071
▁israel	-9.39186
▁don	-9.39519
b	-9.39711
▁india	-9.39813
▁bin	-9.39828
▁time	-9.40205
ev	-9.40246
▁manuel	-9.40363
▁nikolay	-9.40392
▁leon	-9.40726
ington	-9.40816
▁pedagog	-9.41059
lyn	-9.41293
▁children	-9.41512
▁luis	-9.41566
▁love	-9.41568
ad	-9.41607
▁neu	-9.41907
kin	-9.42294
▁war	-9.4262
▁free	-9.42761
io	-9.43111
▁phil	-9.43135
well	-9.43375
▁viktor	-9.43641
▁young	-9.43654
▁ja	-9.43696
▁czech	-9.438
▁player	-9.43854
▁brazil	-9.44032
co	-9.44123
de	-9.44279
ier	-9.44482
▁felix	-9.44848
▁design	-9.44957
▁fin	-9.45263
▁sp	-9.45459
▁juan	-9.46216
▁budapest	-9.4638
▁leip	-9.4639
▁re	-9.46438
x	-9.46441
▁bernhard	-9.46482
ez	-9.46597
at	-9.46654
▁hugo	-9.46874
▁count	-9.46972
▁christopher	-9.46976
▁lewis	-9.46999
▁polish	-9.47017
▁latin	-9.47468
ire	-9.47511
▁des	-9.48032
▁bo	-9.48063
▁organization	-9.48178
▁ro	-9.48576
▁history	-9.48786
ell	-9.48803
ham	-9.48994
▁wolf	-9.49071
▁helen	-9.49599
▁anders	-9.49872
field	-9.50039
▁central	-9.50195
▁gerhard	-9.50558
▁belgium	-9.50875
▁georges	-9.51401
▁white	-9.51447
▁mauric	-9.51552
▁tim	-9.51699
▁offic	-9.51898
▁howard	-9.52051
▁davis	-9.52161
▁racin	-9.52353
▁hungarian	-9.52395
▁heinz	-9.52464
▁benj	-9.5257
▁an	-9.52624
▁faculty	-9.52653
ly	-9.52903
▁bank	-9.53221
▁miller	-9.53401
▁hill	-9.53714
▁anim	-9.53913
▁jakob	-9.54159
▁arnold	-9.5429
▁eng	-9.54377
ck	-9.54493
marri	-9.54613
▁harris	-9.54625
▁christoph	-9.55001
ak	-9.55051
▁gabriel	-9.55101
▁und	-9.55146
feld	-9.55463
ko	-9.55602
▁bass	-9.55611
j	-9.55879
▁el	-9.55938
▁star	-9.55952
▁fur	-9.5611
▁leo	-9.56332
▁sergey	-9.56451
▁technic	-9.56465
▁manga	-9.56501
condi	-9.56502
cher	-9.5657
▁allen	-9.56594
▁editor	-9.56794
ach	-9.5705
▁humboldt	-9.5729
dorf	-9.57462
▁giovanni	-9.5749
▁po	-9.57722
aziz	-9.57956
▁lo	-9.58395
▁photograph	-9.58906
hus	-9.59011
▁nikolai	-9.59184
▁opera	-9.59221
no	-9.59221
▁prussia	-9.59282
▁con	-9.59291
▁brian	-9.59307
▁tony	-9.59316
rence	-9.59331
▁rac	-9.59403
il	-9.59611
▁hard	-9.60035
▁bell	-9.60191
▁high	-9.60267
▁maximilia	-9.6032
▁ernest	-9.60545
story	-9.61019
▁will	-9.61117
ter	-9.61175
enko	-9.61443
▁mac	-9.6154
▁atheis	-9.61588
▁claude	-9.61712
▁da	-9.61918
ich	-9.61949
ologist	-9.62
▁hop	-9.62152
▁reich	-9.62194
red	-9.62384
▁kevin	-9.62599
▁fred	-9.62635
▁dave	-9.62986
ess	-9.63096
▁capital	-9.63097
▁mel	-9.63106
▁muller	-9.63215
▁world	-9.6324
▁per	-9.63386
za	-9.6341
▁joan	-9.63452
▁jimm	-9.63693
▁bruce	-9.63827
kov	-9.63946
▁athlete	-9.64286
▁philip	-9.64361
▁ca	-9.64397
▁arab	-9.64689
up	-9.64947
▁stu	-9.65131
um	-9.65221
▁bruno	-9.65378
▁jane	-9.65711
▁ulrich	-9.65811
▁physician	-9.66176
marie	-9.66589
▁jon	-9.66596
▁no	-9.66647
▁bad	-9.66946
▁elizabeth	-9.67024
stadt	-9.67056
do	-9.67399
▁development	-9.67758
▁auto	-9.67834
ina	-9.67917
ver	-9.6801
▁tu	-9.68398
▁partner	-9.68435
▁serbia	-9.68573
wil	-9.6863
▁helmut	-9.69105
▁lutheran	-9.69248
▁korea	-9.69368
roup	-9.69444
▁saud	-9.69457
▁kelly	-9.69639
▁leopold	-9.697
▁ross	-9.69799
it	-9.70158
ung	-9.70181
▁russell	-9.70301
▁bur	-9.70649
rich	-9.70871
li	-9.71075
▁milan	-9.71084
ot	-9.71137
heim	-9.71196
▁airline	-9.71218
▁johnn	-9.71366
▁hip	-9.7158
ya	-9.71626
▁autobiograph	-9.71656
ri	-9.71686
▁civil	-9.71706
▁classic	-9.71853
▁alliance	-9.71964
age	-9.72017
▁architect	-9.7218
▁gree	-9.72266
win	-9.72678
▁larr	-9.72777
▁essay	-9.72892
▁philippe	-9.72902
▁serge	-9.73228
▁lu	-9.73523
▁stefan	-9.73674
▁bonn	-9.73691
▁zu	-9.73771
ny	-9.73851
▁alternat	-9.73977
▁theolog	-9.74164
▁eugene	-9.74282
cardia	-9.74518
bile	-9.74705
▁mario	-9.74706
▁alberto	-9.75136
▁after	-9.75477
▁warsaw	-9.75556
friedhof	-9.76046
▁marcel	-9.7609
onrad	-9.76109
tz	-9.76328
▁joachim	-9.76435
▁one	-9.76444
▁turke	-9.76591
▁susan	-9.76745
▁africa	-9.76814
▁period	-9.76836
▁monte	-9.76894
▁madrid	-9.76998
▁gregor	-9.77294
▁mor	-9.77731
▁federal	-9.77883
▁tokyo	-9.7846
▁you	-9.78587
itz	-9.7868
▁mo	-9.79266
ova	-9.7931
▁car	-9.79325
space	-9.79854
▁laur	-9.79907
▁moore	-9.80011
▁santa	-9.8002
nathan	-9.80089
▁frankfurt	-9.80111
▁rose	-9.80265
ant	-9.80413
▁automo	-9.80459
▁east	-9.80666
▁margaret	-9.81114
ston	-9.81312
▁sarah	-9.81413
gary	-9.81555
burgh	-9.81575
▁bar	-9.81739
-1	-9.81966
▁guy	-9.82009
▁island	-9.82177
erson	-9.82181
▁fantas	-9.82192
▁bi	-9.82429
tan	-9.82586
▁publish	-9.82643
▁liberal	-9.82686
▁nick	-9.82773
▁street	-9.82827
sson	-9.82893
▁pilot	-9.82982
▁may	-9.83029
▁heidel	-9.83132
▁lang	-9.83359
▁night	-9.83397
▁airport	-9.83502
▁meyer	-9.83525
ttgar	-9.83544
▁iv	-9.83687
▁zuri	-9.8375
▁mont	-9.83911
wald	-9.83914
pop	-9.84022
▁priest	-9.84157
▁dick	-9.84229
▁douglas	-9.84361
w	-9.84585
▁jerr	-9.84626
▁boy	-9.84718
▁kit	-9.84862
▁donald	-9.85283
▁perform	-9.85409
▁gordon	-9.85547
▁willi	-9.85565
▁elisabeth	-9.85584
▁wood	-9.85608
▁gu	-9.85831
▁universal	-9.8587
ency	-9.85891
ola	-9.85994
ois	-9.86079
hi	-9.86152
▁duch	-9.86265
▁angel	-9.86354
▁johan	-9.86381
▁thrill	-9.86645
▁oliver	-9.86649
▁polytechni	-9.86808
▁barcelona	-9.86823
ro	-9.86862
▁grand	-9.86928
▁hall	-9.87018
▁jenni	-9.87127
hausen	-9.87317
▁philipp	-9.8734
eppe	-9.87389
▁austrian	-9.87473
▁kennedy	-9.88021
▁crime	-9.88119
▁prague	-9.88121
▁emile	-9.88159
▁hart	-9.88171
▁manfred	-9.88303
aya	-9.88481
▁conduct	-9.88587
▁post	-9.8904
▁andrea	-9.89191
▁philosoph	-9.89402
▁good	-9.89679
ure	-9.89782
▁rene	-9.89845
▁bobb	-9.89925
▁bei	-9.8998
▁adventure	-9.90186
louis	-9.90356
of	-9.90492
▁matt	-9.90629
▁eva	-9.9063
▁charlie	-9.90661
▁petersbur	-9.90818
▁big	-9.90827
▁comed	-9.91263
▁rick	-9.91301
▁z	-9.91484
oslav	-9.91545
▁ralph	-9.91561
▁chemist	-9.91819
v	-9.9193
law	-9.91953
▁carolin	-9.922
▁julian	-9.92394
▁cooper	-9.92469
ma	-9.92562
▁alex	-9.92575
▁judge	-9.92747
▁gunt	-9.92873
han	-9.92906
ette	-9.92914
▁ra	-9.92994
▁argentina	-9.93139
▁be	-9.9316
▁eugen	-9.93209
ling	-9.9345
▁min	-9.93484
by	-9.93571
▁ron	-9.93603
▁rob	-9.93745
▁sa	-9.93788
ge	-9.93821
▁barry	-9.93959
▁wagner	-9.93961
▁saxophon	-9.94209
bul	-9.94236
▁entertain	-9.94401
▁jordan	-9.94403
▁steven	-9.94407
▁charlotte	-9.94459
▁linguist	-9.94463
▁wester	-9.94477
▁adams	-9.94493
line	-9.94508
cil	-9.94628
▁fine	-9.94758
▁my	-9.94889
itte	-9.94908
▁comm	-9.94911
hungar	-9.95023
sch	-9.95141
▁adrian	-9.95294
▁marc	-9.95354
stock	-9.95442
▁erik	-9.95455
▁romania	-9.95506
ers	-9.95531
▁nichol	-9.95612
▁pat	-9.95613
▁norman	-9.95646
▁jorge	-9.95665
▁day	-9.95736
os	-9.95789
▁based	-9.95889
▁aero	-9.95963
pro	-9.96096
▁greek	-9.96198
more	-9.96298
etts	-9.96331
▁sha	-9.96431
off	-9.96443
▁massac	-9.9669
ab	-9.96697
▁ukraine	-9.96733
alice	-9.96881
▁schutz	-9.96934
▁violin	-9.97131
▁mi	-9.97177
hagen	-9.9724
▁sieg	-9.97452
di	-9.9764
▁georgia	-9.977
▁fischer	-9.97757
bert	-9.978
▁from	-9.97974
ber	-9.98037
▁fernand	-9.98136
▁jay	-9.98303
der	-9.98467
▁biograph	-9.98551
don	-9.98919
▁hollywood	-9.98922
▁coun	-9.99145
▁dres	-9.99398
▁ho	-9.99474
▁ken	-9.99477
chester	-9.9957
▁trade	-9.99643
▁monarch	-9.99928
▁graham	-9.99944
▁rain	-10.0001
▁fall	-10.0004
▁gius	-10.0007
▁su	-10.0016
▁princes	-10.0031
mer	-10.0037
▁clark	-10.0045
▁schmidt	-10.0047
▁humanities	-10.0054
▁ryan	-10.0055
berger	-10.006
▁alexandr	-10.007
▁atlant	-10.0071
men	-10.0086
▁adolph	-10.0091
▁jurgen	-10.0093
▁theatr	-10.0098
bourg	-10.0102
▁oskar	-10.0116
ir	-10.0117
gunther	-10.0119
eam	-10.0132
▁penn	-10.0145
▁pere	-10.0152
horn	-10.0176
▁tea	-10.0191
▁main	-10.0206
ator	-10.0214
▁port	-10.0224
▁juris	-10.0229
▁lev	-10.0237
▁igor	-10.024
▁centr	-10.027
▁roy	-10.0271
▁radio	-10.0273
▁jeff	-10.0298
▁activi	-10.0302
▁sean	-10.0305
▁jens	-10.031
ern	-10.0311
to	-10.0321
▁creat	-10.0322
▁pedro	-10.0328
▁anatol	-10.0333
▁berkeley	-10.0344
▁academie	-10.0365
▁drum	-10.037
les	-10.038
gen	-10.0381
un	-10.0391
▁walk	-10.04
elli	-10.0408
mont	-10.042
▁jules	-10.043
▁ann	-10.0433
▁portug	-10.0441
▁potter	-10.0451
▁norwegian	-10.0471
▁dancer	-10.0478
uese	-10.0479
▁cologn	-10.0487
▁deutsche	-10.0495
▁earl	-10.0503
▁gerard	-10.0506
emberg	-10.0509
craft	-10.0514
osis	-10.0523
▁leonard	-10.0565
▁pneumonia	-10.0575
ur	-10.0578
▁li	-10.058
▁nation	-10.0582
▁men	-10.0615
van	-10.0643
ett	-10.0643
▁oscar	-10.0647
▁rapper	-10.0647
▁ag	-10.0647
▁frederic	-10.0657
▁texa	-10.0663
▁jur	-10.0669
▁konstantin	-10.0695
house	-10.0705
▁dann	-10.0727
▁sun	-10.0736
▁dean	-10.0739
▁julie	-10.0756
yale	-10.0783
▁khan	-10.0795
▁tho	-10.0797
▁matthi	-10.0801
▁cor	-10.0802
▁gil	-10.0817
etti	-10.0843
▁gold	-10.0851
▁brand	-10.0851
▁vincent	-10.0862
▁letters	-10.087
▁garcia	-10.0884
▁migue	-10.0887
▁morris	-10.0905
iwan	-10.0908
▁abraham	-10.0937
▁hugh	-10.0937
▁all	-10.0938
ella	-10.0944
▁electronic	-10.0951
▁nicolas	-10.0975
▁aaron	-10.0976
▁chile	-10.0981
▁nor	-10.0983
▁arron	-10.0987
▁gotting	-10.0999
▁die	-10.1002
▁ac	-10.1008
▁soul	-10.1014
▁denis	-10.103
em	-10.1042
▁justin	-10.1049
disse	-10.107
▁european	-10.1073
mpson	-10.1073
▁horror	-10.1086
pierre	-10.1108
▁sculpt	-10.1108
▁warn	-10.1108
▁first	-10.1109
▁terr	-10.1115
▁eddi	-10.1123
din	-10.1133
▁axel	-10.1137
▁nu	-10.1166
▁executi	-10.1188
cient	-10.1193
▁romantic	-10.12
▁whit	-10.1205
▁jewis	-10.121
▁jar	-10.1214
▁ha	-10.1223
brew	-10.1223
yan	-10.1233
▁bush	-10.1235
ith	-10.1243
▁ruth	-10.1248
▁swis	-10.1248
▁life	-10.1252
▁collin	-10.1258
▁daw	-10.1264
ino	-10.1272
▁luig	-10.1283
cal	-10.1286
▁edmund	-10.129
go	-10.1297
oul	-10.1314
▁virgini	-10.1315
▁yug	-10.1322
▁toro	-10.1334
▁sebastian	-10.1338
▁pa	-10.1371
ja	-10.138
▁francesco	-10.1401
▁theater	-10.1408
enburg	-10.1423
▁mountain	-10.1424
▁memori	-10.1431
ster	-10.1443
▁dieter	-10.1447
▁kate	-10.1454
▁wr	-10.1459
▁basel	-10.1463
▁louise	-10.1467
▁do	-10.1468
▁fi	-10.1496
▁iran	-10.1505
beck	-10.151
▁organis	-10.151
▁catalan	-10.1526
ise	-10.1531
▁uss	-10.1537
▁denni	-10.1539
▁im	-10.1541
▁nam	-10.1585
▁sara	-10.1593
ti	-10.1599
▁robin	-10.1609
▁natali	-10.1609
▁stevens	-10.1609
▁stockholm	-10.162
▁marco	-10.1631
cardi	-10.1652
tte	-10.1653
▁antoine	-10.1681
ano	-10.1692
▁stewart	-10.1692
▁last	-10.1693
art	-10.1711
▁joel	-10.1715
▁matthew	-10.1716
▁schneider	-10.1723
▁little	-10.1725
▁luca	-10.1737
▁pi	-10.1742
turin	-10.1743
▁mer	-10.1748
▁cha	-10.1749
▁catherine	-10.1764
▁morgan	-10.1765
▁studi	-10.1787
ini	-10.1791
bourne	-10.1817
▁conservat	-10.1819
▁gr	-10.1828
▁valentin	-10.1842
▁raj	-10.1853
▁lyce	-10.1866
▁kath	-10.1866
▁mitchel	-10.1867
▁lisa	-10.1867
▁vasily	-10.1874
▁brad	-10.188
▁graf	-10.1896
ker	-10.1904
▁philolog	-10.1904
way	-10.1913
▁bueno	-10.1913
▁parent	-10.1913
▁professor	-10.1935
ji	-10.1952
▁santi	-10.1953
▁herman	-10.1954
▁leonid	-10.1957
▁keit	-10.196
▁andrey	-10.196
▁greg	-10.1975
▁long	-10.1994
▁forest	-10.2
sur	-10.2007
▁fighter	-10.2009
▁ber	-10.2014
▁weber	-10.2015
▁dmitr	-10.2043
▁carr	-10.2078
▁personal	-10.2082
▁gene	-10.2083
▁alain	-10.2088
▁res	-10.2095
▁lauren	-10.2095
▁imperi	-10.211
▁ros	-10.2113
▁heart	-10.2117
▁portugal	-10.212
▁moon	-10.2133
ten	-10.2144
hoff	-10.2153
▁becker	-10.2157
▁sturm	-10.2161
▁albrecht	-10.2164
▁peace	-10.2184
ana	-10.2186
▁bela	-10.2186
▁evans	-10.2189
▁ga	-10.2189
▁josh	-10.22
tech	-10.2205
▁heav	-10.221
staffel	-10.2211
salem	-10.2217
ze	-10.2237
▁conte	-10.2238
▁ko	-10.2257
▁pavel	-10.2262
ef	-10.2274
tus	-10.228
dox	-10.2288
▁halle	-10.2297
guay	-10.2299
ate	-10.2307
▁dark	-10.2318
▁chin	-10.2323
ig	-10.2329
▁parliament	-10.2338
▁ak	-10.2342
▁lind	-10.2375
aires	-10.2377
jo	-10.2391
▁juda	-10.2398
▁rodrigue	-10.2415
hattan	-10.2416
mund	-10.242
nto	-10.2423
unk	-10.2429
▁lloyd	-10.2433
▁fe	-10.2438
adelphi	-10.2441
▁emma	-10.2441
▁gilbert	-10.2441
▁christin	-10.2452
▁score	-10.2455
▁pen	-10.2463
▁campbell	-10.2467
▁non	-10.2493
▁pier	-10.2493
▁austin	-10.2494
▁mil	-10.2503
▁inter	-10.2531
▁braun	-10.2544
▁cole	-10.2548
▁hell	-10.2549
▁bernd	-10.2556
sek	-10.2557
francois	-10.2566
▁housto	-10.258
▁frei	-10.2581
▁linda	-10.2591
fiction	-10.2598
▁folk	-10.2599
mpora	-10.2605
▁jonas	-10.2615
▁see	-10.2619
▁han	-10.2622
ovsky	-10.2636
ortho	-10.2637
▁invest	-10.2641
▁genev	-10.2653
▁x	-10.2657
▁sid	-10.2665
▁neil	-10.2679
▁julia	-10.269
port	-10.2694
▁parker	-10.2704
▁knight	-10.2705
▁egypt	-10.2713
ance	-10.2724
▁bu	-10.2735
enthal	-10.2751
▁pak	-10.2754
▁stone	-10.2757
kar	-10.2764
▁yuri	-10.2767
baptiste	-10.2769
her	-10.278
▁guid	-10.2781
oclaw	-10.2784
▁sch	-10.2785
▁bol	-10.2796
▁electric	-10.2797
▁lou	-10.2801
ica	-10.282
▁cambridge	-10.2838
ki	-10.2841
lieb	-10.2843
▁roth	-10.2861
▁fox	-10.2867
▁ka	-10.288
rand	-10.2898
▁pal	-10.2911
me	-10.2918
▁queen	-10.2925
▁amy	-10.2929
▁hanna	-10.293
▁conrad	-10.2934
▁bost	-10.2969
▁stein	-10.2976
▁edin	-10.2981
paul	-10.3006
town	-10.3006
▁ahmed	-10.3014
▁wald	-10.3021
meyer	-10.3025
▁nur	-10.3026
▁astronaut	-10.3028
ado	-10.3036
▁cornel	-10.3038
▁rod	-10.3063
rer	-10.3063
▁florenc	-10.3074
▁reed	-10.3078
rest	-10.3093
si	-10.3106
ruh	-10.3109
▁ge	-10.3112
▁jessi	-10.3115
▁monic	-10.3117
ron	-10.3119
▁theodore	-10.3152
▁czechoslovak	-10.3167
▁holy	-10.317
▁lady	-10.3171
cul	-10.3177
▁gerald	-10.3185
witz	-10.3189
▁char	-10.3211
▁ober	-10.3212
▁lake	-10.3212
▁com	-10.3224
▁souther	-10.3257
utch	-10.3312
tag	-10.3315
ou	-10.3318
▁valer	-10.3336
▁dr	-10.3413
▁kenne	-10.3417
▁hubert	-10.3426
▁economics	-10.3427
▁hamilton	-10.3445
▁michigan	-10.3449
▁harald	-10.345
▁lung	-10.3468
▁tru	-10.3472
▁gar	-10.3476
▁her	-10.348
▁oleg	-10.348
▁eduardo	-10.3492
▁hub	-10.3503
▁jesse	-10.3509
▁rio	-10.3522
▁jena	-10.3525
dy	-10.3533
▁arabia	-10.354
▁yur	-10.355
▁keyboard	-10.3565
▁lars	-10.3571
and	-10.3571
less	-10.3584
▁can	-10.3593
▁yevgeny	-10.3594
strom	-10.3594
▁dramatic	-10.3594
▁warr	-10.3601
▁nord	-10.3606
▁karel	-10.3614
▁cat	-10.3617
cock	-10.3618
▁tub	-10.3619
▁camp	-10.3623
▁moritz	-10.3625
▁fail	-10.3629
burn	-10.367
▁ba	-10.3676
corporat	-10.369
▁carter	-10.3694
▁isaac	-10.3709
▁phillip	-10.3714
▁god	-10.3721
▁federic	-10.3728
▁finn	-10.3737
ademie	-10.374
▁winter	-10.3741
teil	-10.3744
ani	-10.3746
▁sony	-10.3749
▁go	-10.3762
▁rolf	-10.377
▁blood	-10.3771
▁beck	-10.3772
ibn	-10.3782
▁roland	-10.3803
ac	-10.3805
▁wallac	-10.3807
hanover	-10.381
▁koch	-10.3833
▁progress	-10.3834
one	-10.3856
▁superieur	-10.3859
▁pan	-10.3867
donald	-10.3869
ikon	-10.3873
oslo	-10.3873
ken	-10.3881
▁kong	-10.3887
enbach	-10.3901
olga	-10.3913
▁victoria	-10.3919
▁reinhold	-10.3919
▁giorgi	-10.393
nsky	-10.393
▁real	-10.3947
▁stand	-10.3954
▁days	-10.396
▁bulgaria	-10.3963
▁lacha	-10.3982
▁illin	-10.3991
ga	-10.4005
▁range	-10.401
ographer	-10.4012
▁doroth	-10.4034
kaya	-10.4041
▁na	-10.4047
▁mari	-10.4051
▁baker	-10.4051
meister	-10.4068
▁astronom	-10.407
▁jozef	-10.407
▁edgar	-10.4082
▁shel	-10.4083
sylvan	-10.4085
▁budd	-10.4096
nik	-10.4101
▁lynn	-10.4103
▁grant	-10.4105
▁rachel	-10.4111
wan	-10.4122
▁jung	-10.413
▁muhamm	-10.4132
▁bel	-10.4163
▁dance	-10.4168
▁hoffmann	-10.4173
▁horst	-10.4191
▁house	-10.4194
▁angela	-10.4202
▁turki	-10.4207
▁asia	-10.4207
▁chi	-10.4215
ning	-10.4243
▁norbert	-10.425
▁far	-10.4252
eck	-10.4253
▁nelson	-10.4255
▁janos	-10.4255
▁chess	-10.4276
▁saudi	-10.4319
q	-10.4336
▁mill	-10.4371
▁dian	-10.4376
▁dietrich	-10.439
▁sand	-10.4394
▁ursu	-10.4397
▁curtis	-10.4398
▁lope	-10.4402
shall	-10.4413
▁centur	-10.4421
evsky	-10.4435
later	-10.4437
▁eberhard	-10.4463
dale	-10.447
▁christ	-10.4483
▁found	-10.4485
▁weimar	-10.4487
▁karol	-10.4489
▁sher	-10.4492
▁lasz	-10.4495
▁kiel	-10.4497
shi	-10.4499
▁montreal	-10.4507
▁elliot	-10.452
▁benn	-10.4524
▁page	-10.4528
▁wayn	-10.4532
00	-10.4543
▁avi	-10.4549
▁cox	-10.455
▁so	-10.4553
worth	-10.4561
▁bros	-10.4578
▁short	-10.4578
▁hills	-10.4593
ku	-10.4597
▁chap	-10.4602
▁ricard	-10.4618
▁wall	-10.4625
▁stanislaw	-10.4637
▁perez	-10.4643
egon	-10.4648
rdam	-10.4651
▁bald	-10.4683
▁chem	-10.4685
ct	-10.4697
brunnen	-10.4707
wa	-10.4719
wladys	-10.4736
peter	-10.4738
dor	-10.4757
▁jenn	-10.4763
▁clement	-10.4766
ul	-10.4766
▁jeru	-10.4766
andrei	-10.4767
usz	-10.4768
▁cuba	-10.4769
▁silvi	-10.4772
▁explo	-10.4797
▁athletic	-10.4798
▁beach	-10.48
▁marcus	-10.4807
▁just	-10.4814
▁allan	-10.4817
▁markus	-10.4824
▁lyric	-10.4831
heinz	-10.4838
the	-10.4847
ram	-10.486
ies	-10.4864
▁ronald	-10.4864
▁costa	-10.4865
amste	-10.487
▁bon	-10.4878
▁gray	-10.4882
▁hong	-10.4885
▁ellen	-10.4892
▁sanchez	-10.4897
▁watson	-10.4897
lich	-10.4901
▁kid	-10.4903
▁nathan	-10.4907
▁sao	-10.4909
ex	-10.4913
▁pe	-10.4913
▁rosa	-10.4916
be	-10.4935
▁camero	-10.4954
hara	-10.4981
▁earth	-10.4983
▁mccart	-10.4985
▁reinhard	-10.4987
we	-10.4988
roke	-10.4992
▁oxford	-10.4997
nix	-10.5001
illy	-10.5001
▁disc	-10.5002
nikov	-10.501
▁league	-10.5012
▁mona	-10.5016
▁ger	-10.5026
▁ze	-10.503
▁archaeolog	-10.5031
▁val	-10.5052
▁ti	-10.5056
▁renat	-10.5058
▁ham	-10.5061
▁grace	-10.5078
▁franco	-10.509
▁graz	-10.5096
▁freiburg	-10.51
▁kill	-10.5118
▁ad	-10.5119
anita	-10.5133
▁leopoldin	-10.5135
▁beau	-10.5137
▁manage	-10.5142
▁claudi	-10.5145
▁athen	-10.5151
lm	-10.5165
▁baden	-10.5173
▁jorg	-10.5173
▁novod	-10.5176
je	-10.5183
▁power	-10.5189
etta	-10.5204
▁tuber	-10.5208
▁hanns	-10.5209
▁willy	-10.5212
▁vera	-10.5236
all	-10.5236
▁lil	-10.5243
▁paulo	-10.5247
owsk	-10.5251
▁kat	-10.5263
res	-10.5268
▁wang	-10.5268
mittel	-10.5269
▁sir	-10.5286
yn	-10.5294
▁federat	-10.5303
▁diego	-10.5304
▁bett	-10.5306
▁nicole	-10.5319
▁arno	-10.5333
▁olivier	-10.5346
▁lausann	-10.5346
rca	-10.5352
▁moll	-10.5352
▁glenn	-10.5366
▁bryan	-10.5367
▁mechanic	-10.5372
▁rhy	-10.5398
▁gor	-10.54
▁nie	-10.5407
▁robinson	-10.5415
iel	-10.5421
diana	-10.5422
▁mars	-10.5424
jan	-10.5429
alth	-10.5443
▁stuart	-10.5447
gard	-10.5453
ault	-10.5455
▁gyorgy	-10.547
▁tel	-10.5471
▁hal	-10.5472
▁organ	-10.5473
▁bou	-10.5484
oster	-10.5489
▁stras	-10.549
▁paula	-10.5497
▁industr	-10.5503
▁multi	-10.5513
▁peru	-10.5517
▁mad	-10.5518
▁ana	-10.5533
▁ku	-10.5544
▁sud	-10.5544
▁agnes	-10.555
▁te	-10.5553
▁hunter	-10.5558
nd	-10.5571
ridge	-10.5576
▁corneliu	-10.5577
▁romanian	-10.5593
▁wild	-10.5605
▁win	-10.561
▁cecil	-10.5613
gow	-10.5626
▁elias	-10.5628
drama	-10.5628
▁sing	-10.5631
▁rafa	-10.5639
chuck	-10.564
▁richter	-10.5642
▁gal	-10.5649
pol	-10.5652
▁weapon	-10.5654
▁nancy	-10.5655
▁seri	-10.5661
moto	-10.5666
▁lenn	-10.5667
ert	-10.5668
▁bow	-10.5676
nina	-10.5676
▁uru	-10.5681
▁lord	-10.5686
▁lincoln	-10.5688
cy	-10.5706
▁constantin	-10.571
uwe	-10.5715
▁blind	-10.5726
id	-10.5732
▁edmond	-10.5732
vin	-10.5733
dorff	-10.5736
core	-10.5737
hou	-10.5738
▁sal	-10.5763
▁pear	-10.577
▁kos	-10.5792
▁emperor	-10.5798
▁erwi	-10.5801
▁modern	-10.5802
▁walther	-10.5804
sberg	-10.5813
uk	-10.582
▁sofia	-10.5824
gan	-10.5829
anglade	-10.5835
ground	-10.5839
▁ashley	-10.5841
ness	-10.5847
▁under	-10.5851
▁wolff	-10.5852
▁dru	-10.5853
▁orleans	-10.5892
tis	-10.5899
▁liver	-10.5902
▁emanuel	-10.5902
hochschule	-10.5907
▁jozs	-10.5909
uela	-10.5917
▁perr	-10.5919
chenko	-10.5923
gau	-10.5923
bel	-10.5926
▁stephan	-10.5938
▁labour	-10.594
▁sydne	-10.5942
▁cross	-10.5949
▁jamie	-10.595
▁ritter	-10.5982
▁malays	-10.5983
▁company	-10.5985
▁gerd	-10.5988
▁ab	-10.5993
▁schwarz	-10.5997
strasse	-10.6
▁helsinki	-10.6018
▁two	-10.6019
clear	-10.602
▁fu	-10.602
▁cook	-10.6031
▁alessandr	-10.6038
▁colin	-10.607
▁alexandre	-10.6072
▁karls	-10.6073
▁cope	-10.6085
thm	-10.6089
▁capitol	-10.6092
rita	-10.6093
▁murray	-10.6095
▁harve	-10.61
▁blake	-10.6103
▁dee	-10.6103
▁karin	-10.6115
▁spring	-10.6124
▁bal	-10.6125
▁mauri	-10.6143
▁ri	-10.6156
▁edouard	-10.6161
dam	-10.6165
▁tommy	-10.6167
ingham	-10.617
▁murphy	-10.6172
▁wals	-10.6175
ru	-10.6184
▁chen	-10.6194
dad	-10.6199
▁dublin	-10.6206
▁bac	-10.6208
▁nash	-10.6209
▁colombia	-10.6225
wittenberg	-10.623
▁konigs	-10.6238
▁lesl	-10.6239
▁alfons	-10.6241
▁cam	-10.6252
▁gian	-10.6257
▁mal	-10.6263
▁croatia	-10.6263
▁dominique	-10.627
▁emi	-10.627
▁vanessa	-10.6281
▁claus	-10.6283
▁independent	-10.6284
▁kay	-10.6284
▁sociolog	-10.6285
rights	-10.629
▁zea	-10.6299
▁ar	-10.6305
▁levin	-10.6307
▁space	-10.6308
▁ver	-10.6308
aki	-10.6309
▁emmanuel	-10.6315
▁tv	-10.6316
anish	-10.6316
▁iris	-10.6318
▁latvia	-10.6319
▁phoe	-10.632
▁janeiro	-10.632
osa	-10.6322
▁ghost	-10.6323
polis	-10.6324
kowsk	-10.6327
▁juli	-10.6331
▁girl	-10.6336
rey	-10.6343
▁auguste	-10.635
▁nikolaus	-10.6359
▁polytechnic	-10.636
▁kirch	-10.636
▁buch	-10.6374
yev	-10.6377
▁doug	-10.638
nov	-10.6381
▁henrik	-10.6381
▁audi	-10.6386
▁she	-10.6394
day	-10.6406
echt	-10.6406
▁super	-10.6417
▁who	-10.6418
▁lajo	-10.6421
▁jeffre	-10.6423
▁jerome	-10.6428
▁jockey	-10.6434
▁vittori	-10.6437
▁not	-10.6438
▁tat	-10.6451
▁christina	-10.6457
▁karen	-10.6463
▁sophie	-10.6464
▁kent	-10.6468
▁amos	-10.6468
ario	-10.6473
▁jacque	-10.6478
▁vis	-10.6485
▁pietr	-10.6491
▁judit	-10.6499
▁toni	-10.65
▁aleksand	-10.6501
▁lange	-10.6506
▁pol	-10.6508
▁valle	-10.6509
▁assembl	-10.6512
▁philippine	-10.6522
▁stern	-10.6525
▁lithuania	-10.6533
▁azerbaijan	-10.6549
▁indonesia	-10.6551
▁clair	-10.6553
hall	-10.6553
▁col	-10.6556
hardt	-10.6558
▁game	-10.6563
▁mr	-10.6577
chtung	-10.6582
▁lgbt	-10.659
esco	-10.6591
▁hughes	-10.6597
egger	-10.66
▁et	-10.6604
▁lyon	-10.6604
claude	-10.6608
ci	-10.6612
▁human	-10.6612
▁bennet	-10.6614
lawy	-10.6618
▁kai	-10.6623
▁buck	-10.6629
▁spencer	-10.6632
▁ramon	-10.6632
▁sprach	-10.6644
▁eugeni	-10.6654
▁down	-10.6661
▁gabor	-10.6675
lock	-10.6676
▁form	-10.668
▁color	-10.6681
▁jiri	-10.6687
▁ahmad	-10.6698
▁it	-10.6702
▁alt	-10.6713
yama	-10.6717
▁duss	-10.6722
▁palmer	-10.6735
▁fisher	-10.6738
opin	-10.674
▁bertrand	-10.6751
▁glas	-10.676
▁conservator	-10.6767
▁orange	-10.6768
▁keller	-10.6787
▁librar	-10.6788
▁mayor	-10.6791
▁cur	-10.6792
ho	-10.6794
▁carol	-10.6799
yves	-10.6801
▁leg	-10.6803
▁ci	-10.6805
ibald	-10.6811
let	-10.6813
kova	-10.6816
kawa	-10.6828
▁todd	-10.6832
▁ran	-10.6837
▁abel	-10.6849
▁hor	-10.685
▁franti	-10.6851
baden	-10.6852
▁patrici	-10.6854
▁bucha	-10.6854
▁geolog	-10.686
mula	-10.6866
▁venez	-10.687
▁dana	-10.6872
▁botan	-10.6875
▁gre	-10.6877
▁les	-10.6879
▁force	-10.6886
▁turner	-10.6887
▁jaim	-10.6888
▁leib	-10.689
nes	-10.6893
baum	-10.6894
▁hay	-10.6899
owicz	-10.6914
▁thor	-10.6914
▁fair	-10.6916
▁barr	-10.6917
▁kerr	-10.6921
▁psycholog	-10.6925
▁scot	-10.6931
▁malco	-10.6933
▁veni	-10.6946
▁illustr	-10.695
▁hopkins	-10.695
▁fyodor	-10.6958
▁napl	-10.6964
orough	-10.6966
▁bauer	-10.697
▁carme	-10.6971
▁workers	-10.6983
rd	-10.6983
▁gun	-10.6993
haus	-10.6994
▁brussels	-10.6995
▁sr	-10.6998
troit	-10.7008
occo	-10.7014
▁clarke	-10.7017
cino	-10.7022
▁curt	-10.7047
▁merc	-10.7049
tsch	-10.7062
relat	-10.7064
▁stadium	-10.7073
mouth	-10.7073
▁climat	-10.7081
▁mainz	-10.7082
uchi	-10.7097
▁stadte	-10.7097
▁tur	-10.7113
▁wrestl	-10.7115
▁gut	-10.7116
▁sabin	-10.7122
▁rebecc	-10.7123
▁volker	-10.7134
oni	-10.7136
lund	-10.7137
▁lorenz	-10.7139
▁middle	-10.7146
▁brunswick	-10.7155
▁women	-10.7156
▁vii	-10.7156
▁myster	-10.7163
▁spa	-10.7169
▁armenian	-10.7175
count	-10.7182
▁clar	-10.7184
▁artur	-10.7192
▁slovak	-10.7197
dan	-10.7199
▁willem	-10.72
▁holmes	-10.7202
ium	-10.7203
court	-10.7206
▁kazan	-10.7211
▁kaufman	-10.7213
ila	-10.7219
▁common	-10.7221
▁gallen	-10.7223
▁claudia	-10.724
▁drumm	-10.724
▁dead	-10.7244
▁seven	-10.7245
ong	-10.7246
▁epic	-10.7251
▁krug	-10.7259
gren	-10.7289
▁mu	-10.7298
position	-10.7305
▁magnus	-10.7309
▁girls	-10.731
▁regina	-10.7313
zio	-10.7315
▁sea	-10.7319
▁thre	-10.7322
▁armand	-10.7322
▁fri	-10.7331
len	-10.7348
▁klein	-10.7354
sohn	-10.7362
▁munster	-10.7363
▁vietnam	-10.7365
▁yu	-10.7369
ivan	-10.737
▁beverl	-10.7372
▁edwards	-10.7375
ua	-10.7379
▁amand	-10.7379
▁your	-10.7386
hart	-10.7394
▁industrial	-10.74
auer	-10.7401
▁ru	-10.7404
▁wien	-10.7413
▁machine	-10.7414
▁fir	-10.7421
▁bjorn	-10.7421
hage	-10.7425
▁water	-10.7427
▁four	-10.7429
randy	-10.743
▁club	-10.7433
vos	-10.7435
oglu	-10.7436
▁trinit	-10.7442
▁gloria	-10.7458
▁ram	-10.746
iami	-10.7471
▁urban	-10.7479
▁bridge	-10.748
▁mai	-10.7487
▁how	-10.749
▁railway	-10.7493
yotr	-10.7494
▁marin	-10.7511
nau	-10.7512
jing	-10.7522
iz	-10.7535
▁soldier	-10.7536
▁sol	-10.7536
▁cassi	-10.7539
tor	-10.754
▁live	-10.7541
ader	-10.7545
muller	-10.7548
otti	-10.7548
ward	-10.7551
ik	-10.7553
hibi	-10.7559
▁emili	-10.7561
shire	-10.7566
▁baske	-10.7595
herr	-10.7598
▁sandor	-10.7602
▁low	-10.7607
▁flori	-10.761
bar	-10.7621
▁indiana	-10.7629
▁pete	-10.7631
▁clint	-10.7632
▁recording	-10.7634
erzy	-10.7641
▁rad	-10.7653
▁etienne	-10.766
▁levy	-10.7665
▁craig	-10.7667
▁hirsch	-10.7668
▁finance	-10.7668
▁rosen	-10.7668
niew	-10.7674
▁tyler	-10.7682
▁jas	-10.7687
▁grad	-10.7688
maker	-10.769
enstein	-10.7697
▁musik	-10.7708
▁vaud	-10.7708
▁chang	-10.7712
▁marx	-10.7715
▁goethe	-10.7716
▁farmer	-10.772
▁aviv	-10.772
▁wales	-10.7722
▁beat	-10.7729
▁dori	-10.7729
▁old	-10.7729
niz	-10.7732
▁hunt	-10.7733
inster	-10.7743
▁conservato	-10.7759
▁dahl	-10.7765
▁bor	-10.7768
▁bla	-10.7768
schke	-10.777
ode	-10.7772
ang	-10.7776
wick	-10.7788
▁fernandez	-10.7801
▁roberts	-10.7824
▁mae	-10.7825
ermann	-10.7826
▁baptist	-10.7826
▁traffic	-10.7843
▁percy	-10.7844
▁caesar	-10.7844
head	-10.7853
▁blum	-10.7858
▁kirk	-10.7862
▁arch	-10.7865
bund	-10.7869
escu	-10.787
▁kar	-10.7874
sley	-10.7878
▁aleksey	-10.7882
▁schroder	-10.7888
▁javier	-10.7888
tov	-10.7893
zel	-10.7894
▁never	-10.7901
▁heaven	-10.7902
▁govern	-10.7904
▁dallas	-10.7909
▁vital	-10.791
▁alexis	-10.7914
▁belarus	-10.7915
▁ignaz	-10.7916
▁gro	-10.7916
var	-10.7922
▁isabell	-10.7926
▁camille	-10.7933
▁martha	-10.7934
im	-10.7934
ogna	-10.7937
▁beaut	-10.7943
gaard	-10.7961
▁katharin	-10.7961
lingen	-10.7979
▁salz	-10.7985
▁band	-10.7988
ba	-10.7991
▁miles	-10.7992
▁wies	-10.8
leen	-10.8001
band	-10.8002
▁ellis	-10.801
▁hang	-10.8018
▁kraus	-10.8018
▁indie	-10.8018
▁salvador	-10.8023
▁butler	-10.8024
▁grimm	-10.8024
▁levi	-10.8029
▁peters	-10.8032
▁road	-10.8033
▁wal	-10.8033
▁wurz	-10.8035
▁ferenc	-10.8035
video	-10.8047
▁mol	-10.8049
▁brigitt	-10.8052
▁adel	-10.8054
▁saga	-10.8054
▁brenda	-10.8069
wig	-10.8073
▁libre	-10.8076
▁papa	-10.8106
▁ki	-10.8113
▁wave	-10.8116
▁vicent	-10.8118
▁maxim	-10.8119
▁magdalen	-10.812
▁research	-10.8127
▁pitts	-10.8132
▁anthropolog	-10.8152
▁shann	-10.8153
▁fire	-10.8156
bury	-10.8161
▁brother	-10.8166
▁cleve	-10.8171
▁dag	-10.8172
kiev	-10.8186
▁estonia	-10.8187
▁fash	-10.82
▁10	-10.8202
▁lothar	-10.8207
▁zbi	-10.8208
cycl	-10.8209
▁was	-10.8221
▁gib	-10.8221
▁josep	-10.8232
▁tina	-10.8241
nan	-10.8251
▁revolution	-10.8252
▁shoot	-10.8252
▁alps	-10.8255
▁mohamed	-10.8259
▁cinematograph	-10.826
▁nieder	-10.8262
▁fra	-10.8274
▁shaw	-10.8277
▁wa	-10.8285
constructi	-10.8298
▁twilight	-10.8298
▁dam	-10.8305
msu	-10.8309
▁abdulla	-10.8312
▁irene	-10.8325
▁sandra	-10.8327
▁hammer	-10.8334
▁shawn	-10.8339
▁schon	-10.8339
▁recordings	-10.8341
chi	-10.8343
▁over	-10.8378
gar	-10.8383
▁gonzalez	-10.8392
▁silver	-10.8398
▁mick	-10.8401
▁herze	-10.8402
▁thai	-10.8403
▁porter	-10.8424
▁engel	-10.8424
▁bay	-10.8429
ati	-10.8435
▁caribbean	-10.8439
▁ukrainian	-10.8439
▁hein	-10.8445
▁mos	-10.8453
▁public	-10.8456
▁dragon	-10.8466
▁bauman	-10.8467
▁georgi	-10.8473
▁gab	-10.8474
▁lutz	-10.848
▁gustaf	-10.8486
▁belgra	-10.849
▁leonardo	-10.8499
▁lawn	-10.8501
▁janet	-10.8502
▁cair	-10.8511
▁marian	-10.8512
▁patt	-10.8517
▁santos	-10.8519
▁benedict	-10.8524
▁sergi	-10.8536
▁laurent	-10.8542
▁castro	-10.8553
▁rise	-10.8553
▁holland	-10.8564
▁sylvia	-10.8565
▁ban	-10.8565
▁carroll	-10.8582
▁cohen	-10.8584
▁davi	-10.8584
ester	-10.8586
milton	-10.8589
▁cop	-10.86
▁lost	-10.8603
▁ein	-10.8605
▁sophia	-10.8608
ha	-10.8614
▁gustave	-10.8614
▁hil	-10.8623
▁ven	-10.8626
▁rudolph	-10.863
hof	-10.8631
▁adl	-10.8632
▁gaston	-10.8633
tta	-10.8635
▁universita	-10.8637
▁calvin	-10.8637
▁poly	-10.8641
ous	-10.8645
▁kara	-10.8661
▁alger	-10.8662
tal	-10.867
ut	-10.8674
▁trumpet	-10.8679
▁antoni	-10.868
▁isa	-10.8689
ischer	-10.869
▁enric	-10.8694
▁francais	-10.8694
▁geograph	-10.8707
▁edwin	-10.8724
▁dirk	-10.8725
▁luxembourg	-10.8726
▁collect	-10.8727
quez	-10.8731
ence	-10.8732
▁lisb	-10.8737
rut	-10.8743
▁iceland	-10.8743
▁alois	-10.8744
▁oak	-10.8745
▁iron	-10.8746
▁che	-10.8763
▁xavier	-10.8764
▁blanc	-10.8772
▁hilde	-10.8774
▁tade	-10.8784
ota	-10.8785
▁piero	-10.8791
▁thier	-10.8793
out	-10.8796
▁hank	-10.8799
▁mit	-10.8807
▁jesu	-10.8815
▁andrzej	-10.8824
▁slovenia	-10.8824
▁guinea	-10.8825
annie	-10.8846
va	-10.8848
tti	-10.8849
ud	-10.8853
▁armenia	-10.8856
mura	-10.886
▁albania	-10.8861
rugb	-10.8863
▁programm	-10.8863
▁bos	-10.8864
▁leonhard	-10.8865
▁omar	-10.8868
▁conn	-10.8877
▁spy	-10.8889
▁comic	-10.8894
seine	-10.8897
▁camill	-10.8897
agan	-10.8918
▁las	-10.8922
ierz	-10.8924
▁geoffr	-10.893
▁heather	-10.8933
▁baby	-10.8948
▁rei	-10.8962
▁paolo	-10.8962
harmonic	-10.8963
eth	-10.8972
ucci	-10.8974
▁gur	-10.8975
▁marti	-10.8988
swil	-10.899
▁wil	-10.8997
▁mul	-10.9001
▁rice	-10.9002
▁cesar	-10.9007
saal	-10.901
wich	-10.9013
▁compl	-10.9017
nitz	-10.9017
ttist	-10.9032
gart	-10.9033
▁treat	-10.904
ander	-10.9047
▁abbas	-10.9054
▁jerem	-10.9069
enrique	-10.9072
▁brooke	-10.9078
viv	-10.9082
▁lib	-10.9092
cke	-10.9096
▁bre	-10.91
itis	-10.9101
▁kati	-10.9102
▁gert	-10.9103
▁knut	-10.9117
▁bloom	-10.9123
ular	-10.9129
▁darm	-10.9131
▁golden	-10.914
▁palm	-10.915
▁marl	-10.9152
▁tomas	-10.9155
▁nic	-10.9159
▁woman	-10.9171
▁lynch	-10.9175
▁naval	-10.9184
▁guillaum	-10.9194
▁tunis	-10.9197
▁zden	-10.9198
▁spe	-10.9205
▁grun	-10.9207
isons	-10.9213
▁bach	-10.9219
▁shi	-10.9224
▁cruz	-10.9226
▁brod	-10.9231
ally	-10.9233
roy	-10.9233
ldorf	-10.9253
▁arturo	-10.9256
▁ferg	-10.9266
▁baile	-10.9269
▁augustin	-10.9273
elecommunication	-10.9276
▁sleep	-10.9277
▁glen	-10.9278
▁lione	-10.9278
▁nils	-10.928
▁trek	-10.9287
jacques	-10.9291
▁saw	-10.9299
▁clif	-10.93
tsky	-10.9306
itsj	-10.9311
▁bark	-10.9332
▁hind	-10.9334
▁economic	-10.9335
rin	-10.9337
ehran	-10.9346
like	-10.9347
▁walt	-10.9362
▁pope	-10.9365
▁best	-10.9367
ira	-10.9369
▁mika	-10.937
▁ash	-10.9372
ito	-10.9374
▁quin	-10.9375
▁mayer	-10.9376
imov	-10.9381
▁trump	-10.9381
▁synth	-10.9383
see	-10.9385
▁mas	-10.939
▁cyril	-10.9394
▁michele	-10.9396
ux	-10.9401
▁deutsch	-10.9411
joseph	-10.9412
▁jacki	-10.943
▁esperanto	-10.9433
▁pun	-10.944
▁jeanne	-10.9443
▁pornograph	-10.9448
▁cath	-10.9449
▁alvar	-10.945
▁silva	-10.9452
ition	-10.9478
▁dem	-10.9478
bo	-10.948
▁diamond	-10.9483
▁robertson	-10.9483
▁symp	-10.9486
▁tri	-10.9492
inski	-10.9494
▁tor	-10.9494
▁cu	-10.9495
▁born	-10.9511
▁alexey	-10.9524
egg	-10.9534
▁ju	-10.9537
▁gertrud	-10.9539
▁hassan	-10.9541
▁box	-10.9547
hiro	-10.9548
▁melani	-10.9549
lett	-10.9559
▁wei	-10.9562
▁saxony	-10.9576
▁tour	-10.958
sala	-10.9586
ector	-10.9586
▁profession	-10.9589
▁westm	-10.9591
▁meg	-10.9595
▁joaqui	-10.9596
▁eli	-10.9603
toms	-10.9605
▁bart	-10.9628
▁out	-10.963
itt	-10.9635
▁guarantee	-10.9642
▁gomez	-10.9643
ralf	-10.9643
▁wend	-10.9656
yana	-10.9658
▁vogel	-10.9665
▁joy	-10.9676
▁ward	-10.9684
▁forster	-10.9694
▁cleopatra	-10.9695
▁forever	-10.9697
▁timoth	-10.9698
ada	-10.9702
dge	-10.9704
negro	-10.9709
▁zoe	-10.9711
ious	-10.9729
ther	-10.9741
▁armstrong	-10.9749
▁hindu	-10.9753
▁secret	-10.9754
▁niger	-10.9754
▁kramer	-10.9755
▁kor	-10.9757
sey	-10.9761
▁annett	-10.9766
jana	-10.9772
olivia	-10.9785
▁claren	-10.9797
▁rich	-10.9805
▁wesley	-10.9805
▁liu	-10.9807
▁joyce	-10.981
▁mori	-10.981
▁irvin	-10.9835
▁rein	-10.9837
▁miss	-10.9849
▁rudi	-10.9853
▁salomo	-10.9858
aachen	-10.986
▁kane	-10.9861
emann	-10.9865
▁holt	-10.9872
zek	-10.9874
▁tob	-10.9876
▁freeman	-10.9881
bi	-10.9886
▁carrie	-10.9887
▁cho	-10.9893
▁oriental	-10.9914
▁masa	-10.9916
▁weiss	-10.9917
ita	-10.993
skii	-10.9931
attle	-10.9945
▁sull	-10.9945
▁owen	-10.9946
eau	-10.9948
hauser	-10.9961
▁pabl	-10.9965
▁bonaparte	-10.9967
▁northwest	-10.9967
ayev	-10.9971
▁gill	-10.9976
▁ewald	-10.9983
▁kristin	-10.9988
▁wars	-10.9989
▁ruiz	-10.9996
▁dal	-11.0009
▁wisconsin	-11.0022
▁squad	-11.0022
▁luther	-11.0024
▁dur	-11.0042
▁imr	-11.0046
▁shin	-11.0052
weg	-11.0053
▁straus	-11.0053
▁case	-11.0055
▁hu	-11.0062
alvin	-11.0066
ska	-11.0066
ite	-11.0078
hard	-11.0078
stone	-11.0081
▁noah	-11.0081
▁leban	-11.0083
▁shirle	-11.0083
har	-11.0088
▁banks	-11.0088
▁mohammad	-11.0093
ersey	-11.0102
▁stro	-11.0102
smith	-11.0107
stra	-11.0117
▁ingri	-11.0123
swald	-11.0125
▁cre	-11.0126
▁huber	-11.0131
▁constitu	-11.0133
▁grey	-11.0133
▁epis	-11.0138
▁elio	-11.0141
▁andres	-11.0154
▁pacifi	-11.0162
ilt	-11.0163
kiewicz	-11.0164
▁luc	-11.0166
dell	-11.0171
▁chad	-11.0175
▁mount	-11.0178
▁second	-11.0179
▁cape	-11.0188
jill	-11.0188
▁roosevelt	-11.0189
▁flor	-11.0189
▁dor	-11.0191
lissa	-11.0192
▁mannheim	-11.0197
▁shep	-11.0204
▁horn	-11.0205
uate	-11.0212
aux	-11.0214
nt	-11.0222
back	-11.0227
▁bradle	-11.0231
▁kenn	-11.0232
▁burt	-11.0234
eslav	-11.0237
eux	-11.0244
▁evelyn	-11.0247
ven	-11.0247
media	-11.0253
▁blog	-11.0254
akis	-11.0257
▁korean	-11.0259
▁bond	-11.0266
▁goldberg	-11.027
vonne	-11.0272
▁jura	-11.0273
▁moses	-11.0281
eton	-11.0283
▁abu	-11.0287
kur	-11.0291
▁syria	-11.0294
▁bergen	-11.0297
▁tai	-11.0299
apor	-11.0301
▁reynold	-11.0302
▁double	-11.0303
▁emerson	-11.0303
▁augustus	-11.0309
▁dream	-11.0316
▁parson	-11.0319
zheimer	-11.0319
▁battist	-11.0327
▁hohen	-11.034
▁zo	-11.0345
ender	-11.0345
▁hahn	-11.0346
acker	-11.0349
min	-11.0352
▁alejandr	-11.0359
▁va	-11.0365
▁histori	-11.0366
▁isabel	-11.0378
▁ari	-11.0378
▁antonin	-11.0385
▁valerie	-11.0388
▁gilles	-11.0393
ovo	-11.0398
▁sar	-11.0401
▁chamber	-11.0414
owitz	-11.0421
▁persian	-11.0422
ara	-11.0432
mo	-11.0435
▁var	-11.0437
▁birm	-11.0439
▁alban	-11.044
▁fo	-11.044
▁eich	-11.0443
▁zhan	-11.0447
ide	-11.0451
▁wo	-11.0455
ough	-11.046
▁afghan	-11.0474
▁christmas	-11.0474
▁petrov	-11.0477
▁agent	-11.0478
ways	-11.0486
▁gates	-11.0487
▁casa	-11.0493
▁mariann	-11.0494
▁famil	-11.0502
lander	-11.0503
czynsk	-11.051
▁magic	-11.0512
▁dj	-11.0529
▁baltimore	-11.0532
▁fre	-11.0534
▁gran	-11.0535
▁brain	-11.0541
onso	-11.0547
▁doll	-11.0556
▁general	-11.0564
ague	-11.0564
▁walde	-11.0566
▁bri	-11.0569
▁home	-11.0573
▁wind	-11.0574
▁plan	-11.0578
centr	-11.058
▁dun	-11.0581
▁gibb	-11.0583
▁bron	-11.0587
▁solomon	-11.059
▁basil	-11.059
▁collis	-11.0591
▁bronx	-11.0592
▁indian	-11.0592
▁parkins	-11.0593
▁tenni	-11.0594
munt	-11.0596
▁thomson	-11.0597
▁pow	-11.0597
ichi	-11.0598
▁court	-11.0613
▁rom	-11.0621
▁bayer	-11.0633
▁henderson	-11.0639
▁haas	-11.0642
▁mah	-11.0642
kn	-11.0644
▁fuchs	-11.0649
nis	-11.065
▁pascal	-11.0658
▁oz	-11.0658
▁armin	-11.0661
▁diar	-11.0661
▁fran	-11.0666
▁fitz	-11.0667
▁yoshi	-11.067
oli	-11.0674
▁eve	-11.0675
▁joann	-11.0678
▁gross	-11.0686
▁seth	-11.0686
ges	-11.0686
▁cesare	-11.0689
▁bil	-11.0691
▁take	-11.0691
▁miri	-11.0699
▁dynasty	-11.0709
▁ibrahim	-11.0709
raq	-11.0714
▁audr	-11.0714
▁forrest	-11.0715
lis	-11.0718
▁bran	-11.074
ight	-11.0741
chen	-11.0757
▁cliff	-11.0758
▁chan	-11.0762
▁percussion	-11.0768
alicia	-11.0771
▁hour	-11.0774
▁gianni	-11.079
grand	-11.0791
▁wells	-11.0795
▁massim	-11.0801
ouse	-11.0802
▁queens	-11.0802
▁lub	-11.0803
face	-11.0806
▁krakow	-11.0806
▁simmon	-11.0814
▁experiment	-11.0829
▁cerebr	-11.0829
▁special	-11.0831
acter	-11.0833
▁judy	-11.0836
unni	-11.0838
▁steiner	-11.0841
▁raul	-11.0841
▁teres	-11.0846
▁gand	-11.0856
nach	-11.086
litz	-11.086
▁xav	-11.086
▁lima	-11.0862
▁bulgarian	-11.0865
illa	-11.0884
▁mecklenburg	-11.0888
uson	-11.089
onika	-11.0891
▁motor	-11.0892
ack	-11.0894
▁bert	-11.0897
▁traum	-11.0902
ries	-11.0916
▁beth	-11.0936
▁europa	-11.0938
rek	-11.0946
rano	-11.0947
▁aver	-11.0949
▁brun	-11.0954
▁video	-11.0956
▁lorenzo	-11.0964
▁noel	-11.0969
ff	-11.0976
elle	-11.0978
stan	-11.0981
bia	-11.0989
▁tra	-11.099
▁hess	-11.0991
▁kiss	-11.0993
jurgen	-11.0996
area	-11.1007
▁religio	-11.1008
sonny	-11.1008
▁detective	-11.1009
▁floyd	-11.1009
ami	-11.101
dieu	-11.1011
▁feder	-11.1012
▁colomb	-11.1013
▁maxwell	-11.1019
▁administration	-11.1023
▁watt	-11.1025
entral	-11.103
▁apple	-11.103
stedt	-11.1033
▁bent	-11.1034
▁wes	-11.1035
▁got	-11.1041
▁thir	-11.1047
dansk	-11.1053
▁anja	-11.1059
▁maur	-11.106
eur	-11.1061
▁vegas	-11.1066
▁settlement	-11.1071
▁vaclav	-11.1071
prat	-11.1072
▁wonder	-11.1072
▁about	-11.1072
eot	-11.1075
rie	-11.1078
▁dorothe	-11.1079
▁ole	-11.1087
▁wahl	-11.1089
meier	-11.1098
▁lies	-11.1101
▁mid	-11.1102
▁varga	-11.1107
pool	-11.1115
aker	-11.1116
▁lucy	-11.1117
▁si	-11.1117
▁rupert	-11.1133
▁price	-11.1133
▁fredrik	-11.1134
▁hab	-11.1138
ore	-11.1141
zen	-11.1143
▁shan	-11.1149
bili	-11.1153
▁johnston	-11.1156
ban	-11.1166
▁brent	-11.1168
▁pass	-11.1181
...	-11.1181
lob	-11.1185
▁alli	-11.1194
▁ilya	-11.1195
▁evil	-11.1197
ens	-11.1198
▁that	-11.121
zi	-11.1218
▁lie	-11.1219
rock	-11.1229
mines	-11.1248
▁brune	-11.1251
▁mitch	-11.1254
zambi	-11.1256
▁vladislav	-11.1257
▁miklos	-11.1257
▁gennad	-11.1257
▁vanderb	-11.1261
▁bishop	-11.1264
▁elsa	-11.1266
▁bella	-11.1271
▁ever	-11.1274
▁till	-11.1279
ura	-11.1282
▁theo	-11.1287
joachim	-11.1287
▁schmitt	-11.1289
ent	-11.1294
▁torres	-11.1294
jean	-11.1308
▁mur	-11.1312
▁poll	-11.1314
ix	-11.1314
king	-11.1314
▁lara	-11.1317
▁esperant	-11.1317
▁sharon	-11.1317
▁holly	-11.132
▁kazim	-11.1321
▁mumbai	-11.1321
▁irin	-11.133
▁lucer	-11.1331
▁petr	-11.1333
kins	-11.1334
▁polite	-11.1338
▁michal	-11.135
▁kansa	-11.1352
▁macedonia	-11.1365
▁town	-11.1371
▁sin	-11.1372
▁protestant	-11.1374
bauer	-11.138
▁vol	-11.1384
▁cypr	-11.1385
▁susann	-11.1386
▁moren	-11.1391
▁glove	-11.1398
▁alter	-11.14
▁villa	-11.1401
▁milano	-11.1405
tenberg	-11.1412
▁schmid	-11.1415
▁gen	-11.1424
iard	-11.1424
sov	-11.1426
▁witt	-11.143
▁scream	-11.143
▁willis	-11.1432
iv	-11.1433
▁hoffman	-11.1434
▁bahr	-11.1434
▁horace	-11.1438
▁giacom	-11.144
▁aeronautic	-11.1447
▁we	-11.1451
▁luke	-11.1452
ick	-11.1464
▁greif	-11.1465
argau	-11.1466
▁rap	-11.147
▁gret	-11.1472
▁bru	-11.1473
ates	-11.1481
ecki	-11.1485
▁lena	-11.149
▁alm	-11.1492
nin	-11.1493
▁tamar	-11.1507
▁farm	-11.1508
▁master	-11.1509
▁return	-11.151
▁bud	-11.151
▁diab	-11.1514
▁hope	-11.1515
folk	-11.1526
itor	-11.1528
▁hof	-11.1529
▁dog	-11.1534
lan	-11.1536
▁conni	-11.1554
▁micke	-11.1556
ristina	-11.1557
▁wol	-11.156
▁lenin	-11.1561
▁what	-11.1564
▁light	-11.1565
▁sav	-11.1567
▁griffith	-11.1571
▁inn	-11.1573
▁vo	-11.1575
▁kaiser	-11.1577
▁ljub	-11.1588
ury	-11.1593
▁molina	-11.1603
▁mort	-11.1604
▁solo	-11.1615
▁beatri	-11.1627
▁hamp	-11.1631
▁back	-11.1632
▁clemens	-11.164
▁marquis	-11.164
▁uri	-11.164
▁journalism	-11.164
▁vyach	-11.164
▁gleb	-11.1643
▁lukas	-11.1645
▁phi	-11.1646
upon	-11.1648
▁kan	-11.1654
▁korn	-11.1656
▁nora	-11.1658
▁astor	-11.1659
▁sant	-11.1661
▁meier	-11.1667
▁abbot	-11.1668
alec	-11.167
nver	-11.1678
▁call	-11.1682
anda	-11.1683
▁hero	-11.1685
▁ols	-11.1693
▁farkas	-11.1696
▁dub	-11.1699
▁riga	-11.17
▁vadi	-11.1701
▁juill	-11.1705
▁left	-11.1707
▁burns	-11.1713
▁stephani	-11.1716
▁sven	-11.1717
▁maris	-11.1721
▁fuller	-11.1721
▁swan	-11.1722
raw	-11.1722
▁clare	-11.1723
ovic	-11.1729
iger	-11.1736
nier	-11.1736
▁margo	-11.1739
▁angelo	-11.1748
▁bas	-11.1754
▁olive	-11.1759
▁mein	-11.1761
row	-11.1763
▁lund	-11.1764
▁zyg	-11.177
▁temple	-11.1775
▁rally	-11.1776
▁christi	-11.1777
▁lane	-11.1777
▁marion	-11.1777
▁jenny	-11.1783
ark	-11.1789
cek	-11.1797
▁execution	-11.1802
lach	-11.1804
▁jin	-11.1806
▁fann	-11.1818
▁break	-11.1818
vi	-11.1818
ople	-11.1823
▁compos	-11.1824
▁kra	-11.1825
▁mus	-11.1826
▁feminis	-11.1834
▁virgin	-11.1835
▁naomi	-11.1837
▁emirate	-11.1839
▁herb	-11.184
phis	-11.1841
▁sommer	-11.1844
▁kuhn	-11.1849
▁brych	-11.1859
▁rw	-11.1859
▁burke	-11.186
▁brat	-11.1866
putes	-11.1866
▁barton	-11.1869
▁dev	-11.1875
las	-11.1876
▁starr	-11.1876
▁arn	-11.1879
▁dass	-11.1879
nard	-11.1882
▁unter	-11.1883
▁ismail	-11.1883
▁pet	-11.1885
▁perkin	-11.1885
▁maggi	-11.1886
▁elen	-11.189
▁river	-11.1894
▁barb	-11.1899
ien	-11.19
▁buddh	-11.1902
▁ice	-11.1904
▁eagle	-11.1906
▁ocean	-11.1908
▁rem	-11.1912
▁metropoli	-11.1915
▁baku	-11.1915
▁kr	-11.1919
▁ferrer	-11.1925
▁lero	-11.1926
wing	-11.1927
metier	-11.1927
▁christa	-11.1928
▁bright	-11.1929
▁mem	-11.1929
ador	-11.193
▁greens	-11.1934
ign	-11.1935
▁berger	-11.1938
ylan	-11.1938
▁zoolog	-11.1942
▁gol	-11.1942
nati	-11.1943
▁albin	-11.1946
▁zar	-11.1949
nghai	-11.1949
sar	-11.1951
▁kling	-11.1968
▁palestin	-11.1971
▁decca	-11.1972
▁bedford	-11.1972
▁vampire	-11.1975
▁cleric	-11.1976
▁oswald	-11.1979
▁frey	-11.1982
▁kumar	-11.1983
▁gay	-11.1984
tin	-11.1988
thing	-11.1994
▁roche	-11.1996
neill	-11.2001
▁angels	-11.2002
▁institut	-11.2004
ok	-11.2011
▁doo	-11.202
scher	-11.2027
▁mile	-11.2028
▁adrien	-11.2029
▁bristo	-11.2032
eira	-11.2034
▁crosby	-11.2038
▁simpson	-11.2038
▁clive	-11.2041
▁drake	-11.2045
▁choi	-11.2046
oye	-11.2046
chore	-11.2054
▁tito	-11.2064
oyle	-11.2066
▁pas	-11.2069
▁kenya	-11.2074
▁padu	-11.2075
ille	-11.2078
▁aug	-11.2082
▁linguistic	-11.2084
▁upp	-11.2089
chuk	-11.2096
▁hildebrand	-11.2106
▁anglican	-11.2106
▁ulrik	-11.2106
▁zombie	-11.2111
▁drawe	-11.2112
▁lenz	-11.2117
▁crown	-11.2117
▁vilni	-11.212
▁alphonse	-11.2123
▁roll	-11.2123
▁grigory	-11.2127
▁zieg	-11.2128
▁abe	-11.2132
▁schell	-11.2134
▁wein	-11.2141
▁ib	-11.2141
▁murder	-11.2142
▁debbi	-11.2152
▁kappa	-11.2154
▁intelligen	-11.2174
▁lebedev	-11.2174
asha	-11.2183
▁powell	-11.2184
▁mered	-11.2188
lov	-11.219
▁woods	-11.2191
low	-11.2192
▁jake	-11.2192
▁rush	-11.2194
tsev	-11.2199
ikov	-11.2199
hold	-11.22
▁taka	-11.2201
▁ballist	-11.2203
▁yo	-11.2207
▁bang	-11.2211
ecture	-11.2213
▁steele	-11.2216
est	-11.2236
▁jani	-11.2237
▁serbs	-11.2238
▁enem	-11.2239
▁method	-11.224
▁gyula	-11.2243
suke	-11.2246
▁tucker	-11.2247
fort	-11.2248
▁autonomo	-11.2254
enzel	-11.2257
ntrol	-11.2257
▁fat	-11.226
▁mandel	-11.2262
inen	-11.2264
▁para	-11.2267
maria	-11.2271
▁moni	-11.2275
▁thorn	-11.2277
▁lucian	-11.2283
▁kazakhs	-11.229
▁legen	-11.229
▁trini	-11.2292
igle	-11.2295
▁shu	-11.2296
▁prose	-11.2299
▁vern	-11.2302
▁mora	-11.2308
▁bosnia	-11.2308
▁sever	-11.231
▁doctor	-11.2312
▁province	-11.2313
illes	-11.2318
cope	-11.232
▁erhard	-11.2324
▁crow	-11.2327
taro	-11.2336
▁marques	-11.2337
▁yoko	-11.2337
▁holg	-11.2339
fall	-11.2343
ris	-11.2344
▁gard	-11.2344
▁lea	-11.2344
lee	-11.2346
▁schaff	-11.235
madi	-11.2353
oka	-11.2354
▁albanian	-11.2361
cnico	-11.2365
▁face	-11.2365
▁base	-11.2369
nberg	-11.2378
▁medicin	-11.2378
▁banjo	-11.2382
shaw	-11.2383
▁cro	-11.239
ume	-11.239
▁pamel	-11.2397
▁cornelis	-11.2398
sbruck	-11.24
creat	-11.2403
reza	-11.242
▁nami	-11.2421
owa	-11.2422
dall	-11.2422
▁bret	-11.2426
ai	-11.2427
om	-11.2429
cademi	-11.2441
▁pont	-11.2443
▁corn	-11.2444
▁brock	-11.2445
car	-11.2446
oltan	-11.2447
▁weis	-11.2453
▁henning	-11.2457
bruck	-11.246
▁shah	-11.2465
nyi	-11.2465
hofen	-11.2466
▁busch	-11.247
aud	-11.2474
nelli	-11.2478
▁bull	-11.2481
ison	-11.2494
eyev	-11.2503
▁reis	-11.2504
▁frederik	-11.2512
▁flem	-11.2518
ald	-11.252
▁riva	-11.2521
▁dort	-11.2523
▁ilse	-11.2523
▁junior	-11.2524
▁katherin	-11.2528
▁lazar	-11.2532
▁flyn	-11.254
▁marseill	-11.254
▁booth	-11.2548
▁ex	-11.255
eanu	-11.255
umei	-11.2566
▁drew	-11.2575
▁arian	-11.2586
▁gunnar	-11.2587
▁storm	-11.2588
azki	-11.259
▁flu	-11.259
ves	-11.2592
▁dirt	-11.2594
▁caspar	-11.2594
▁napoleon	-11.2608
▁beer	-11.2612
mirand	-11.2616
▁jacobs	-11.2619
▁cong	-11.262
▁andras	-11.2622
cki	-11.2623
vienna	-11.2625
▁ignaci	-11.263
▁carpent	-11.2637
▁whe	-11.2638
▁alma	-11.2642
yuki	-11.2644
▁younger	-11.2646
▁zimmer	-11.2647
agawa	-11.2647
lein	-11.2647
▁rossi	-11.2649
▁dre	-11.2651
omir	-11.2652
wain	-11.2657
▁moldova	-11.2666
ll	-11.2676
illo	-11.2677
coast	-11.268
▁winston	-11.2682
▁barret	-11.2686
ology	-11.2692
▁belarusian	-11.2694
ike	-11.2694
▁summer	-11.2698
▁qui	-11.2713
mov	-11.2715
roux	-11.2718
▁nikolaev	-11.273
▁seymour	-11.2738
▁taxi	-11.2739
▁faith	-11.2739
▁wim	-11.2741
▁breis	-11.2741
▁ivanovic	-11.2743
▁thom	-11.2749
▁sum	-11.2755
ile	-11.2759
▁dorn	-11.2762
▁sall	-11.2762
morr	-11.2765
▁kohler	-11.2765
▁vince	-11.2766
wen	-11.2767
mason	-11.2778
▁mathi	-11.2782
▁naka	-11.2785
▁saul	-11.2786
▁lei	-11.2791
eva	-11.2794
▁web	-11.2794
▁ida	-11.2799
ann	-11.2802
▁brem	-11.2807
▁wi	-11.281
gut	-11.2812
▁infectio	-11.2812
ade	-11.2812
▁diaz	-11.2814
▁rex	-11.2819
▁jama	-11.2819
umbert	-11.2826
enzo	-11.2826
▁chief	-11.2831
▁huds	-11.2839
vasc	-11.2845
▁top	-11.2851
▁marvin	-11.2853
▁vic	-11.2857
die	-11.2863
stad	-11.2866
▁galin	-11.2873
▁amar	-11.2873
▁serra	-11.2877
henri	-11.2877
shin	-11.2878
ari	-11.2882
▁justic	-11.2883
▁spider	-11.2885
▁gould	-11.2885
▁byrne	-11.2885
▁hamm	-11.2885
▁breme	-11.2889
▁chu	-11.2891
chant	-11.2893
▁bus	-11.2896
▁svetl	-11.2902
ings	-11.2904
lena	-11.2915
▁buffa	-11.2917
▁urs	-11.2919
chan	-11.2923
▁kemp	-11.2924
▁uta	-11.293
▁marina	-11.2932
▁charle	-11.2934
▁luna	-11.2937
hak	-11.2941
▁act	-11.2944
▁xi	-11.2948
▁duncan	-11.2959
▁mun	-11.2959
▁crystal	-11.2961
▁polo	-11.2964
▁duff	-11.2966
hood	-11.2966
▁frances	-11.2971
pin	-11.2972
kopf	-11.2973
▁zora	-11.2974
▁card	-11.2978
▁lar	-11.2978
▁lucien	-11.2991
▁cinc	-11.2994
ky	-11.2994
lie	-11.2996
▁gi	-11.2998
ah	-11.3
▁fla	-11.3002
▁ep	-11.3024
▁kob	-11.3029
▁russ	-11.3033
▁mackenzie	-11.3034
▁universite	-11.3038
▁ji	-11.3045
▁hyde	-11.3046
▁hofmann	-11.3055
▁tamas	-11.3055
▁wand	-11.3056
gate	-11.3059
▁pay	-11.3062
tch	-11.307
▁mir	-11.3073
▁kur	-11.3076
▁jorgen	-11.3077
▁bonnie	-11.308
▁paz	-11.3083
▁theres	-11.3084
▁mohamm	-11.3087
▁soren	-11.3091
▁has	-11.3091
side	-11.3093
▁wilder	-11.3094
che	-11.31
schwil	-11.3103
▁symphon	-11.3113
▁suss	-11.3114
des	-11.3115
▁ren	-11.3116
orist	-11.3126
schild	-11.3127
hio	-11.3128
holz	-11.3134
antoine	-11.3144
▁arkad	-11.3145
▁boul	-11.3146
▁chapl	-11.3157
▁mack	-11.316
▁churchill	-11.3161
▁giuli	-11.318
▁advance	-11.3184
▁joa	-11.3185
▁blair	-11.3186
▁murdoc	-11.3189
▁rings	-11.3194
zer	-11.3199
▁point	-11.3203
▁goldsmith	-11.3207
tham	-11.3222
▁rey	-11.3223
▁amir	-11.3223
▁sanders	-11.3226
▁emm	-11.3231
▁plot	-11.3235
▁small	-11.3235
▁zel	-11.3242
sdorf	-11.3249
▁achille	-11.3262
ec	-11.3262
rade	-11.3272
▁bott	-11.3273
krzy	-11.3273
▁flet	-11.3277
▁alexandri	-11.3279
▁book	-11.328
▁list	-11.3281
etes	-11.3283
teen	-11.3284
▁dah	-11.3287
nski	-11.3287
▁kei	-11.3288
sche	-11.3297
arts	-11.3304
icki	-11.3305
▁fort	-11.3305
▁bodo	-11.3306
oz	-11.3312
▁gisel	-11.3313
▁lill	-11.3313
lithuanian	-11.3324
connell	-11.3324
▁henriett	-11.3329
lay	-11.3334
▁figur	-11.3335
▁uzbek	-11.3337
▁barne	-11.3337
▁alexei	-11.334
ugano	-11.3341
▁batman	-11.3341
▁jen	-11.3348
▁money	-11.3348
▁soft	-11.3349
kind	-11.3354
▁evan	-11.3362
▁malta	-11.3364
ax	-11.3373
▁filippo	-11.3379
olini	-11.3382
▁biel	-11.3382
▁glass	-11.3387
▁ponts	-11.3389
angelo	-11.3393
▁lambert	-11.3395
▁bandl	-11.3396
cello	-11.3397
bama	-11.3399
koff	-11.3401
▁griffi	-11.3403
▁hot	-11.3403
▁step	-11.3409
▁cain	-11.3409
▁urbana	-11.3411
▁dramaturg	-11.3414
▁erlangen	-11.3415
▁minnes	-11.3417
▁alto	-11.3418
▁mart	-11.3419
▁poli	-11.3419
eanor	-11.3427
▁mellon	-11.3427
▁freie	-11.3428
som	-11.3431
▁cost	-11.3442
funk	-11.3442
▁ephr	-11.3444
▁reb	-11.3447
away	-11.3448
▁marg	-11.3452
▁olymp	-11.3455
▁dw	-11.3458
▁pratt	-11.3465
▁hawkin	-11.3465
▁sri	-11.3468
▁dominic	-11.347
▁sta	-11.3473
▁lili	-11.3474
▁nino	-11.3488
▁tar	-11.3492
▁dud	-11.3496
▁brunn	-11.3497
▁snow	-11.3498
▁friedman	-11.3499
▁regional	-11.3501
will	-11.3502
muth	-11.3503
▁birgit	-11.3504
ache	-11.3507
▁come	-11.3507
rell	-11.3511
▁stock	-11.3512
vel	-11.3515
▁constantine	-11.353
rino	-11.3531
▁med	-11.3534
▁mia	-11.3539
dar	-11.354
▁fish	-11.3544
roth	-11.3546
arque	-11.3555
▁comba	-11.3561
▁trevor	-11.3573
▁gros	-11.358
▁alien	-11.3582
ares	-11.3582
▁blade	-11.3591
iver	-11.3592
▁hellmut	-11.3592
eign	-11.3593
▁laurie	-11.3594
▁zach	-11.3599
▁sim	-11.3601
rasmus	-11.3602
▁erno	-11.3604
elmer	-11.3606
▁dar	-11.361
ouver	-11.3612
mia	-11.3614
moshe	-11.3634
▁root	-11.3637
▁heine	-11.3641
rain	-11.3643
▁gore	-11.3646
augh	-11.3648
▁humphrey	-11.365
▁vaz	-11.3662
▁ivor	-11.3664
iska	-11.3665
▁wurt	-11.3666
▁petra	-11.3667
▁buff	-11.3668
▁thun	-11.367
ato	-11.3678
▁marr	-11.3683
uses	-11.369
▁bettin	-11.3691
▁strange	-11.3693
nur	-11.3696
▁cou	-11.3696
ng	-11.3697
▁eyes	-11.3706
▁bir	-11.371
▁pitt	-11.371
brecht	-11.3711
here	-11.3712
▁monster	-11.372
▁euro	-11.3729
▁reeve	-11.3733
▁monro	-11.3734
▁debora	-11.3735
▁zappa	-11.3735
▁thur	-11.3736
borg	-11.374
drow	-11.374
tribut	-11.3741
▁put	-11.3746
▁agustin	-11.3748
▁sweet	-11.3749
▁taras	-11.375
dish	-11.3752
kovic	-11.3752
▁print	-11.3753
▁walton	-11.3753
▁piz	-11.376
fi	-11.3761
▁kir	-11.3761
▁teen	-11.3766
inson	-11.3767
▁prison	-11.3768
▁atkins	-11.377
▁barber	-11.3771
mala	-11.3773
▁ackerman	-11.3777
ful	-11.3778
▁painting	-11.3788
▁sabri	-11.379
▁jun	-11.3792
nell	-11.3798
▁ahme	-11.3798
▁schir	-11.38
astern	-11.3804
▁hallow	-11.3806
▁theophil	-11.3811
▁leigh	-11.3812
ronnie	-11.3813
▁vid	-11.3814
aj	-11.3816
artre	-11.3817
isch	-11.3826
▁charl	-11.3827
▁tro	-11.3833
▁jess	-11.3835
▁vanc	-11.3838
bolivia	-11.3843
▁bab	-11.3843
▁hopp	-11.3851
kes	-11.3855
▁lan	-11.3857
▁kast	-11.3862
anna	-11.3865
▁bot	-11.3865
faculty	-11.388
op	-11.3882
▁wor	-11.3882
▁bismarck	-11.3891
▁domingo	-11.3892
▁kant	-11.3892
▁rubin	-11.3892
▁simone	-11.3893
▁bengal	-11.3895
▁olaf	-11.3895
schlag	-11.3899
▁salvatore	-11.3901
▁kassel	-11.3901
▁schiff	-11.3907
lius	-11.392
▁waters	-11.392
▁ameli	-11.3923
utens	-11.3929
▁arl	-11.3933
▁hocke	-11.3934
▁weiz	-11.3934
▁ivanov	-11.3944
▁franc	-11.3958
▁nune	-11.3966
▁wels	-11.3966
▁baro	-11.3967
▁pots	-11.397
▁are	-11.3973
▁montgomery	-11.3973
▁mum	-11.3975
▁huntington	-11.3976
▁burn	-11.3977
▁march	-11.3982
ssee	-11.3982
champa	-11.3984
▁garri	-11.3986
▁lince	-11.3986
sis	-11.3986
▁bend	-11.3987
▁minni	-11.3992
yne	-11.3993
▁mat	-11.4001
▁juri	-11.4005
▁sheen	-11.4006
ochum	-11.4006
rait	-11.4007
grave	-11.4008
▁dunn	-11.4008
▁stall	-11.401
▁zwe	-11.4015
simon	-11.4016
▁into	-11.4016
▁par	-11.4016
▁test	-11.4022
▁sylv	-11.4027
liam	-11.4028
sterling	-11.4033
▁biolog	-11.4035
▁cash	-11.4036
af	-11.4037
▁kapo	-11.4048
anis	-11.405
▁gerst	-11.4051
▁colum	-11.4051
▁kharkiv	-11.4056
▁hannover	-11.4056
▁pla	-11.4059
▁bate	-11.4059
▁schafer	-11.4061
▁speed	-11.4061
homa	-11.4062
▁ethi	-11.4063
▁langer	-11.4065
▁inge	-11.4066
opia	-11.4066
vier	-11.4067
▁loren	-11.4069
▁suzann	-11.4073
▁fast	-11.4073
▁kon	-11.4077
▁cut	-11.4081
▁ring	-11.4083
artu	-11.4091
isle	-11.4091
▁gwyn	-11.4093
ii	-11.4095
▁funk	-11.4097
▁chand	-11.4097
▁train	-11.4098
▁hagen	-11.4099
▁liv	-11.4102
▁q	-11.411
▁cold	-11.4113
▁mei	-11.4115
▁popula	-11.4118
vist	-11.4119
▁haller	-11.4121
▁plat	-11.4121
endra	-11.4125
▁krup	-11.4132
▁cyr	-11.4132
▁amber	-11.4136
▁metallurg	-11.4139
▁captain	-11.4139
▁adalbert	-11.4139
bin	-11.4142
anyi	-11.415
▁fink	-11.415
anthrop	-11.4153
otto	-11.4154
▁arne	-11.4158
▁petro	-11.4165
▁lead	-11.4167
ushkin	-11.4177
▁musi	-11.4177
thal	-11.4178
▁juliet	-11.4179
▁moral	-11.4179
▁confederat	-11.418
▁system	-11.4185
reid	-11.4194
gott	-11.4195
asco	-11.4198
izer	-11.4201
▁hoch	-11.4201
rose	-11.4203
▁there	-11.4207
▁falk	-11.421
▁magde	-11.4213
hurst	-11.4216
end	-11.4222
neuchatel	-11.4223
▁piotr	-11.4228
▁hayes	-11.4232
▁myan	-11.4235
▁hei	-11.4236
▁dela	-11.4239
▁haus	-11.4244
▁brandenburg	-11.4245
judd	-11.4246
ott	-11.4247
dessa	-11.4248
▁matsu	-11.4252
▁won	-11.4253
▁wilde	-11.4256
zade	-11.4262
▁tre	-11.4263
isha	-11.4269
yov	-11.4272
▁baba	-11.429
▁nepal	-11.4307
▁byzanti	-11.4307
▁frost	-11.4312
▁baum	-11.4319
▁viola	-11.4328
▁madi	-11.433
▁curr	-11.4334
▁carson	-11.4335
strid	-11.4336
ohr	-11.4353
▁heil	-11.4357
pe	-11.4358
work	-11.4363
▁insu	-11.4368
charles	-11.4369
▁say	-11.4373
▁read	-11.4373
▁copp	-11.4377
kirchen	-11.4381
▁mind	-11.4387
ffici	-11.4393
▁appli	-11.4393
dolph	-11.4396
volod	-11.4398
leigh	-11.4398
▁condor	-11.4398
▁benedett	-11.4399
vik	-11.44
▁sue	-11.4405
▁nasa	-11.4405
▁ivar	-11.4407
wein	-11.4407
▁columb	-11.4408
▁sami	-11.4409
▁aldo	-11.4412
▁kot	-11.4415
▁jam	-11.4416
▁dale	-11.4417
▁schwerin	-11.4422
ame	-11.4424
air	-11.4427
▁hayd	-11.4428
▁fear	-11.443
▁techni	-11.4431
▁kun	-11.4432
govin	-11.4434
▁his	-11.4443
▁alpha	-11.4444
▁wie	-11.4446
▁girard	-11.4449
▁muri	-11.4449
▁chair	-11.445
▁valde	-11.4451
▁raven	-11.4459
▁christophe	-11.446
▁asian	-11.446
▁schenk	-11.4461
▁hurt	-11.447
▁australian	-11.4471
▁yele	-11.4473
▁accordion	-11.4478
▁oppenheim	-11.4479
▁webb	-11.4481
▁attil	-11.4484
▁compe	-11.4486
▁run	-11.4487
po	-11.4489
▁piper	-11.4489
▁paradise	-11.449
lev	-11.4492
▁observ	-11.4493
▁chip	-11.4495
▁munch	-11.4498
ib	-11.4502
mus	-11.4511
wyz	-11.4514
▁schulz	-11.4515
lik	-11.4516
▁diet	-11.4519
▁shevch	-11.452
▁vasili	-11.4521
▁felic	-11.4536
thur	-11.4539
▁lip	-11.4539
▁yuki	-11.4539
▁mission	-11.4548
▁tenne	-11.4549
▁kovac	-11.4552
az	-11.4552
anger	-11.4557
▁abdel	-11.4559
ographic	-11.4561
▁trac	-11.4562
▁gale	-11.4562
▁kris	-11.4562
▁principalit	-11.4565
▁boleslaw	-11.4565
water	-11.4568
renee	-11.457
hussein	-11.4572
▁year	-11.4575
▁xl	-11.4575
▁valenci	-11.4583
▁ave	-11.4586
▁reiner	-11.4588
▁rhein	-11.4592
▁stark	-11.4597
▁monk	-11.4599
light	-11.4599
lenz	-11.46
holm	-11.4601
▁news	-11.4609
▁wen	-11.4609
▁hoff	-11.461
▁aron	-11.4614
▁je	-11.4622
negie	-11.4622
▁thing	-11.4622
▁prima	-11.4623
▁franck	-11.4626
▁aar	-11.4626
zona	-11.4631
▁hannes	-11.4631
cott	-11.4637
▁lor	-11.4638
▁korol	-11.4642
laine	-11.4642
▁lew	-11.4643
▁cours	-11.4647
▁trans	-11.4649
owsky	-11.4649
▁guillermo	-11.4653
▁travis	-11.4653
▁tajik	-11.4653
▁minnea	-11.4653
▁evangelical	-11.4653
▁garden	-11.4655
tisch	-11.4661
▁wink	-11.4662
▁donni	-11.4664
tmut	-11.4668
▁killer	-11.467
▁rund	-11.4675
▁pink	-11.468
▁rahman	-11.4685
▁cart	-11.4685
▁care	-11.4686
idze	-11.4692
▁natash	-11.4695
itch	-11.4697
▁platt	-11.4697
▁singh	-11.4699
▁herz	-11.4707
cin	-11.4711
hee	-11.4722
▁mach	-11.4725
▁marty	-11.4727
▁neal	-11.4728
ol	-11.4735
▁katz	-11.4739
▁goth	-11.474
▁zagreb	-11.4741
▁mykola	-11.4741
▁knox	-11.4741
▁hand	-11.4743
▁poul	-11.4745
▁valai	-11.4746
▁tolsto	-11.4747
udan	-11.4756
renal	-11.4757
▁kohl	-11.4759
▁zacharia	-11.476
▁lank	-11.476
▁sister	-11.476
ruhr	-11.4769
▁robbin	-11.4771
▁das	-11.4774
▁ada	-11.4792
▁essen	-11.4794
▁thal	-11.4801
saka	-11.4802
bank	-11.4806
▁nat	-11.4807
rina	-11.4811
▁gera	-11.4824
▁linds	-11.4827
illon	-11.4828
▁yang	-11.4831
▁miroslav	-11.4831
arbeit	-11.4832
▁end	-11.4835
▁devil	-11.4837
▁pegg	-11.4837
edda	-11.4843
▁esch	-11.4852
▁mitter	-11.4855
hem	-11.4858
igan	-11.4858
▁robbi	-11.4862
ardo	-11.4868
reich	-11.4869
▁zimmerman	-11.487
▁nigel	-11.4872
▁show	-11.4874
▁inc	-11.4878
▁hens	-11.488
▁metz	-11.4881
▁sex	-11.4882
▁gina	-11.4882
▁stru	-11.4882
zvi	-11.4883
▁zan	-11.489
▁emilie	-11.49
▁comte	-11.4903
▁pia	-11.4903
west	-11.4903
sko	-11.4904
sias	-11.4914
▁shakespeare	-11.492
▁graphic	-11.492
▁aureli	-11.4922
▁kahn	-11.4925
▁vaugh	-11.4928
▁karate	-11.4929
loo	-11.4929
▁cant	-11.493
▁delan	-11.4933
▁again	-11.4934
▁zd	-11.4936
inus	-11.4941
▁coming	-11.4942
▁sur	-11.4943
▁troye	-11.4943
ozzi	-11.4943
▁jet	-11.4946
lou	-11.4946
strel	-11.4946
▁grab	-11.4953
▁sad	-11.4953
▁alf	-11.4961
rahman	-11.4964
▁libert	-11.4967
▁neo	-11.4976
jev	-11.4977
runner	-11.4977
▁polit	-11.4978
▁sultan	-11.4979
▁chung	-11.4981
▁mob	-11.499
▁lois	-11.4991
▁barth	-11.4994
sler	-11.4994
▁qing	-11.4994
hoven	-11.4995
▁grigor	-11.4998
pert	-11.5
father	-11.5006
▁zoo	-11.501
▁traditional	-11.5011
therland	-11.5011
tallin	-11.5022
▁mead	-11.5022
olly	-11.5022
▁saxe	-11.5026
▁baer	-11.503
▁sc	-11.5032
aim	-11.5034
yrac	-11.5037
▁bose	-11.5043
▁jutt	-11.505
▁volkov	-11.5053
▁lion	-11.5054
▁grin	-11.5054
▁ull	-11.5055
▁elektr	-11.5058
▁castillo	-11.5059
▁hur	-11.5059
able	-11.5064
huber	-11.5066
▁link	-11.5071
▁cell	-11.5072
▁mayr	-11.5075
drun	-11.5082
▁rust	-11.5086
yid	-11.5093
neal	-11.5096
brien	-11.5098
▁bohemia	-11.5102
▁stanisla	-11.5103
▁number	-11.5103
ntific	-11.5103
▁madonna	-11.5103
▁alvarez	-11.5104
▁kaspar	-11.5104
arez	-11.5107
▁pap	-11.5108
▁geno	-11.5111
▁aimee	-11.5116
▁wagen	-11.5117
▁marle	-11.5123
onale	-11.5123
▁cary	-11.5127
▁chamberl	-11.5128
master	-11.514
grad	-11.5141
▁rudy	-11.5141
▁rousse	-11.5142
▁cram	-11.5144
▁way	-11.5146
▁nicolae	-11.5149
yatt	-11.5151
▁dow	-11.5153
hashi	-11.5155
▁tang	-11.5155
▁patti	-11.5155
▁mass	-11.5157
shima	-11.5158
ika	-11.5159
▁delf	-11.5159
▁rivera	-11.516
▁loh	-11.517
▁marius	-11.5174
▁lowe	-11.5175
▁dut	-11.5179
▁madel	-11.5179
▁calla	-11.5181
▁democra	-11.5181
▁bed	-11.5191
elke	-11.5193
▁wojciech	-11.5194
▁kuznetsov	-11.5195
▁gallagher	-11.5195
▁brasil	-11.5195
▁orchestr	-11.5195
▁gaetan	-11.5196
▁bess	-11.5198
rug	-11.5198
▁margarit	-11.5198
cio	-11.5202
yoto	-11.5205
carlo	-11.5206
cken	-11.5206
nen	-11.5206
▁riccard	-11.5207
testant	-11.5215
▁spark	-11.5215
szto	-11.5215
ouf	-11.5219
▁schwab	-11.5221
▁guard	-11.5223
bacher	-11.5223
ld	-11.5225
▁nicholson	-11.5229
▁zwei	-11.523
▁ala	-11.5236
mir	-11.5249
▁hale	-11.5249
▁fras	-11.5251
▁mali	-11.5255
▁office	-11.5259
oper	-11.526
ulin	-11.5261
ata	-11.5261
▁zur	-11.5262
▁cale	-11.5264
▁aga	-11.528
▁browne	-11.5286
▁mcgill	-11.5288
▁hassel	-11.5289
▁arti	-11.5291
awa	-11.5292
▁felip	-11.5294
▁amedee	-11.5294
rod	-11.5303
kira	-11.5314
▁travel	-11.532
▁mountaineer	-11.532
▁saxon	-11.5321
▁kern	-11.5328
anne	-11.5328
parnass	-11.533
▁goss	-11.5331
▁cow	-11.5333
▁thie	-11.5341
▁nar	-11.5342
▁maya	-11.5343
gna	-11.5353
▁matte	-11.5354
dis	-11.5356
abad	-11.5356
▁kost	-11.5357
▁lam	-11.5364
▁newton	-11.5366
vor	-11.5375
▁scar	-11.5381
▁kre	-11.5381
▁amherst	-11.5382
▁melchior	-11.5382
▁warwick	-11.5384
▁flower	-11.5388
▁freddi	-11.5388
val	-11.5388
landschaft	-11.5389
evenge	-11.5392
angus	-11.5394
▁brenn	-11.5397
▁fan	-11.5399
▁mak	-11.5402
▁landau	-11.5406
▁beta	-11.5407
▁ishi	-11.5409
lando	-11.541
▁bro	-11.541
▁jer	-11.5415
▁fc	-11.5435
▁stella	-11.5436
▁schlegel	-11.5439
jews	-11.5441
▁nova	-11.5449
sfield	-11.5451
▁brea	-11.5452
ethel	-11.5452
rath	-11.5459
ranger	-11.5462
▁kitt	-11.5462
▁schu	-11.5462
▁auer	-11.5464
▁nicolau	-11.5464
▁ivo	-11.547
ircea	-11.5473
▁schrei	-11.5474
▁photojournalis	-11.5477
vet	-11.5477
wauke	-11.5477
▁rutger	-11.5478
zo	-11.548
ever	-11.5483
▁abbe	-11.5484
▁chapel	-11.5486
▁katrin	-11.5486
cop	-11.5487
▁salt	-11.5488
▁hava	-11.5489
brand	-11.549
▁silent	-11.5491
▁marsh	-11.5494
simir	-11.5506
ryn	-11.5506
▁marino	-11.5514
▁agostin	-11.5519
▁ebert	-11.5526
▁hon	-11.5526
reti	-11.5529
night	-11.5531
▁ginz	-11.5532
▁sail	-11.5538
▁comput	-11.5542
▁damasc	-11.5549
mack	-11.5552
busch	-11.5558
ose	-11.556
marc	-11.5566
rico	-11.5568
▁grim	-11.5572
▁cumming	-11.5573
▁swe	-11.5573
▁farrell	-11.5575
▁swimm	-11.5576
▁stanislav	-11.5576
▁desmond	-11.5584
mark	-11.5585
▁aut	-11.559
bock	-11.5595
▁eisen	-11.5595
▁luci	-11.5597
ect	-11.5599
weiler	-11.5601
▁some	-11.562
log	-11.5625
▁kil	-11.5625
▁muss	-11.5633
▁nagy	-11.5634
▁broke	-11.5635
▁springs	-11.5635
▁hendrik	-11.5642
ran	-11.5647
▁turk	-11.565
▁dmitri	-11.565
▁bat	-11.5654
lohe	-11.5655
▁lau	-11.5655
vard	-11.5656
▁fuji	-11.5657
▁tong	-11.5658
▁lud	-11.5661
norri	-11.5662
ghan	-11.5665
▁yong	-11.5669
▁swift	-11.567
hanov	-11.5671
▁veronica	-11.5671
chow	-11.5674
▁ariel	-11.5676
wall	-11.5677
▁def	-11.5677
lmar	-11.5679
▁osborne	-11.5679
▁ramir	-11.568
▁arsen	-11.5682
wer	-11.5683
▁valeri	-11.5683
▁ryu	-11.5684
statt	-11.5684
▁suzuk	-11.5686
▁guild	-11.5689
▁hagg	-11.569
▁sherman	-11.569
▁harp	-11.5693
▁lech	-11.5693
▁jong	-11.5695
▁antal	-11.5699
▁boni	-11.57
▁normal	-11.5707
sammy	-11.5707
▁estonian	-11.5709
▁class	-11.571
▁gunn	-11.571
ficial	-11.5711
▁endre	-11.5711
cet	-11.5711
▁jahn	-11.5713
vre	-11.5714
yakov	-11.5714
▁lao	-11.5716
conno	-11.5717
▁krauss	-11.5722
▁pur	-11.5724
beaux	-11.5728
▁nikola	-11.5731
▁bau	-11.5736
▁colt	-11.5737
▁achim	-11.5739
▁langen	-11.5753
▁gallo	-11.5754
su	-11.5758
atti	-11.5761
blood	-11.5765
wilhelm	-11.5765
▁gendarme	-11.5768
▁mozart	-11.5768
▁ludvig	-11.5769
▁fabian	-11.577
▁suz	-11.577
▁albi	-11.5771
▁suter	-11.5772
zell	-11.5772
▁mina	-11.5772
▁padd	-11.5777
ufa	-11.5777
▁valentina	-11.5779
▁cag	-11.578
▁mara	-11.5785
▁kraft	-11.5785
▁joaquim	-11.5786
▁didi	-11.5787
luc	-11.5788
thurn	-11.5789
▁express	-11.5793
▁dig	-11.5797
▁jude	-11.5799
kow	-11.58
▁keat	-11.5805
▁af	-11.581
quist	-11.5815
otz	-11.5818
▁lyub	-11.5822
sand	-11.5823
inov	-11.5834
erling	-11.5839
▁rud	-11.5844
▁weav	-11.5844
gi	-11.5846
▁silen	-11.585
▁region	-11.5851
aeus	-11.5863
▁cordoba	-11.5866
▁cunningham	-11.5866
▁melli	-11.5868
▁pulmon	-11.5868
▁clayton	-11.5869
▁lehmann	-11.587
▁udo	-11.587
▁nico	-11.5872
▁vogt	-11.5872
▁nell	-11.5872
▁hiro	-11.5876
hauer	-11.5877
▁regi	-11.5879
▁dob	-11.5881
california	-11.5881
▁bebe	-11.5891
rhein	-11.5897
horst	-11.59
zky	-11.5905
▁yitz	-11.5905
▁giess	-11.591
▁kyr	-11.5913
▁mira	-11.5916
▁pam	-11.5917
▁francesc	-11.5919
herd	-11.592
▁rhodes	-11.5921
▁kata	-11.5924
▁pisa	-11.5927
▁leone	-11.5934
▁minor	-11.5935
▁gabriell	-11.5939
billa	-11.5941
▁fion	-11.5942
icke	-11.5946
▁sierr	-11.5948
eff	-11.5948
mayr	-11.5953
bone	-11.5956
ggio	-11.5961
▁frans	-11.5961
▁anastasi	-11.5962
▁bard	-11.5962
▁scr	-11.5962
erfurt	-11.5965
▁mandolin	-11.5966
▁thrash	-11.5967
▁sinclair	-11.5967
▁steffen	-11.5968
▁boys	-11.5968
▁nana	-11.5969
tum	-11.5969
▁masse	-11.597
▁flavi	-11.597
▁mag	-11.5971
etto	-11.5971
nia	-11.5972
▁av	-11.5973
▁jordi	-11.5974
▁ecu	-11.5976
▁elvi	-11.5977
cu	-11.5979
tra	-11.5983
▁studio	-11.5984
dov	-11.5984
▁anselm	-11.599
▁bryn	-11.5995
▁dol	-11.5999
▁volle	-11.6009
ding	-11.6013
▁dominica	-11.6013
▁sonia	-11.6014
▁fuku	-11.6014
▁bour	-11.6016
▁reno	-11.6019
ming	-11.6022
▁ahl	-11.6025
non	-11.6026
▁milos	-11.6028
▁pau	-11.6028
▁marcell	-11.6028
vse	-11.6028
▁tami	-11.6032
▁blas	-11.6038
hu	-11.604
▁nichols	-11.6041
▁faw	-11.6048
▁winters	-11.6058
ejo	-11.6061
tzsche	-11.6066
▁leclerc	-11.6067
▁mustafa	-11.6068
▁leuke	-11.6068
▁joint	-11.6071
▁hol	-11.6071
▁surgeon	-11.6071
▁bohm	-11.6075
▁geff	-11.6081
▁fah	-11.6081
atov	-11.6081
▁marguerit	-11.6084
▁hesse	-11.6091
▁arend	-11.6094
▁vig	-11.6095
ygin	-11.6096
▁palma	-11.6106
▁goran	-11.6109
▁grove	-11.6111
▁baltha	-11.6111
eke	-11.6115
▁roma	-11.6117
▁somali	-11.6122
▁kem	-11.6122
tic	-11.6122
▁pala	-11.6128
▁schul	-11.6128
opoulos	-11.6132
▁haven	-11.6133
▁sub	-11.6141
▁berth	-11.6144
▁qu	-11.615
colo	-11.6151
itero	-11.6158
▁eat	-11.6161
▁vil	-11.6162
▁vasil	-11.6169
yoshi	-11.617
▁electro	-11.6172
parma	-11.6173
▁vagan	-11.6176
▁schweiger	-11.6179
▁gavin	-11.6179
▁steel	-11.6192
▁linz	-11.6193
ikki	-11.6195
▁said	-11.6203
▁popov	-11.6203
▁nataly	-11.6208
▁yasu	-11.6212
▁sebastien	-11.6214
▁kal	-11.6216
lace	-11.6218
michel	-11.6219
dze	-11.6222
▁rost	-11.6225
▁novo	-11.6226
▁zachar	-11.6228
donnell	-11.6231
▁mede	-11.6231
▁satir	-11.6234
▁til	-11.6236
▁kahl	-11.6236
▁grande	-11.6238
ophon	-11.624
▁cod	-11.6243
▁kyl	-11.6246
ogue	-11.6249
culat	-11.6252
ugat	-11.6256
▁mrs	-11.6257
tang	-11.6258
▁rena	-11.6265
▁mon	-11.6267
▁castle	-11.6269
▁taku	-11.627
▁transformers	-11.6272
▁document	-11.6272
▁meis	-11.6274
▁balle	-11.6278
▁burger	-11.628
iya	-11.6285
▁scholz	-11.6291
▁mauro	-11.6295
olo	-11.6297
oux	-11.6304
martin	-11.6305
▁heer	-11.6307
▁anti	-11.6308
▁carole	-11.6308
▁espin	-11.6309
▁kiril	-11.6311
▁astro	-11.6313
▁grass	-11.6317
avage	-11.6318
▁heiden	-11.6319
▁voss	-11.6319
hent	-11.6325
▁hond	-11.6326
▁anatoli	-11.6329
sang	-11.6333
▁meri	-11.634
▁kier	-11.6344
▁saar	-11.6353
▁fied	-11.6355
▁spitz	-11.6355
▁gub	-11.636
▁hag	-11.6368
▁thunder	-11.6369
▁kommunale	-11.6369
▁paulin	-11.6373
▁friends	-11.6374
▁musketeer	-11.6375
▁production	-11.6376
▁accident	-11.6376
▁wuppe	-11.6376
▁cardio	-11.6377
▁tristan	-11.6377
▁mathie	-11.6378
ral	-11.6383
anez	-11.6384
▁malone	-11.6387
▁delle	-11.6388
▁make	-11.6391
▁kuwa	-11.6396
liege	-11.6396
▁ugo	-11.6398
▁wey	-11.6399
▁eile	-11.64
haley	-11.6401
▁angie	-11.6401
▁muse	-11.6403
▁versa	-11.6408
he	-11.6412
▁saka	-11.6418
▁huang	-11.6419
noir	-11.6419
▁mut	-11.642
▁get	-11.6422
mi	-11.6424
▁gul	-11.6425
▁ferrari	-11.6427
▁here	-11.6438
▁bram	-11.6439
▁spiel	-11.6441
▁bean	-11.6447
▁keen	-11.645
▁glar	-11.645
▁arp	-11.6454
▁musa	-11.646
▁ventura	-11.6466
▁termina	-11.6467
▁sound	-11.6467
nburg	-11.6475
erna	-11.648
▁municipal	-11.648
▁broadcast	-11.648
▁antioch	-11.6481
▁cartograph	-11.6483
rick	-11.6489
enico	-11.6489
▁bergman	-11.6489
▁corps	-11.6491
▁ryder	-11.6497
▁arm	-11.6497
▁rie	-11.6498
▁confe	-11.6499
tinov	-11.6502
▁gothic	-11.6504
▁helg	-11.6506
▁sime	-11.6506
▁bamberg	-11.6507
linda	-11.651
▁wu	-11.6512
ora	-11.6517
▁fry	-11.6519
▁wendel	-11.6521
▁xiao	-11.6526
▁romano	-11.6533
▁algi	-11.6537
▁gus	-11.6537
▁ruf	-11.6548
sun	-11.6549
▁mca	-11.6552
▁kind	-11.6552
▁elie	-11.6554
ethan	-11.6562
ccio	-11.6566
▁semyon	-11.6566
sible	-11.6569
▁kell	-11.6572
▁hey	-11.6586
fic	-11.6586
▁jagiello	-11.6586
▁universidad	-11.6586
▁lyudm	-11.6587
▁mongolia	-11.6587
eine	-11.6587
▁pieter	-11.6588
▁szabo	-11.6589
▁herrmann	-11.6591
▁hydr	-11.6596
▁disco	-11.6597
▁kelle	-11.6599
▁hitch	-11.6602
▁dji	-11.6602
▁yakovlev	-11.6604
born	-11.6606
▁macha	-11.6607
yuk	-11.661
drich	-11.6612
other	-11.6612
▁leto	-11.6615
strian	-11.6616
▁bronisla	-11.6616
▁apollo	-11.6618
▁guerra	-11.662
▁epi	-11.6622
▁tolk	-11.6627
▁dong	-11.6632
▁eight	-11.6636
upper	-11.6639
manov	-11.6641
ring	-11.6643
▁dust	-11.6647
▁basili	-11.6649
▁schwarzen	-11.665
▁scarlet	-11.6651
▁schaef	-11.6652
assi	-11.6657
▁kunst	-11.6664
ovan	-11.6664
▁arista	-11.6665
▁ingo	-11.6666
if	-11.6669
▁yun	-11.667
▁lock	-11.6671
llard	-11.6675
▁benit	-11.6676
tani	-11.6676
seneg	-11.6676
kel	-11.668
▁khal	-11.6684
▁gluck	-11.6689
luis	-11.6693
▁payne	-11.6694
▁dominik	-11.6695
▁bruckner	-11.6696
▁saba	-11.6698
▁slim	-11.67
▁hertz	-11.6702
▁gord	-11.6703
skop	-11.6703
tsov	-11.6711
▁private	-11.6713
▁hood	-11.6728
▁dora	-11.6732
african	-11.6733
▁sig	-11.6735
▁trier	-11.6736
rt	-11.6736
iana	-11.6741
▁kamal	-11.6742
▁jacobi	-11.6747
▁major	-11.6754
▁medici	-11.6756
▁reggi	-11.6761
mmanuel	-11.6767
▁constanc	-11.6774
gues	-11.6782
bra	-11.6783
▁gass	-11.6783
▁fay	-11.6786
▁andri	-11.6786
▁view	-11.6787
▁geoff	-11.6789
schel	-11.679
dr	-11.6792
▁iu	-11.6796
lucio	-11.6796
▁held	-11.68
▁past	-11.6802
▁holiday	-11.6802
lum	-11.6802
▁clarinet	-11.6802
▁meissner	-11.6802
▁baumgart	-11.6802
▁zimba	-11.6803
▁disorder	-11.6803
▁cycl	-11.6805
▁spike	-11.681
▁aurel	-11.6811
ret	-11.6813
▁mercedes	-11.6815
▁frauen	-11.6817
▁lana	-11.6818
ona	-11.6819
▁schola	-11.6826
▁dans	-11.6827
▁parr	-11.6829
▁rou	-11.6832
▁pohl	-11.6835
▁rec	-11.6836
▁bing	-11.6838
▁eliza	-11.6839
▁fisch	-11.6842
recht	-11.6843
▁thurn	-11.6843
▁stepan	-11.6855
▁ponte	-11.6857
▁nikla	-11.6859
▁reh	-11.6861
▁ferreir	-11.6861
▁schuman	-11.6862
▁sheri	-11.6863
schmidt	-11.6864
▁stefano	-11.6866
lores	-11.6866
▁yvon	-11.6869
enham	-11.6871
▁zhu	-11.6871
▁emilia	-11.6872
iffe	-11.6879
▁gaspar	-11.6879
▁melo	-11.688
hiko	-11.6882
▁ska	-11.6888
▁mami	-11.6888
▁samo	-11.6889
▁commun	-11.689
aragua	-11.6896
▁devin	-11.6897
pei	-11.6898
▁carm	-11.6906
▁este	-11.691
▁pantheon	-11.6912
▁psychiatr	-11.6912
▁boule	-11.6913
▁mohr	-11.6913
▁ankara	-11.6913
▁lydi	-11.692
inder	-11.692
islava	-11.6921
▁celi	-11.6922
▁mccoy	-11.6925
▁aki	-11.6927
▁morley	-11.6928
▁donat	-11.6929
▁tibor	-11.6929
▁magu	-11.693
▁reg	-11.6932
zaki	-11.6933
fast	-11.6936
▁want	-11.6942
▁graves	-11.6943
lamour	-11.6945
▁szcze	-11.6946
azzi	-11.6947
uze	-11.6952
▁sorb	-11.6952
▁higgins	-11.696
▁facto	-11.6963
rtal	-11.6965
▁krist	-11.697
▁drive	-11.6977
sion	-11.6979
responde	-11.698
▁heik	-11.6983
haupt	-11.6986
▁antj	-11.6987
▁syd	-11.6988
▁damian	-11.6995
▁gangst	-11.6996
shia	-11.6998
▁cabo	-11.6999
▁pick	-11.7003
acher	-11.7004
ena	-11.7006
▁nielsen	-11.701
▁jodi	-11.7011
kamp	-11.7017
▁moe	-11.7017
fontana	-11.702
▁sho	-11.7021
▁kardashian	-11.7023
▁agricultur	-11.7023
▁munchen	-11.7025
▁attack	-11.7025
▁poison	-11.7025
▁humbert	-11.7028
▁rub	-11.7029
nay	-11.7032
cester	-11.7036
dahl	-11.7039
▁dill	-11.704
stead	-11.7041
▁evgeny	-11.7042
▁villag	-11.7044
▁toyo	-11.7053
▁scho	-11.706
▁vin	-11.7077
▁pena	-11.7083
▁wit	-11.7085
▁peri	-11.7085
▁zem	-11.7086
mahon	-11.7088
bertha	-11.7097
ans	-11.71
lon	-11.7101
fly	-11.7104
issa	-11.7107
▁hy	-11.7109
▁jade	-11.7113
▁hog	-11.7115
key	-11.7119
▁tha	-11.7119
akov	-11.7121
josef	-11.7123
▁yakov	-11.7124
▁conti	-11.7132
▁lex	-11.7134
eza	-11.7134
▁pic	-11.7135
▁duisburg	-11.7135
▁talent	-11.7135
▁schubert	-11.7136
ulla	-11.7137
▁nicola	-11.7137
▁rhine	-11.7141
▁saund	-11.7145
▁close	-11.7153
▁whig	-11.7153
▁lorraine	-11.7155
▁kristian	-11.7155
shine	-11.7156
▁rafi	-11.7158
jung	-11.7159
▁culture	-11.7161
▁ferre	-11.7161
▁homer	-11.7162
▁natural	-11.7164
sex	-11.7166
stetten	-11.7167
anka	-11.7168
ucker	-11.7174
▁forbe	-11.7178
eus	-11.718
▁adria	-11.7185
▁lilli	-11.7185
▁brom	-11.7188
▁capri	-11.7191
▁blu	-11.7201
hill	-11.7202
▁cer	-11.7208
islav	-11.7211
▁edge	-11.7212
du	-11.7216
▁rouge	-11.7223
lodz	-11.7223
▁archdu	-11.7226
per	-11.7226
▁campo	-11.7226
▁desire	-11.7226
ahu	-11.7227
▁maure	-11.7235
dra	-11.7235
▁yemen	-11.7237
▁malt	-11.7238
▁grete	-11.724
▁randal	-11.7246
▁congress	-11.7248
▁service	-11.725
▁oldenburg	-11.7251
▁broad	-11.7251
▁nurse	-11.7252
bruch	-11.7253
isberg	-11.7255
▁wilfri	-11.7256
▁spear	-11.7257
etz	-11.7259
hero	-11.7263
▁elder	-11.7263
▁usc	-11.7264
▁fil	-11.7265
▁june	-11.7269
▁brett	-11.7272
chet	-11.7286
center	-11.7286
once	-11.7286
▁sien	-11.729
▁okla	-11.7291
▁carly	-11.7292
▁wheel	-11.7296
ula	-11.7296
▁tanak	-11.7303
▁chase	-11.7304
inters	-11.731
evski	-11.7314
ganda	-11.7316
alis	-11.7317
▁kras	-11.7318
▁duc	-11.732
▁prost	-11.7328
▁guth	-11.7328
hout	-11.7329
▁elia	-11.7331
▁future	-11.7336
▁exe	-11.7336
▁corb	-11.7339
▁stac	-11.7341
▁dalt	-11.7341
racer	-11.7344
▁fa	-11.7344
▁tedd	-11.7345
▁brienz	-11.7345
lick	-11.7346
▁henk	-11.7347
cia	-11.7349
▁arvi	-11.7349
▁fais	-11.7349
heimer	-11.735
▁buchholz	-11.735
▁fun	-11.7351
lia	-11.7352
war	-11.7353
▁sinatra	-11.7363
▁ingeborg	-11.7363
▁chekhov	-11.7363
genevieve	-11.7363
▁communication	-11.7363
▁fabio	-11.7363
▁giordan	-11.7365
▁amade	-11.7365
▁myle	-11.7366
▁mendels	-11.7367
▁more	-11.7368
▁niels	-11.7372
▁za	-11.7373
▁hartman	-11.7383
▁tears	-11.7383
▁gottsch	-11.7384
▁friend	-11.7384
ascha	-11.7389
▁pok	-11.739
▁constant	-11.7393
▁feldman	-11.7393
feller	-11.74
▁informations	-11.7401
our	-11.7401
▁hja	-11.7402
▁rev	-11.7404
▁sil	-11.7412
▁kimberl	-11.7413
▁ignac	-11.7414
▁bloch	-11.7418
▁geller	-11.7428
▁kass	-11.7429
ock	-11.7432
▁champ	-11.7432
▁ost	-11.7432
▁affairs	-11.7433
▁liz	-11.7434
ble	-11.7444
▁jeffers	-11.7449
blanca	-11.7451
▁barros	-11.7452
bat	-11.7453
▁minist	-11.7457
cas	-11.7465
▁row	-11.7466
▁hilar	-11.7472
▁abd	-11.7472
eta	-11.7473
nek	-11.7477
elvin	-11.7478
▁caliphate	-11.7478
▁quebec	-11.7478
▁priscilla	-11.7478
▁cricket	-11.7479
▁liszt	-11.7479
▁kyiv	-11.7479
▁dyk	-11.748
▁benoit	-11.7481
▁terri	-11.7481
▁lance	-11.7482
▁ass	-11.7483
▁buchan	-11.7483
▁glad	-11.7485
▁bullet	-11.7487
▁russo	-11.7488
▁prade	-11.7488
▁journey	-11.7489
matt	-11.749
▁bois	-11.7502
▁demon	-11.7505
olar	-11.7507
▁pie	-11.7507
▁full	-11.7507
kau	-11.751
▁brant	-11.751
▁bog	-11.751
order	-11.7511
chio	-11.7514
rient	-11.7514
▁pl	-11.7515
eger	-11.7515
uto	-11.7517
▁garret	-11.7521
kovo	-11.7522
▁sigri	-11.7524
ulrich	-11.7524
world	-11.7525
▁pest	-11.7528
▁dino	-11.7529
▁berkle	-11.7529
▁bry	-11.7532
agh	-11.7546
ellie	-11.7546
▁saty	-11.7547
▁fl	-11.7548
▁troy	-11.7553
▁tara	-11.7555
▁hawk	-11.7558
antana	-11.756
anama	-11.7561
▁cap	-11.7561
▁leber	-11.7562
▁belle	-11.7562
szewsk	-11.7565
ane	-11.7569
▁baj	-11.7571
▁pastor	-11.7574
▁burk	-11.7574
furth	-11.758
▁had	-11.7588
schwand	-11.7589
dice	-11.7591
▁soto	-11.7594
▁apocalyp	-11.7595
erlach	-11.7595
▁missouri	-11.7596
▁mueller	-11.7596
▁eleonor	-11.7596
▁arnim	-11.7597
▁prosper	-11.7597
▁furious	-11.76
anen	-11.7602
lonnie	-11.7602
▁jenkins	-11.7606
▁weil	-11.7611
▁overd	-11.7613
fayette	-11.7617
▁hel	-11.7619
▁ferrar	-11.7628
arizo	-11.763
▁romain	-11.763
ros	-11.7632
▁zell	-11.7635
▁scholl	-11.7636
▁chr	-11.7637
▁aust	-11.7638
▁rot	-11.764
▁jobs	-11.7641
zim	-11.7641
avana	-11.7642
army	-11.7644
▁wied	-11.7646
▁phylli	-11.765
▁luck	-11.7651
▁hiroshi	-11.7651
aro	-11.7651
▁drag	-11.7651
▁guat	-11.7653
slaw	-11.7655
bodia	-11.7655
wi	-11.7656
▁momo	-11.7663
ager	-11.7667
ernie	-11.7668
emile	-11.7671
tour	-11.7675
dos	-11.7677
▁baade	-11.7677
▁crowe	-11.7681
union	-11.7684
etan	-11.7686
elaine	-11.7686
ovskoy	-11.7687
▁pot	-11.7692
▁pu	-11.7695
▁energ	-11.7695
▁bock	-11.7697
glio	-11.7699
▁bone	-11.7702
▁fraz	-11.7705
oder	-11.7706
adele	-11.7708
▁entomolog	-11.7715
▁faulk	-11.7715
▁bulow	-11.7716
▁pompe	-11.7716
▁gains	-11.7717
▁mikhal	-11.7718
▁seiyu	-11.7719
donna	-11.7721
▁nestor	-11.7723
das	-11.7725
▁edvard	-11.7734
bie	-11.7735
nault	-11.7739
fil	-11.774
▁josephine	-11.7747
▁heidi	-11.7749
▁hilt	-11.7754
▁ruben	-11.7755
▁klar	-11.7757
▁cooli	-11.7759
▁helm	-11.7759
chka	-11.7762
▁addis	-11.7765
▁than	-11.7769
hua	-11.7771
▁clay	-11.7774
▁ghan	-11.7776
▁sei	-11.7778
ikh	-11.7781
teau	-11.7781
▁rosenberg	-11.7781
▁br	-11.7789
tai	-11.7791
▁sander	-11.7792
ssner	-11.7792
ital	-11.7792
▁aquin	-11.7792
▁battle	-11.7795
▁nice	-11.7795
▁karolin	-11.7796
▁kess	-11.78
▁inner	-11.7801
▁boon	-11.7802
▁kriste	-11.7808
ianni	-11.7811
dieter	-11.7813
tier	-11.7814
▁lago	-11.7816
nick	-11.7817
▁nex	-11.7819
muno	-11.7824
terina	-11.7824
▁spence	-11.783
▁bun	-11.7831
▁skat	-11.7833
▁dimitri	-11.7834
▁presbyter	-11.7835
wittgenstein	-11.7835
▁reggae	-11.7835
▁poitier	-11.7835
▁build	-11.7835
▁concord	-11.7835
▁dumas	-11.7836
▁engelbert	-11.7836
▁sibyll	-11.7839
▁report	-11.7839
platz	-11.7842
▁alva	-11.7843
▁hear	-11.7846
▁came	-11.7848
gy	-11.7849
▁movi	-11.7849
biss	-11.7852
uddin	-11.7859
▁breit	-11.7859
▁rau	-11.7864
walden	-11.7867
relli	-11.7868
oret	-11.7871
link	-11.7871
▁pola	-11.7871
▁schind	-11.7877
▁richards	-11.788
▁dart	-11.7881
fo	-11.7881
eaux	-11.7887
jorg	-11.7887
▁josia	-11.7893
▁bild	-11.7896
wangen	-11.79
▁yi	-11.7901
▁wills	-11.7903
nist	-11.7903
▁bag	-11.7904
bw	-11.7904
▁crash	-11.7905
hl	-11.7906
▁haim	-11.7915
alen	-11.7916
▁cour	-11.7918
chtenstei	-11.7927
▁wolfe	-11.7932
liar	-11.7933
arriet	-11.7937
▁christen	-11.7938
▁martina	-11.7939
▁arndt	-11.794
nicolas	-11.7947
▁pad	-11.7949
▁bonne	-11.7953
rieste	-11.7954
hyun	-11.7955
iewicz	-11.7955
▁benedikt	-11.7956
▁anatom	-11.7956
▁blunt	-11.7956
▁bjarn	-11.7957
itzer	-11.7957
▁gambi	-11.7957
▁welch	-11.7958
▁hi	-11.796
▁haiti	-11.796
▁ioan	-11.7963
▁shef	-11.7968
▁buzz	-11.7968
▁liber	-11.797
▁espan	-11.7972
▁connecti	-11.7977
▁momm	-11.7979
▁nacional	-11.798
chin	-11.7981
▁valentine	-11.7983
▁noth	-11.7983
▁vick	-11.799
▁tower	-11.7992
▁susanna	-11.7993
▁bogo	-11.8001
arian	-11.8001
▁honor	-11.8001
▁gide	-11.8003
▁zinn	-11.8007
aw	-11.8012
▁finck	-11.8014
▁ambrose	-11.8017
▁tale	-11.8022
▁kreb	-11.8026
▁nowak	-11.8027
▁rasmus	-11.8033
▁lithuanian	-11.8034
▁jann	-11.8036
▁but	-11.8038
yna	-11.8041
▁daniels	-11.8044
bridge	-11.8047
▁mehme	-11.8047
▁pirates	-11.8051
▁week	-11.8051
▁xu	-11.8054
▁elm	-11.8056
▁alla	-11.8056
▁ob	-11.8056
▁boe	-11.8058
▁bip	-11.8066
vitz	-11.807
trix	-11.8071
larus	-11.8071
▁marlen	-11.8075
▁rid	-11.8079
▁wedding	-11.8079
▁chateau	-11.808
▁underground	-11.808
▁ehren	-11.808
▁maurit	-11.808
▁angelique	-11.8081
▁vas	-11.8088
▁hasan	-11.8088
andre	-11.809
▁scher	-11.8091
▁debra	-11.8094
▁kang	-11.8101
emy	-11.8103
▁somer	-11.8104
wang	-11.8105
curie	-11.8106
chard	-11.811
▁ott	-11.811
▁zack	-11.8111
▁rhys	-11.8111
▁fontaine	-11.8116
mayer	-11.8116
▁heat	-11.812
▁gail	-11.8122
▁dais	-11.8127
▁goldman	-11.8128
▁horne	-11.8129
▁laval	-11.8135
▁moss	-11.8137
▁mena	-11.8141
▁gere	-11.8141
▁penny	-11.8142
arrow	-11.8144
read	-11.8144
esop	-11.8145
wyn	-11.8146
▁mcc	-11.8147
▁getty	-11.815
nacht	-11.8152
buch	-11.8154
tania	-11.8154
oir	-11.8156
▁ulm	-11.8159
▁tran	-11.8161
hum	-11.8165
ober	-11.8166
▁hick	-11.817
▁mich	-11.817
quet	-11.818
ilde	-11.8181
▁ap	-11.8182
ante	-11.8182
▁ezra	-11.8183
▁britt	-11.8187
▁ryo	-11.8189
▁hersch	-11.819
▁vir	-11.8193
▁vega	-11.8193
gue	-11.8194
▁financier	-11.8204
▁statistic	-11.8204
▁poznan	-11.8204
psychedeli	-11.8204
▁eckart	-11.8205
qi	-11.8205
▁jochen	-11.8206
▁basque	-11.8206
▁radzi	-11.8207
▁radical	-11.8207
▁evangelist	-11.8208
▁pilar	-11.8209
▁wilm	-11.821
▁buckley	-11.8211
▁tobi	-11.8223
▁eden	-11.8223
▁wis	-11.823
▁kaj	-11.8232
▁fabrizi	-11.8233
▁borges	-11.8234
vaud	-11.8237
ric	-11.8238
▁danger	-11.8242
▁gork	-11.8249
▁lov	-11.8257
▁appe	-11.8261
▁perl	-11.8263
tario	-11.8272
▁moh	-11.8274
zero	-11.8276
▁mild	-11.8288
▁trent	-11.829
▁koi	-11.8295
▁edna	-11.8307
▁dost	-11.831
▁mise	-11.831
▁kne	-11.8312
▁mama	-11.8312
▁alberti	-11.8312
sack	-11.8315
fu	-11.8315
▁true	-11.8319
dwig	-11.832
▁rah	-11.8321
▁dorothee	-11.8324
▁abram	-11.8326
▁nak	-11.8327
▁antiquit	-11.833
▁bartolome	-11.833
▁brewster	-11.833
▁cobb	-11.8331
▁fly	-11.8331
won	-11.8331
▁sharif	-11.8331
▁irvine	-11.8333
▁karam	-11.8336
▁ladd	-11.8336
▁darre	-11.8336
▁garr	-11.8338
▁kalman	-11.8338
▁thurston	-11.8343
▁dei	-11.8347
▁cind	-11.8347
▁generation	-11.8348
elton	-11.835
▁cy	-11.8352
eddy	-11.8357
brucken	-11.8357
maier	-11.8359
iu	-11.836
ecker	-11.836
nadine	-11.836
saak	-11.8361
▁gate	-11.8367
chelse	-11.8371
atja	-11.8372
▁cry	-11.8377
▁celin	-11.8382
▁depar	-11.8386
▁pig	-11.8386
▁arnau	-11.8389
▁palo	-11.8392
▁oh	-11.8394
▁rif	-11.8396
▁amb	-11.8396
▁fund	-11.8399
▁wee	-11.84
▁schulze	-11.8409
▁grau	-11.8411
kota	-11.8411
▁sting	-11.8412
arina	-11.8417
▁sm	-11.8425
▁key	-11.8427
▁dern	-11.8433
eli	-11.8438
▁teri	-11.8443
▁geer	-11.8447
▁cecili	-11.8452
▁roo	-11.8453
gin	-11.8455
▁harpsichord	-11.8458
▁treasure	-11.8458
raphael	-11.8458
▁schmitz	-11.8458
mental	-11.8458
ware	-11.8458
▁petit	-11.8459
▁fulton	-11.846
▁wessel	-11.846
▁ornitholog	-11.8463
▁mare	-11.8464
▁matti	-11.8475
▁spin	-11.8476
▁lott	-11.8483
▁hubertus	-11.8485
tke	-11.8491
▁yul	-11.8491
jani	-11.8491
▁purd	-11.8491
▁rus	-11.8495
▁fen	-11.8498
oshenko	-11.8502
▁cave	-11.8505
▁bolz	-11.851
nath	-11.8511
▁noir	-11.8512
right	-11.8517
▁sepp	-11.8518
▁barbe	-11.852
ria	-11.852
▁selen	-11.8521
oso	-11.8524
▁georgian	-11.853
▁buss	-11.8534
rene	-11.8536
lova	-11.8536
▁len	-11.8545
01	-11.8546
chal	-11.8546
▁della	-11.8547
▁muti	-11.855
▁sachs	-11.8552
bart	-11.8555
▁corinn	-11.8557
▁denn	-11.8558
▁stad	-11.8562
▁bosch	-11.8565
▁zucker	-11.857
▁jona	-11.8571
▁gel	-11.8572
erswil	-11.8574
▁now	-11.8575
oller	-11.8576
▁lori	-11.8581
▁scen	-11.8582
ritt	-11.8583
▁did	-11.8585
▁hast	-11.8585
ringo	-11.8585
▁novgorod	-11.8587
▁suffrag	-11.8587
shov	-11.8588
▁germain	-11.8589
rev	-11.8589
▁koji	-11.8595
ello	-11.8599
oong	-11.8601
▁pir	-11.8603
westf	-11.8603
▁elise	-11.8605
▁rocc	-11.8606
▁burckhard	-11.861
▁regen	-11.8611
ousa	-11.8613
lot	-11.8613
▁wid	-11.8615
▁kas	-11.8616
bride	-11.8616
▁benign	-11.862
▁meir	-11.8625
graf	-11.8627
▁kazakh	-11.8631
▁mix	-11.8636
uru	-11.8643
cat	-11.8644
child	-11.8646
▁lotte	-11.865
mazing	-11.8652
lona	-11.8652
▁grub	-11.8654
▁mada	-11.8656
▁rica	-11.8667
▁bier	-11.8669
atu	-11.867
▁rotter	-11.8671
▁tommas	-11.8671
▁antonia	-11.8672
▁brande	-11.8672
▁knowl	-11.8672
▁sadi	-11.8673
▁yegor	-11.8674
ute	-11.8681
▁pharmac	-11.8681
▁godd	-11.8684
foot	-11.8688
schaft	-11.8691
gymnas	-11.8692
ides	-11.8692
ourke	-11.8701
iken	-11.8705
▁psycho	-11.8705
hamel	-11.8707
▁zand	-11.8709
▁schill	-11.871
▁wise	-11.8715
▁aloys	-11.8717
▁bumpliz	-11.8718
▁windsor	-11.8719
▁nola	-11.8719
▁cohn	-11.872
▁galile	-11.8721
▁happen	-11.8723
▁mathild	-11.8724
▁frisch	-11.873
▁servant	-11.8732
long	-11.8735
orff	-11.8737
▁havel	-11.8737
▁matild	-11.8738
▁laufen	-11.8744
▁borg	-11.8744
▁dexter	-11.8744
▁mcca	-11.8745
▁beate	-11.8745
▁calder	-11.8748
fels	-11.8748
uven	-11.8748
▁rue	-11.875
▁canadian	-11.8751
▁wy	-11.8757
▁ramone	-11.8759
▁bear	-11.8763
▁geo	-11.8764
▁nabo	-11.8765
▁lot	-11.8766
▁zenon	-11.8766
▁ravi	-11.8771
▁filip	-11.878
▁hun	-11.8781
▁berl	-11.879
▁ale	-11.8792
oku	-11.8794
▁kryl	-11.8794
▁manu	-11.8794
▁beyer	-11.8798
▁archiv	-11.8799
▁schultz	-11.88
ory	-11.88
▁caraca	-11.88
mila	-11.88
▁zin	-11.8801
▁kla	-11.8802
▁krog	-11.8808
ques	-11.881
▁duran	-11.8811
▁heus	-11.8812
tes	-11.8822
▁nikol	-11.8822
▁tuls	-11.8828
▁gemeinde	-11.8828
▁por	-11.8834
▁cran	-11.8835
▁bird	-11.8836
▁borde	-11.8837
▁cham	-11.8838
▁impa	-11.8842
white	-11.8846
▁vocal	-11.8848
▁interlaken	-11.8851
▁turkmen	-11.8852
▁dai	-11.8853
▁beyon	-11.8854
sz	-11.8856
▁flash	-11.8858
▁henric	-11.886
▁downey	-11.8862
arvo	-11.8863
▁teodor	-11.8864
▁hobb	-11.8865
harlem	-11.8867
path	-11.8869
cut	-11.887
antha	-11.8871
▁bulloc	-11.8872
▁candi	-11.8872
▁samara	-11.8877
▁sagan	-11.8878
▁benz	-11.8878
▁alekse	-11.8881
chlan	-11.8884
▁eth	-11.8886
gram	-11.8887
celli	-11.8888
▁kerst	-11.8897
rani	-11.8897
▁lille	-11.8897
▁dit	-11.8902
german	-11.8904
▁konig	-11.8904
▁bair	-11.8912
▁sada	-11.8918
▁verne	-11.892
▁ging	-11.8921
▁lamb	-11.8921
ych	-11.8922
enfeld	-11.8929
omach	-11.893
lawn	-11.8932
chau	-11.8937
ique	-11.894
▁birds	-11.8941
try	-11.8941
tree	-11.8944
▁noro	-11.8949
▁benton	-11.895
▁lives	-11.895
neu	-11.8952
▁hust	-11.8953
▁let	-11.8953
een	-11.8954
logne	-11.8959
▁trebi	-11.8959
▁vit	-11.8965
kyle	-11.8968
hawk	-11.8975
▁magda	-11.8975
mate	-11.8975
alone	-11.8977
▁haruk	-11.8978
▁rashid	-11.898
▁khalil	-11.898
▁necro	-11.8986
▁mummy	-11.8986
▁spirit	-11.8986
▁forsyth	-11.8987
▁minsk	-11.8988
▁kirste	-11.8989
▁morten	-11.899
▁ark	-11.8992
▁mcdo	-11.8992
▁jakub	-11.8992
erry	-11.8994
▁yann	-11.8997
▁ebner	-11.8999
sheim	-11.9
franco	-11.9002
▁mandy	-11.9002
▁half	-11.9003
four	-11.9008
▁haber	-11.901
▁mom	-11.901
pur	-11.901
tero	-11.9015
uf	-11.9016
▁sup	-11.9021
▁valeria	-11.9022
stall	-11.9022
oud	-11.9023
▁kilm	-11.9023
herve	-11.9024
▁mendel	-11.9026
▁ruge	-11.9029
nza	-11.9033
▁bohme	-11.9033
▁alley	-11.9039
fect	-11.9039
▁renzo	-11.9041
▁bagh	-11.9046
▁cim	-11.9047
combe	-11.9052
▁too	-11.9053
▁popp	-11.9056
oki	-11.9057
liot	-11.9058
ovid	-11.9058
▁baill	-11.9059
ierre	-11.9061
aura	-11.9062
▁lucia	-11.9065
▁architecture	-11.9069
bashki	-11.907
▁depart	-11.9071
▁alekseyev	-11.9077
rbonne	-11.9085
▁cel	-11.9086
▁barde	-11.9091
▁cusa	-11.9098
▁whitt	-11.9101
▁conta	-11.9102
▁petri	-11.9107
▁ramos	-11.9107
kj	-11.911
ashvil	-11.9118
▁dystopia	-11.9123
▁bielefeld	-11.9123
▁koz	-11.9123
▁gerrit	-11.9123
▁buse	-11.9123
▁spiegel	-11.9123
irsk	-11.9123
▁faso	-11.9123
▁father	-11.9125
▁yekaterin	-11.9125
▁merv	-11.9125
honore	-11.9125
▁violet	-11.9126
▁kaplan	-11.9128
▁democrat	-11.913
▁jasmin	-11.9138
san	-11.9138
helf	-11.9139
▁richi	-11.9139
▁kiri	-11.9142
hner	-11.9142
▁mccall	-11.9143
▁hea	-11.9145
▁wynn	-11.9156
▁angeli	-11.9157
gone	-11.9159
▁sylvi	-11.9162
nord	-11.9164
▁tales	-11.9165
▁doc	-11.9165
▁haute	-11.9166
saki	-11.9166
▁peel	-11.9168
▁sikorsk	-11.9169
▁mcka	-11.9169
▁rams	-11.9174
▁sava	-11.9178
▁maud	-11.9178
▁becher	-11.9179
▁shen	-11.9179
▁bona	-11.918
▁swee	-11.918
pour	-11.9181
▁grenad	-11.9182
eiro	-11.9184
▁goeb	-11.9191
▁bath	-11.9192
nori	-11.9192
lower	-11.9196
▁grossman	-11.9199
scott	-11.9204
▁eri	-11.9207
melin	-11.9209
▁baha	-11.9209
▁foundation	-11.9217
mm	-11.9219
uc	-11.9221
▁mala	-11.9233
▁drucke	-11.9235
▁rule	-11.9236
niak	-11.9245
▁scien	-11.9246
▁hayw	-11.9249
▁bod	-11.9251
▁semen	-11.9252
itsch	-11.9254
nsee	-11.9257
onist	-11.9257
dev	-11.9259
▁marquard	-11.9261
▁newcastle	-11.9261
▁zsigmond	-11.9261
▁luft	-11.9261
▁cardinal	-11.9263
▁helge	-11.9264
▁dessau	-11.9265
▁sigis	-11.9265
▁mansour	-11.9266
▁venge	-11.9268
▁hessel	-11.9271
jian	-11.9272
▁melvin	-11.9273
▁chur	-11.9278
▁holder	-11.9278
chand	-11.9281
▁tromb	-11.9281
spina	-11.9281
ace	-11.9282
▁pearson	-11.9284
▁lesley	-11.9284
▁burkhard	-11.9286
kirch	-11.9287
▁gall	-11.9288
▁schlie	-11.9289
khov	-11.929
vsky	-11.9291
ural	-11.9293
▁vall	-11.9293
▁mihail	-11.9298
uzzi	-11.9303
stam	-11.9303
ebert	-11.9304
▁vlad	-11.9306
▁sevill	-11.9307
▁jero	-11.9308
▁behr	-11.931
▁florin	-11.9313
guet	-11.9318
▁miro	-11.9319
nstein	-11.9321
▁carsten	-11.9322
dreyfus	-11.9324
uras	-11.9324
▁kod	-11.933
▁corr	-11.933
weinberg	-11.9332
dill	-11.9333
▁circ	-11.9335
jiang	-11.9339
▁raja	-11.9342
▁tora	-11.935
blum	-11.9354
▁chave	-11.9355
▁butt	-11.9357
▁verde	-11.9357
ida	-11.9363
eri	-11.9368
▁sonn	-11.9368
▁marcia	-11.937
▁civ	-11.9372
▁zi	-11.9374
ananda	-11.9376
▁mahl	-11.9377
▁sakura	-11.9377
efore	-11.938
issan	-11.9382
coburg	-11.9383
azy	-11.9387
▁rysz	-11.9388
sawa	-11.939
▁dumont	-11.9391
▁farra	-11.9394
ew	-11.9396
▁conan	-11.9398
▁unger	-11.9399
▁biochemist	-11.9401
▁runaway	-11.9402
▁giam	-11.9402
▁abra	-11.9404
▁weid	-11.9406
▁million	-11.9406
tner	-11.9408
ins	-11.9409
▁barney	-11.9409
▁keyne	-11.941
▁vinci	-11.9411
▁calvo	-11.9411
speak	-11.9413
▁morgen	-11.9413
dong	-11.9414
▁dogg	-11.9417
▁juliann	-11.9419
▁czes	-11.942
gold	-11.9421
▁octav	-11.9426
▁dash	-11.9428
selma	-11.9429
▁salma	-11.9431
▁bra	-11.9432
▁nassau	-11.9432
▁wade	-11.9432
▁reichen	-11.9433
▁arago	-11.9434
▁gersho	-11.9436
werk	-11.9438
▁jaan	-11.9439
bold	-11.9446
▁butch	-11.9447
▁ghos	-11.9447
▁nau	-11.9447
▁puert	-11.9452
▁pauli	-11.9457
▁lem	-11.9459
prud	-11.9459
▁know	-11.9459
▁tanz	-11.946
▁talbot	-11.9469
ahn	-11.9472
tega	-11.9473
▁tod	-11.9474
olson	-11.9477
zai	-11.9479
ple	-11.9479
▁apost	-11.9482
nois	-11.9487
▁tell	-11.9495
ches	-11.9507
iri	-11.9508
▁barn	-11.9509
▁hough	-11.951
▁burr	-11.9517
▁miki	-11.9528
▁manchu	-11.9528
▁bez	-11.9532
▁guil	-11.9533
lessing	-11.9535
▁kall	-11.9537
ernandez	-11.9537
▁gramm	-11.9538
ennett	-11.9539
scheid	-11.9541
▁staff	-11.9541
▁sapie	-11.9542
ckenzie	-11.9543
▁galbraith	-11.9544
▁pawel	-11.9544
volkisch	-11.9544
▁virgil	-11.9544
▁seidel	-11.9544
▁nikita	-11.9545
▁tomorrow	-11.9545
▁hitler	-11.9546
▁nikolaj	-11.9546
▁zamb	-11.9546
▁schnitz	-11.9547
▁monumental	-11.9548
▁como	-11.9549
▁leth	-11.955
▁navarre	-11.9551
▁bundes	-11.9554
iva	-11.9557
▁mastro	-11.9559
tty	-11.956
▁pavi	-11.956
▁binder	-11.956
▁peer	-11.9567
ping	-11.9567
heit	-11.9568
▁wilkins	-11.9569
▁demi	-11.957
▁keep	-11.9575
felden	-11.9581
▁elsi	-11.9584
▁bio	-11.9585
▁jos	-11.9585
▁brig	-11.9585
others	-11.9585
▁barone	-11.9585
▁locke	-11.9586
▁bax	-11.9589
▁goo	-11.9591
▁aguirre	-11.9594
▁norden	-11.9595
cha	-11.9595
▁giant	-11.96
▁woll	-11.9602
▁bruh	-11.9603
▁leah	-11.9603
▁abrams	-11.9604
ibert	-11.9604
▁pack	-11.9604
▁plant	-11.9605
▁guns	-11.9605
▁stolberg	-11.9609
▁kung	-11.9615
▁joanne	-11.962
yumi	-11.962
▁hym	-11.962
▁buren	-11.9622
▁ky	-11.9622
vadar	-11.9625
arkin	-11.9626
baret	-11.9628
▁eusebi	-11.9632
▁rais	-11.9633
rat	-11.9633
▁janin	-11.9633
▁isidor	-11.9638
▁stoo	-11.9639
▁strate	-11.964
hama	-11.9641
▁holde	-11.9646
▁alpin	-11.9648
▁schen	-11.9648
▁ix	-11.9649
doo	-11.9649
▁vy	-11.965
▁stuck	-11.9651
▁belles	-11.9651
nie	-11.9653
zond	-11.9654
ioli	-11.9657
ulf	-11.9661
▁hec	-11.9663
▁mata	-11.9664
borne	-11.9668
▁fuente	-11.9668
cliff	-11.9669
▁sokolov	-11.967
chev	-11.9673
▁schlag	-11.9674
haven	-11.9676
zin	-11.9676
▁rocket	-11.9677
▁hendri	-11.9684
▁cavendish	-11.9688
▁memoir	-11.9688
▁khachatur	-11.9688
▁harbor	-11.9688
▁milita	-11.9689
▁zsol	-11.9692
▁zwick	-11.9692
▁logan	-11.9694
lulu	-11.9695
▁tand	-11.9699
▁alber	-11.97
▁sieber	-11.97
▁farina	-11.9701
▁slash	-11.9702
▁pipe	-11.9706
▁sutt	-11.9706
▁leng	-11.9708
ronov	-11.9708
▁vita	-11.971
▁fedor	-11.9711
chael	-11.9712
▁rube	-11.9715
malle	-11.9717
▁baier	-11.9718
▁raffael	-11.972
neck	-11.9724
▁blank	-11.9724
▁prob	-11.9725
▁saf	-11.9725
ewsk	-11.9727
▁chance	-11.9728
issen	-11.9728
baud	-11.973
kal	-11.9738
▁zhukovsk	-11.9744
▁blow	-11.975
▁filmmaker	-11.9751
care	-11.9752
▁montan	-11.9755
▁dap	-11.9758
▁jel	-11.9762
▁hep	-11.9766
▁sza	-11.977
yom	-11.9771
zh	-11.9772
east	-11.9772
lake	-11.9776
rane	-11.9785
yang	-11.9785
love	-11.9786
adena	-11.9786
▁hellen	-11.9789
▁abul	-11.9792
▁shell	-11.9793
▁wallach	-11.9796
▁maser	-11.9806
▁missi	-11.9811
▁primo	-11.9813
ampt	-11.9818
▁hannel	-11.9824
anowsk	-11.9827
▁jac	-11.983
▁aubr	-11.9833
▁colm	-11.9834
▁terra	-11.9835
▁guglielm	-11.9835
▁woolf	-11.9835
▁mathew	-11.9835
▁wake	-11.9835
▁domingu	-11.9836
▁chaz	-11.9838
osef	-11.9838
▁tapestr	-11.9841
▁hotel	-11.9841
ove	-11.9842
nius	-11.9842
▁vivian	-11.9844
▁gotha	-11.9845
▁lustig	-11.9847
▁vere	-11.9848
aberd	-11.9849
rno	-11.9849
▁worm	-11.9859
denis	-11.986
▁baud	-11.9864
nar	-11.9864
▁vassa	-11.9865
▁simpl	-11.9866
▁arena	-11.9866
▁gosl	-11.9867
▁nan	-11.987
▁pirate	-11.987
▁laris	-11.9871
▁flores	-11.9872
▁dollar	-11.9872
ellini	-11.9872
▁bata	-11.9874
elson	-11.9877
▁bint	-11.9877
trop	-11.9878
ijn	-11.9879
▁surre	-11.9879
▁minute	-11.9879
▁koln	-11.9881
igny	-11.9882
arch	-11.9883
▁croc	-11.9883
vara	-11.9884
▁thu	-11.9884
▁betti	-11.9884
▁thiele	-11.9887
▁kaf	-11.9894
vette	-11.9901
▁ecchi	-11.9906
▁kens	-11.991
▁faye	-11.9914
▁grego	-11.9914
▁giulian	-11.9915
▁harmon	-11.9918
▁alba	-11.9921
ets	-11.9921
▁brittan	-11.9924
▁erdman	-11.9925
det	-11.9931
▁suhr	-11.9933
▁mcn	-11.9936
aldo	-11.9939
▁caj	-11.994
▁fredric	-11.9941
▁bruni	-11.9942
shing	-11.9942
tique	-11.9945
▁boll	-11.9949
▁andreyev	-11.9951
▁merz	-11.9951
▁radcl	-11.9954
uriel	-11.9955
rova	-11.9957
▁soo	-11.9962
▁kaut	-11.9962
lang	-11.9964
▁paco	-11.9968
▁schleich	-11.997
▁nas	-11.9978
▁jesper	-11.9983
sultan	-11.9983
▁casanova	-11.9983
▁reform	-11.9984
▁chrys	-11.9985
▁trapp	-11.9989
▁wede	-11.9989
▁janssen	-11.9989
▁odd	-12
▁krav	-12.0001
▁kinne	-12.0004
▁every	-12.0008
edouard	-12.0008
lar	-12.0008
esz	-12.0009
▁few	-12.001
mount	-12.0011
aekwon	-12.0014
enz	-12.0015
▁malle	-12.0015
▁poe	-12.0021
lieu	-12.0023
raf	-12.0025
▁rott	-12.0027
▁frida	-12.0028
▁mik	-12.0029
▁schre	-12.0029
▁henrique	-12.0031
▁kita	-12.0032
vaux	-12.0034
tanja	-12.0036
▁smol	-12.004
▁birch	-12.004
cini	-12.004
▁sah	-12.0053
▁groning	-12.0055
▁torn	-12.0058
nbaum	-12.0061
▁novi	-12.0063
dust	-12.0064
▁schles	-12.0069
legio	-12.0071
nizhn	-12.0072
sheri	-12.0073
▁melv	-12.0078
vind	-12.008
cture	-12.0084
hen	-12.0099
▁stol	-12.0106
▁jurg	-12.0106
▁aman	-12.0109
quel	-12.011
▁tsa	-12.0111
gang	-12.0112
▁montal	-12.0113
▁hue	-12.0119
sib	-12.012
▁pavl	-12.0122
▁beatt	-12.0128
rao	-12.013
unov	-12.0131
enkov	-12.0131
nobu	-12.0133
▁agnostic	-12.0134
▁konstanz	-12.0134
▁margareth	-12.0135
▁saad	-12.0136
▁jasper	-12.0136
▁vincenzo	-12.014
▁drummond	-12.014
▁landsberg	-12.0141
amos	-12.0144
▁ashton	-12.0144
franken	-12.0146
▁tiffany	-12.0146
▁mcla	-12.0147
▁zhao	-12.0148
▁antw	-12.0148
slav	-12.0149
▁andrej	-12.0152
▁nathalie	-12.0152
▁hamel	-12.0159
▁ewa	-12.016
▁herr	-12.0161
▁augs	-12.0162
▁appel	-12.0166
▁kuro	-12.0171
▁zsch	-12.0174
oza	-12.0176
▁acker	-12.0181
▁rol	-12.0181
▁ango	-12.0185
heinrich	-12.0187
▁stat	-12.0187
▁chester	-12.0188
iemens	-12.0192
onen	-12.0193
▁carre	-12.02
ras	-12.0201
ladys	-12.0203
uda	-12.0206
homme	-12.0206
▁rive	-12.021
ektor	-12.0213
chery	-12.0213
spitze	-12.0214
▁quan	-12.0217
▁jagg	-12.022
stiller	-12.0223
▁lum	-12.0224
▁canno	-12.0224
▁casin	-12.0225
▁draga	-12.023
▁ludwi	-12.0232
osten	-12.0234
trial	-12.0235
tari	-12.0235
▁glea	-12.0236
vey	-12.0237
▁hossein	-12.024
▁were	-12.0241
▁11	-12.0251
▁steg	-12.0255
ippi	-12.026
▁kle	-12.026
fan	-12.0261
lamo	-12.0262
▁shear	-12.0262
▁heide	-12.0266
sworth	-12.0267
▁rodol	-12.0272
▁gir	-12.0274
taib	-12.0274
▁katsu	-12.0274
▁yoshik	-12.0276
▁lilian	-12.0277
vigne	-12.0278
▁glaser	-12.0281
▁tr	-12.0281
echter	-12.0283
szka	-12.0285
▁poin	-12.0286
bu	-12.0287
▁antiquari	-12.0287
▁ortiz	-12.0288
▁bianchi	-12.0288
▁adapt	-12.0288
▁kitchen	-12.0289
▁mississ	-12.0289
▁prevost	-12.029
▁gy	-12.0293
▁barthel	-12.0293
▁zheng	-12.0295
▁milla	-12.0296
▁darius	-12.03
jiro	-12.0304
▁massacre	-12.0305
clair	-12.0309
▁busta	-12.031
▁jump	-12.0311
kansa	-12.0315
▁comb	-12.0315
▁season	-12.0315
eu	-12.0319
▁easy	-12.0322
far	-12.0323
▁tamer	-12.0325
chwil	-12.0326
lobodan	-12.0327
neuve	-12.0329
kok	-12.0333
hor	-12.0334
lain	-12.0335
▁chatel	-12.0336
matthaus	-12.0337
▁hare	-12.0339
▁wilkes	-12.0339
ghett	-12.0344
diac	-12.0344
gg	-12.0345
▁cern	-12.0347
▁ferrero	-12.0348
ole	-12.035
▁ricci	-12.035
ray	-12.0351
▁proh	-12.0352
▁shche	-12.0355
▁cherry	-12.0358
▁mean	-12.0359
▁stud	-12.0362
▁uh	-12.0363
▁sjo	-12.0366
ids	-12.0366
waz	-12.0367
brian	-12.0369
ibi	-12.0371
▁merke	-12.0372
▁ganz	-12.0375
kreis	-12.0377
dorn	-12.0383
maire	-12.0387
▁sali	-12.0387
▁mecha	-12.0389
abe	-12.0393
▁ror	-12.0393
▁faust	-12.0394
erman	-12.0395
▁takashi	-12.0395
jorn	-12.0396
▁fantasti	-12.0397
gregor	-12.04
▁hinter	-12.04
▁pfeif	-12.0401
pitz	-12.0406
▁rodd	-12.0408
▁zeno	-12.041
▁lodg	-12.0413
▁swami	-12.0414
oya	-12.0417
▁towns	-12.0423
not	-12.0423
▁labor	-12.0426
▁jana	-12.0427
▁gra	-12.0429
ossi	-12.043
ruff	-12.043
dur	-12.0431
▁horse	-12.0432
▁nicolai	-12.0434
kan	-12.0435
uck	-12.0436
▁kink	-12.0438
elt	-12.0441
▁pfaff	-12.0444
▁candy	-12.0445
▁trax	-12.0445
▁chong	-12.0446
▁front	-12.0451
▁zum	-12.0451
▁mani	-12.0452
▁sof	-12.0452
▁path	-12.0453
nfurt	-12.0454
▁kom	-12.0454
▁coen	-12.0457
ardi	-12.0457
▁dunne	-12.0461
▁merlin	-12.0461
▁kleist	-12.0461
▁moreau	-12.0464
▁balz	-12.0464
▁kunt	-12.0466
▁moor	-12.0467
ulo	-12.0467
ensburg	-12.0468
▁irwin	-12.047
▁heck	-12.0471
▁hanne	-12.0471
sig	-12.0475
▁tex	-12.0478
▁fos	-12.0482
iro	-12.0485
▁barnet	-12.0491
▁morav	-12.0492
arno	-12.0492
▁lilly	-12.0495
dia	-12.0496
matsu	-12.0498
▁rabin	-12.05
dcast	-12.0501
▁petrus	-12.0503
▁mads	-12.0504
▁mohl	-12.0507
▁novak	-12.0508
roja	-12.0508
▁noon	-12.0509
▁sabi	-12.0509
mas	-12.0511
▁shakir	-12.0511
vedo	-12.0513
▁michaeli	-12.0514
▁mello	-12.0523
▁winni	-12.0523
▁llu	-12.0523
dou	-12.0524
▁mende	-12.0525
▁bm	-12.053
▁wyn	-12.053
▁bah	-12.0531
stern	-12.0532
▁witte	-12.0537
▁jiang	-12.0538
vili	-12.0541
▁barc	-12.0542
klage	-12.0542
▁cabre	-12.055
▁riche	-12.055
dietrich	-12.0552
zone	-12.0553
teur	-12.0555
▁lambs	-12.0556
reau	-12.0556
▁cla	-12.056
▁demir	-12.0564
▁rab	-12.0565
eum	-12.0566
onja	-12.0568
▁talk	-12.0574
▁mccull	-12.0574
▁joshi	-12.0575
▁corrad	-12.0575
▁marini	-12.0575
▁lest	-12.0578
ture	-12.0579
▁chernov	-12.058
▁pats	-12.0583
▁mache	-12.0583
▁kosta	-12.0583
▁prim	-12.0584
▁norma	-12.0585
▁schop	-12.0587
▁gaspard	-12.0588
▁shank	-12.0594
▁nicol	-12.0595
pa	-12.0596
urious	-12.0597
▁caron	-12.0599
▁solovyov	-12.0601
▁toledo	-12.0601
▁schleswig	-12.0601
▁tibet	-12.0602
▁erotic	-12.0602
▁shmuel	-12.0602
▁ticket	-12.0602
▁jager	-12.0603
▁asher	-12.0603
▁equa	-12.0604
▁glam	-12.0605
anski	-12.0606
▁shar	-12.0606
▁senn	-12.0606
▁puppet	-12.0608
herrer	-12.0609
▁mou	-12.0609
stello	-12.0609
▁friedl	-12.061
opper	-12.0612
mez	-12.0614
gur	-12.0616
igne	-12.0618
▁grill	-12.0619
maru	-12.062
▁carolyn	-12.062
▁hubner	-12.062
▁minna	-12.062
▁cirr	-12.0628
rendel	-12.0632
▁fey	-12.0633
▁ende	-12.0638
ast	-12.0638
▁detm	-12.0642
harton	-12.0643
▁cul	-12.0648
▁lola	-12.0655
▁wing	-12.0657
▁sem	-12.0658
sten	-12.0658
alves	-12.0659
ggs	-12.0661
▁bid	-12.0662
▁jurgens	-12.0665
▁monta	-12.0668
lewsk	-12.0668
aut	-12.0673
▁kazu	-12.0682
brunn	-12.0683
▁lim	-12.0687
tyron	-12.0688
▁sach	-12.0689
carola	-12.0689
iden	-12.0689
▁groen	-12.0691
inho	-12.0695
nais	-12.0696
▁ayr	-12.0696
ben	-12.0699
▁nazar	-12.0702
▁circu	-12.0704
▁auf	-12.0705
oblet	-12.0707
una	-12.0708
▁kato	-12.0708
▁stahl	-12.0709
lem	-12.0712
enkel	-12.0712
▁shadows	-12.0713
quin	-12.0714
hermann	-12.0716
▁torin	-12.0725
▁yama	-12.0726
dayan	-12.0729
hwa	-12.0737
john	-12.0738
elbert	-12.0738
▁westphal	-12.074
▁education	-12.0743
aye	-12.0746
▁surg	-12.0746
ort	-12.0748
▁bash	-12.0749
▁beni	-12.0751
▁milo	-12.0752
▁minh	-12.0753
▁emp	-12.0757
▁toshi	-12.0757
▁lucil	-12.0757
moelle	-12.0759
▁bare	-12.0759
▁fern	-12.076
und	-12.0761
▁lefeb	-12.0762
▁nadezhd	-12.0762
▁cowboy	-12.0762
▁malibu	-12.0762
▁respi	-12.0762
▁miracle	-12.0763
▁linde	-12.0763
▁fol	-12.0763
▁lowenstein	-12.0763
tool	-12.0764
▁barthold	-12.0765
▁bridget	-12.0766
▁heming	-12.0767
▁ballio	-12.0767
▁berber	-12.0768
▁necka	-12.077
nian	-12.0771
▁mey	-12.0772
▁smile	-12.0773
laff	-12.0773
▁kool	-12.0773
feher	-12.0775
▁lehr	-12.0776
chel	-12.0776
▁reit	-12.078
och	-12.078
▁reserv	-12.0781
tano	-12.0782
▁lindberg	-12.0782
▁gang	-12.0783
▁chis	-12.0785
rantz	-12.0786
▁cassa	-12.0789
▁slavo	-12.079
▁abb	-12.0791
▁roh	-12.0791
▁cald	-12.0795
got	-12.0796
▁cent	-12.0797
schilling	-12.0797
nova	-12.08
▁garza	-12.0801
▁maj	-12.0801
▁bric	-12.0801
▁tula	-12.0803
▁maas	-12.0804
▁marcin	-12.0807
▁perm	-12.0809
▁shadow	-12.0811
▁patri	-12.0811
▁ono	-12.0814
shkin	-12.0817
▁gino	-12.0821
▁safi	-12.0824
▁davy	-12.0824
▁chenna	-12.0827
▁vla	-12.0828
▁slade	-12.0828
ama	-12.083
uta	-12.083
▁shee	-12.083
▁kron	-12.0831
▁khalif	-12.0831
opi	-12.0832
leit	-12.0833
▁jovan	-12.0839
▁michalk	-12.0841
▁granad	-12.0842
▁turn	-12.0842
▁oss	-12.0844
▁cass	-12.0849
▁cheng	-12.085
▁eisle	-12.0852
▁cara	-12.0853
▁angelin	-12.0857
▁hoy	-12.0857
▁edel	-12.0857
▁palin	-12.086
▁mako	-12.0862
arius	-12.0865
▁rea	-12.0871
▁belin	-12.0877
▁howe	-12.0879
▁stree	-12.0881
▁lai	-12.0885
▁est	-12.0886
▁fell	-12.0888
loh	-12.0891
iful	-12.0891
▁dent	-12.0892
▁masters	-12.0893
▁nah	-12.0894
patric	-12.0895
▁tank	-12.09
oney	-12.0907
▁noble	-12.0918
▁vel	-12.0919
▁toulou	-12.0919
▁medieval	-12.0925
▁nightmare	-12.0925
▁hildesheim	-12.0926
▁sigmund	-12.0926
▁dohm	-12.0926
▁dune	-12.0927
▁avenger	-12.0929
▁majid	-12.093
american	-12.093
▁neve	-12.0933
▁pino	-12.0935
cheung	-12.0935
nang	-12.0935
▁tanner	-12.0937
▁smolensk	-12.0937
▁estelle	-12.0938
▁vain	-12.0939
▁living	-12.094
ems	-12.0941
▁rodger	-12.0941
nu	-12.0942
conti	-12.0942
form	-12.0942
heart	-12.0942
onniere	-12.0944
waite	-12.0946
oca	-12.0947
erin	-12.0948
▁andries	-12.0948
iere	-12.0949
rious	-12.0949
▁emo	-12.0951
gola	-12.0951
▁bari	-12.0952
▁surin	-12.0958
▁devon	-12.0963
inau	-12.0964
brook	-12.0964
gley	-12.0966
russian	-12.0967
hun	-12.0968
▁tun	-12.0971
▁watch	-12.0975
▁sharp	-12.0976
▁cloud	-12.098
▁code	-12.0984
▁dadd	-12.0992
jun	-12.0993
▁mader	-12.0994
▁koller	-12.0995
inek	-12.0995
▁elf	-12.0995
▁savo	-12.0997
unt	-12.0998
▁nishi	-12.0999
oratio	-12.1
▁xen	-12.1004
▁niv	-12.1006
▁fein	-12.1013
▁glenda	-12.1016
czyk	-12.1017
shot	-12.1017
▁birk	-12.102
▁raf	-12.1025
uri	-12.1026
▁ethnograph	-12.1027
maa	-12.1029
iero	-12.1029
niemi	-12.1031
▁camar	-12.1032
▁pace	-12.1038
mal	-12.1039
▁prag	-12.1039
▁ric	-12.1043
rama	-12.1048
▁suf	-12.1048
ickens	-12.105
view	-12.1052
isi	-12.1054
▁paol	-12.1055
▁dys	-12.1055
▁nikos	-12.1059
rio	-12.1059
niuk	-12.1059
fang	-12.1065
▁pinto	-12.1067
▁anastas	-12.1068
▁board	-12.1068
▁vorone	-12.1069
big	-12.1074
▁haf	-12.108
▁square	-12.1084
▁christo	-12.1087
rough	-12.1087
▁caricatur	-12.1091
▁ribeiro	-12.1091
▁mendoza	-12.1091
▁aleksandra	-12.1093
▁morozov	-12.1093
▁physiolog	-12.1094
mbh	-12.1096
▁dracula	-12.1098
▁steiger	-12.1098
▁mull	-12.1102
essen	-12.1103
▁fal	-12.1104
▁escape	-12.1104
aleb	-12.1107
▁theodosi	-12.1107
▁archduch	-12.1109
▁solari	-12.111
▁hartle	-12.1111
▁pin	-12.1111
▁roque	-12.1112
▁aram	-12.1115
nthia	-12.1115
finger	-12.1118
▁muhl	-12.1119
oberbottigen	-12.112
▁heath	-12.1121
kappel	-12.1122
▁semyonov	-12.1123
▁sedg	-12.1125
▁frick	-12.1125
▁moise	-12.1126
frederic	-12.1126
fontaine	-12.1126
▁milk	-12.1126
▁pepper	-12.1126
mantha	-12.1129
▁ming	-12.113
mach	-12.113
▁jeong	-12.1131
▁gries	-12.1131
▁pizz	-12.1131
▁thin	-12.1135
▁borel	-12.1141
engels	-12.1144
angelica	-12.1145
▁chiba	-12.1145
▁kseni	-12.1147
▁guin	-12.1151
▁sunny	-12.1161
▁calli	-12.1163
▁gog	-12.1163
▁biot	-12.1164
wr	-12.1166
▁irm	-12.1166
▁wasserman	-12.117
▁dry	-12.117
yle	-12.1176
zhi	-12.1178
▁kathrin	-12.1179
mirza	-12.1186
▁severin	-12.1186
▁if	-12.1188
▁zam	-12.1189
▁harri	-12.119
ren	-12.1196
herbie	-12.1198
▁gon	-12.1202
asca	-12.1203
▁geld	-12.1204
▁bain	-12.1204
raghi	-12.1205
utin	-12.1206
ckmann	-12.1208
▁moo	-12.121
▁hono	-12.1213
zie	-12.1215
▁rupp	-12.1216
innes	-12.1217
jardin	-12.1222
▁ines	-12.1223
rett	-12.1224
tha	-12.1226
ugh	-12.1228
▁rapp	-12.1228
nett	-12.123
▁sharma	-12.123
▁cory	-12.1231
uzman	-12.1232
▁santo	-12.1232
▁kari	-12.1233
sdott	-12.1235
▁hirt	-12.1235
vaz	-12.1236
▁poss	-12.1242
▁sk	-12.1249
▁bogdanov	-12.1255
ipps	-12.1256
xing	-12.126
▁braunschweig	-12.126
suk	-12.1261
▁innocent	-12.1262
▁makarov	-12.1263
▁sugar	-12.1264
▁frieder	-12.1269
dni	-12.1271
▁zahra	-12.1272
ullah	-12.1275
▁vasco	-12.1277
▁mclea	-12.1277
▁domino	-12.1278
nyon	-12.1281
▁matej	-12.1281
▁macau	-12.1283
▁iorg	-12.1285
unde	-12.129
▁marine	-12.129
▁marko	-12.1291
▁byrd	-12.1292
kers	-12.1292
▁ker	-12.1293
▁fuhr	-12.1294
▁anker	-12.1296
▁kop	-12.1304
▁picard	-12.1306
▁expe	-12.1306
tmar	-12.1307
▁spot	-12.1309
▁berk	-12.1311
▁friede	-12.1312
▁gwen	-12.1313
▁darling	-12.1314
schanel	-12.1319
bohm	-12.1323
moscow	-12.1325
gerald	-12.1327
▁set	-12.1332
ttle	-12.1334
michai	-12.1338
▁blanch	-12.134
▁bub	-12.1341
▁kana	-12.1347
nzell	-12.1347
otho	-12.135
▁sokol	-12.1351
▁cheval	-12.1352
▁bertra	-12.1352
▁mist	-12.1354
udes	-12.1355
▁ridd	-12.1358
▁pek	-12.1358
zwil	-12.1359
ult	-12.136
▁harlan	-12.1363
▁fehr	-12.1364
▁marcellin	-12.1364
ngwei	-12.1366
chmann	-12.1366
bos	-12.1367
▁zofing	-12.1372
▁berner	-12.1376
▁hedi	-12.1376
▁pash	-12.1377
ela	-12.1378
▁gru	-12.1386
acinto	-12.1387
zon	-12.1397
▁mckin	-12.1398
mon	-12.1398
kent	-12.1399
▁richt	-12.1403
▁velas	-12.1405
▁huff	-12.1405
dley	-12.1407
kram	-12.1409
▁have	-12.1411
▁worth	-12.1413
alla	-12.1414
▁ser	-12.1415
▁independen	-12.1418
drin	-12.1423
lli	-12.1426
▁hersh	-12.1429
gitta	-12.143
▁fellow	-12.1432
igen	-12.1432
▁illuminat	-12.1432
▁guadal	-12.1432
▁yellow	-12.1432
▁impos	-12.1432
▁ninja	-12.1432
raz	-12.1433
▁smirnov	-12.1434
▁carval	-12.1436
▁rostov	-12.1436
▁widmer	-12.1436
▁etern	-12.1437
▁chopin	-12.1437
allah	-12.1438
tzer	-12.1438
▁marceau	-12.1439
▁dorse	-12.144
szek	-12.144
▁wallis	-12.1443
▁mckenn	-12.1443
ingle	-12.1445
▁petty	-12.1447
how	-12.1447
than	-12.1449
▁flan	-12.1449
strong	-12.145
▁olav	-12.1453
loff	-12.1453
agnie	-12.1453
embert	-12.1453
▁buhl	-12.1453
▁adelaid	-12.1453
▁rosalind	-12.1457
jes	-12.1459
▁daniell	-12.146
▁hidek	-12.1462
▁stade	-12.1463
▁joll	-12.1465
nda	-12.1469
uba	-12.1471
▁palatin	-12.1472
▁berthel	-12.1473
▁cavall	-12.1473
hab	-12.1473
▁barba	-12.1473
▁hui	-12.1473
▁lec	-12.1475
blanc	-12.1479
▁daim	-12.148
▁schott	-12.148
▁stor	-12.1485
▁myr	-12.1485
▁clave	-12.1488
rad	-12.1488
▁alberta	-12.1489
▁irv	-12.1491
▁honey	-12.1491
▁ponce	-12.1492
▁stefani	-12.1498
▁iskand	-12.1498
▁gris	-12.1499
trow	-12.15
▁nepomu	-12.1503
▁feuer	-12.1508
rows	-12.1509
tage	-12.1509
bella	-12.1512
▁samson	-12.1515
▁bets	-12.1516
▁dali	-12.1518
▁lancas	-12.1519
etien	-12.1525
▁fabre	-12.1526
▁balla	-12.1528
addam	-12.1529
young	-12.153
▁litt	-12.1531
▁gedd	-12.1531
iquel	-12.1534
daniel	-12.1535
reit	-12.1535
ering	-12.1535
▁auber	-12.1542
▁spee	-12.1544
ael	-12.1547
ndheim	-12.1547
▁judg	-12.1554
bee	-12.1555
tung	-12.1557
▁dov	-12.157
▁baldu	-12.1576
▁carbon	-12.1577
▁knapp	-12.1578
brid	-12.1579
▁comple	-12.1584
ican	-12.1587
ezzo	-12.1588
▁malk	-12.1592
▁buster	-12.1593
astair	-12.1596
mg	-12.1597
▁rodrig	-12.1605
▁still	-12.1606
osna	-12.1606
▁sacramento	-12.1606
▁elephant	-12.1606
▁cristian	-12.1606
▁favorite	-12.1606
▁watkins	-12.1606
▁schwartz	-12.1606
▁arrigo	-12.1607
▁beal	-12.1608
▁lauder	-12.161
mine	-12.161
▁drago	-12.1611
▁schramm	-12.1612
▁faber	-12.1614
▁yamag	-12.1615
▁faris	-12.1615
▁rees	-12.1616
ckland	-12.1617
▁glin	-12.1619
▁nicolett	-12.1619
▁gero	-12.1621
▁swans	-12.1621
▁rico	-12.1621
▁schrot	-12.1621
▁brug	-12.1622
▁mazur	-12.1622
▁mercier	-12.1623
any	-12.1623
alina	-12.1624
cheng	-12.1625
▁manchuria	-12.1626
▁pea	-12.1627
▁rothen	-12.1628
rica	-12.1629
▁strath	-12.163
▁rudd	-12.1631
▁wlod	-12.1632
▁stole	-12.1632
sapien	-12.1632
krasov	-12.1634
▁spell	-12.1634
roll	-12.1634
▁rocke	-12.1635
mori	-12.1635
▁mcge	-12.1638
▁dra	-12.1639
lermo	-12.164
▁aliyev	-12.1641
▁klug	-12.1641
▁rollin	-12.1642
▁goring	-12.1642
mans	-12.1645
▁wad	-12.1645
skin	-12.1649
▁zalma	-12.165
oman	-12.1653
ammer	-12.1654
kus	-12.1655
▁romanov	-12.1657
▁lemm	-12.1659
einhof	-12.1668
▁map	-12.1668
ayo	-12.1669
▁golo	-12.167
▁quinc	-12.1672
▁flo	-12.1676
capit	-12.1677
▁blo	-12.1678
esta	-12.1679
hne	-12.1683
▁dame	-12.1684
▁segal	-12.1686
fluh	-12.1694
▁skar	-12.1694
▁veit	-12.1701
sse	-12.1701
▁tera	-12.1708
▁maher	-12.1709
▁sheik	-12.171
ido	-12.1712
▁hippolyte	-12.1713
▁iza	-12.1714
▁kreuz	-12.1714
▁dina	-12.1717
hans	-12.1717
▁shri	-12.1721
adden	-12.1722
▁weather	-12.1722
▁eye	-12.1723
zug	-12.1723
▁deep	-12.1724
▁linden	-12.1725
▁haw	-12.1725
▁hai	-12.1727
alov	-12.1729
▁rider	-12.1731
▁stephens	-12.1732
schwerin	-12.1733
saw	-12.1735
▁brahm	-12.1739
georges	-12.1741
▁gle	-12.1741
sant	-12.1742
▁rohl	-12.1748
▁hain	-12.1748
time	-12.1748
▁mau	-12.1748
▁gonzal	-12.1752
▁herzog	-12.1756
aroslav	-12.1756
▁six	-12.176
▁grav	-12.1763
elen	-12.1765
▁jarvi	-12.1765
▁christof	-12.1768
▁ayd	-12.1769
▁archer	-12.1771
▁em	-12.1774
▁mateo	-12.1776
quand	-12.1777
otte	-12.1778
▁techno	-12.1782
titu	-12.1784
▁mihaly	-12.1784
▁koenig	-12.1785
▁birger	-12.1786
▁thorne	-12.1786
▁hom	-12.1787
▁savanna	-12.1787
▁friedel	-12.1793
▁hinrich	-12.1794
▁aesch	-12.1795
ishi	-12.1796
▁haug	-12.1796
korn	-12.1801
ether	-12.1802
▁kam	-12.1804
▁inglo	-12.1805
▁wel	-12.1807
ewicz	-12.1809
▁patel	-12.1813
▁kapp	-12.1814
putin	-12.1814
ucky	-12.1815
▁scheer	-12.1817
▁espo	-12.182
▁learn	-12.182
▁ragnar	-12.1823
▁borcher	-12.1827
▁mother	-12.1833
▁rama	-12.1837
▁camer	-12.1838
lu	-12.1841
ico	-12.1841
▁gad	-12.1842
▁lith	-12.1842
enov	-12.1845
▁karman	-12.1849
▁irena	-12.185
▁marath	-12.1855
sachs	-12.1862
▁fif	-12.1863
sea	-12.1864
iswil	-12.1864
▁coy	-12.1865
onov	-12.1872
▁bowl	-12.1876
lemont	-12.1876
del	-12.1878
▁hen	-12.1879
▁malin	-12.188
schule	-12.1889
▁chao	-12.1892
▁thore	-12.1894
▁gig	-12.19
▁hager	-12.1901
▁keel	-12.1902
▁wiz	-12.1903
▁carto	-12.1905
sari	-12.1912
freiberg	-12.1913
chkov	-12.1915
▁peta	-12.1919
▁body	-12.1919
▁lys	-12.193
▁dae	-12.1932
eigen	-12.194
▁odo	-12.1944
likon	-12.1945
▁camil	-12.1945
▁macie	-12.1945
tuber	-12.1946
eng	-12.1946
philippe	-12.1947
▁fou	-12.1951
▁osman	-12.1951
▁gry	-12.196
enhof	-12.196
▁koll	-12.196
▁wheat	-12.1961
▁strei	-12.1962
▁casper	-12.1966
bouti	-12.1966
▁hefner	-12.1966
pre	-12.1967
▁rapperswil	-12.1967
▁absolut	-12.1967
sperg	-12.1968
▁fleet	-12.197
friede	-12.1971
▁kathr	-12.1972
▁malayala	-12.1973
▁lieb	-12.1974
▁benes	-12.1975
▁zola	-12.1977
▁fritsch	-12.1977
▁span	-12.1977
▁bartsch	-12.1978
auguste	-12.1978
▁legion	-12.1978
▁arif	-12.1978
▁sloan	-12.1979
swana	-12.1979
▁biederman	-12.198
oun	-12.1982
rol	-12.1983
ag	-12.1985
▁figar	-12.1986
▁hugue	-12.1986
ruba	-12.1986
▁armen	-12.1987
tt	-12.1987
berman	-12.1989
▁kubl	-12.199
voy	-12.1991
▁pull	-12.1991
▁bahama	-12.1991
inka	-12.1991
▁gos	-12.1993
elmar	-12.1994
▁baruch	-12.1996
▁ferru	-12.1998
▁sulz	-12.1999
oody	-12.2001
▁munz	-12.2004
tomsk	-12.2005
▁notting	-12.2006
▁open	-12.2006
▁mesa	-12.2007
botin	-12.2011
▁nate	-12.2012
▁arkadi	-12.2013
audet	-12.2015
▁avra	-12.2015
▁oberlin	-12.2017
▁castel	-12.2024
▁salv	-12.2027
▁letra	-12.2028
▁benet	-12.2028
▁goll	-12.2031
▁durr	-12.2035
▁falcon	-12.2037
▁sardinia	-12.2038
▁snoo	-12.2039
▁colli	-12.2048
▁krem	-12.2048
▁neurolog	-12.2052
▁kinder	-12.2053
▁brasch	-12.2056
▁welt	-12.2056
▁kik	-12.2057
▁oda	-12.2058
laye	-12.2061
▁ferry	-12.2062
▁jou	-12.2068
▁blume	-12.207
▁reuter	-12.2071
▁farn	-12.2073
▁brie	-12.2079
gasse	-12.208
▁cyn	-12.208
▁brodsk	-12.2081
▁sasa	-12.2083
▁trevi	-12.2084
▁stra	-12.2088
lette	-12.2088
▁giro	-12.2089
▁kare	-12.2089
▁noe	-12.209
anovic	-12.209
ikan	-12.2091
evic	-12.2093
▁pod	-12.2102
▁messin	-12.2103
▁sask	-12.2103
nadia	-12.2104
▁abelard	-12.2106
▁rivers	-12.2108
▁soy	-12.2109
▁vint	-12.2109
▁holst	-12.2109
elize	-12.211
▁akb	-12.2111
perin	-12.2115
▁mask	-12.2117
across	-12.2118
▁dul	-12.2119
▁allegr	-12.212
▁kuch	-12.212
▁sala	-12.212
▁shut	-12.2121
▁chom	-12.2123
lenka	-12.2125
▁trau	-12.2127
thy	-12.2128
new	-12.2131
▁elisabet	-12.2131
erati	-12.2133
▁cab	-12.2134
acci	-12.2134
gic	-12.2137
▁donos	-12.2138
▁candid	-12.2141
gill	-12.2142
▁esp	-12.2142
▁pep	-12.2145
▁hidd	-12.2145
▁fiddl	-12.2149
▁furst	-12.2149
▁inspect	-12.215
▁animat	-12.2151
▁cullen	-12.2151
▁bitt	-12.2152
▁troub	-12.2152
mit	-12.2152
zaw	-12.2152
▁auror	-12.2153
▁suppli	-12.2155
▁institution	-12.2159
▁kryst	-12.2162
▁weige	-12.2162
▁babb	-12.2165
▁pound	-12.2167
noble	-12.2167
▁chou	-12.2168
▁grote	-12.217
▁dion	-12.2173
▁rade	-12.2178
▁wolver	-12.2179
▁lom	-12.2179
▁mackay	-12.218
▁pes	-12.2183
▁program	-12.2186
▁martens	-12.2192
▁weisse	-12.2194
▁augustine	-12.2194
▁engle	-12.2195
▁message	-12.22
cano	-12.2201
curit	-12.2202
▁mccor	-12.2205
▁manil	-12.2206
▁gena	-12.2207
▁jaffe	-12.2208
▁mirja	-12.2211
zynsk	-12.2212
▁rim	-12.2221
▁butter	-12.2221
▁rocha	-12.2222
▁lep	-12.2222
▁affair	-12.2223
chantal	-12.2224
leksandr	-12.2226
▁cocker	-12.2229
▁dot	-12.223
vert	-12.2231
book	-12.2231
▁benin	-12.2234
sbury	-12.2236
kichi	-12.2243
rator	-12.2243
▁palac	-12.2245
cine	-12.2245
▁sola	-12.225
erben	-12.225
beek	-12.2251
▁president	-12.2251
gumil	-12.2251
tanya	-12.2252
▁prisoner	-12.2252
georg	-12.2256
▁pavlovic	-12.2258
▁bunk	-12.2259
▁roc	-12.2261
▁cai	-12.2266
▁zahn	-12.2268
ehn	-12.2269
okke	-12.227
▁shira	-12.2271
▁passi	-12.2272
▁cad	-12.2276
▁ute	-12.2276
▁markov	-12.2278
▁gilli	-12.2281
iker	-12.2283
tislav	-12.2294
▁blom	-12.2295
▁ike	-12.2295
sdorff	-12.2296
▁muhs	-12.2301
▁yaroslav	-12.2303
hutter	-12.2308
▁carno	-12.231
▁colb	-12.2314
▁grigori	-12.2316
▁birt	-12.2317
▁gwynn	-12.2319
deutsch	-12.2321
▁cem	-12.2322
▁gei	-12.2322
▁vve	-12.2323
▁kis	-12.2323
iberg	-12.2324
kirov	-12.2324
▁kri	-12.2325
▁xue	-12.2325
▁tada	-12.2327
▁stick	-12.2327
▁gods	-12.2328
▁cru	-12.2329
agin	-12.2329
▁schuma	-12.233
▁bobbi	-12.2335
▁ahrens	-12.2337
▁mccormick	-12.2337
▁riverside	-12.2338
▁oksan	-12.2338
▁verhoe	-12.2338
▁flint	-12.2339
▁becquer	-12.2339
▁shapir	-12.2339
▁egbert	-12.2339
▁trey	-12.234
til	-12.234
▁kehr	-12.2341
▁hark	-12.2341
▁taf	-12.2342
elds	-12.2342
▁soro	-12.2343
kolka	-12.2343
identi	-12.2344
▁alexandros	-12.2344
▁bondar	-12.2346
▁craven	-12.2347
▁chocolat	-12.2348
▁lab	-12.2349
▁pud	-12.2349
▁tit	-12.2349
▁rachid	-12.2352
▁salaman	-12.2353
▁klee	-12.2354
runi	-12.2355
▁watan	-12.2357
▁teng	-12.2359
▁lemoin	-12.2361
▁mouse	-12.2363
▁babel	-12.2365
▁marsha	-12.2367
▁felicia	-12.2368
▁ferri	-12.237
nasser	-12.2372
ussi	-12.2373
afen	-12.2374
▁tamb	-12.2379
▁gis	-12.2379
▁bower	-12.238
sbane	-12.2381
physic	-12.2382
lina	-12.2382
dies	-12.2382
▁kira	-12.2383
xavier	-12.2383
▁duvall	-12.239
enna	-12.2394
ijah	-12.24
aburo	-12.24
armen	-12.2401
christophe	-12.2401
▁samp	-12.2402
dus	-12.2406
▁alys	-12.2407
▁kills	-12.2408
▁wittenberg	-12.2409
box	-12.241
▁schur	-12.2412
▁sor	-12.2412
▁shahi	-12.242
▁bhut	-12.2428
asy	-12.2432
▁ignat	-12.2433
▁thiess	-12.2436
▁kilch	-12.2437
▁elling	-12.2437
ncker	-12.2438
▁danilo	-12.244
ath	-12.244
yun	-12.244
leum	-12.244
▁stauffe	-12.2441
▁ital	-12.2442
owens	-12.2443
▁hader	-12.2444
▁ange	-12.2444
▁wacht	-12.2446
▁vive	-12.2448
helm	-12.2449
yeon	-12.2453
▁arden	-12.246
▁roller	-12.2462
nge	-12.2462
▁veran	-12.2465
▁reyna	-12.2465
▁kaun	-12.2467
queen	-12.2467
▁keren	-12.2467
densk	-12.2467
tv	-12.2473
▁hox	-12.2474
▁bulga	-12.2474
▁nero	-12.2475
▁regis	-12.2475
▁miko	-12.2476
▁hack	-12.2478
iko	-12.248
▁anneli	-12.2483
acin	-12.2489
▁praz	-12.2489
▁rouv	-12.2491
▁obo	-12.2498
▁marj	-12.2499
nuno	-12.2501
▁pul	-12.2502
cent	-12.2505
bom	-12.2508
▁yes	-12.2509
vour	-12.251
usse	-12.2511
strup	-12.2511
▁kola	-12.2513
▁vilmo	-12.2515
▁gees	-12.2516
els	-12.2518
▁gou	-12.252
▁yam	-12.252
▁kunze	-12.2522
▁conde	-12.2523
april	-12.2526
yard	-12.2527
etzel	-12.2528
▁coogan	-12.2529
▁phelps	-12.2529
▁degree	-12.2529
▁meteorolog	-12.2529
attenb	-12.2529
▁hubb	-12.2529
▁kristoffer	-12.2529
▁tarnow	-12.253
▁mattenhof	-12.253
oltz	-12.253
▁lauterbach	-12.2533
▁mcna	-12.2534
umn	-12.2538
nham	-12.2539
▁weisz	-12.254
▁pardo	-12.254
▁roach	-12.2542
▁spies	-12.2542
▁haig	-12.2542
morrow	-12.2545
▁apel	-12.2545
tein	-12.2546
▁yao	-12.2552
▁shiva	-12.2553
▁tatian	-12.2561
zard	-12.2562
▁dear	-12.2567
▁berta	-12.2569
bels	-12.2569
▁porsch	-12.2573
▁oliva	-12.2575
▁nine	-12.258
▁llos	-12.2584
▁tam	-12.2584
▁date	-12.2585
▁favre	-12.2585
▁madhu	-12.2585
▁witten	-12.2594
ppert	-12.2594
▁godf	-12.2595
▁baz	-12.2596
▁macedonian	-12.2596
▁affle	-12.2596
▁hutchin	-12.2596
▁godzilla	-12.2596
tel	-12.2597
coni	-12.2599
▁schlei	-12.2599
anova	-12.26
▁lipp	-12.2603
▁vik	-12.2604
▁search	-12.2604
od	-12.2605
▁flora	-12.2607
▁eggers	-12.2612
▁gruner	-12.2617
lute	-12.2619
▁most	-12.2621
argent	-12.2622
▁meret	-12.2622
hansa	-12.2623
▁donner	-12.2627
▁frankl	-12.2628
▁alexandrov	-12.2631
▁burrough	-12.2631
▁breu	-12.2631
▁baut	-12.2634
▁yusu	-12.2636
▁lugo	-12.2637
▁brink	-12.264
iennes	-12.2641
fire	-12.2644
▁criss	-12.2647
ieper	-12.2648
gup	-12.2649
lox	-12.2649
yim	-12.265
prun	-12.2651
▁chas	-12.2653
▁lorr	-12.2657
erle	-12.2657
▁laz	-12.2659
▁sel	-12.2659
▁lizz	-12.266
▁karim	-12.2661
▁martyn	-12.2662
▁gri	-12.2662
lai	-12.2664
▁loos	-12.267
immer	-12.2674
▁electora	-12.2674
liks	-12.2677
oke	-12.2677
ngen	-12.2678
▁rosie	-12.2681
▁assassin	-12.2682
iff	-12.2686
▁lise	-12.269
asser	-12.2693
hits	-12.2693
▁ludovic	-12.2694
▁tanzan	-12.2694
phine	-12.2697
▁cardena	-12.27
▁mihai	-12.2701
▁thay	-12.2702
amour	-12.2703
▁ec	-12.2705
10	-12.2706
▁horac	-12.2707
ecca	-12.2708
uttner	-12.2711
▁weld	-12.2711
▁fassb	-12.2717
hyse	-12.2719
ulus	-12.2721
ogno	-12.2721
▁sai	-12.2722
▁labyrinth	-12.2724
▁prokop	-12.2724
▁wellesley	-12.2725
▁lexicograph	-12.2725
▁timber	-12.2725
pascu	-12.2725
▁dupont	-12.2726
▁wirth	-12.2727
▁homburg	-12.2727
dolf	-12.2728
ubert	-12.2728
▁tira	-12.2728
gia	-12.2729
▁vallad	-12.2731
▁fowler	-12.2733
▁fom	-12.2733
▁brav	-12.2735
▁frankenstein	-12.2735
▁glushko	-12.2735
▁tikhonov	-12.274
unay	-12.274
shita	-12.2741
esser	-12.2741
▁zeit	-12.2741
▁barrow	-12.2742
▁kott	-12.2743
ivanov	-12.2743
▁poles	-12.2745
▁campos	-12.2745
ospel	-12.2747
▁antony	-12.2751
riple	-12.2752
▁elle	-12.2752
▁swin	-12.2752
ehr	-12.2752
▁kawas	-12.2753
rown	-12.2755
ister	-12.2758
▁fond	-12.2759
▁balc	-12.2759
▁moneta	-12.2764
▁nil	-12.2766
▁fon	-12.277
netti	-12.2771
▁naok	-12.2771
▁stam	-12.2777
▁bode	-12.2779
fner	-12.2779
▁mikhe	-12.2779
▁krasno	-12.278
ajit	-12.2781
wynd	-12.2782
avrov	-12.2782
▁allie	-12.2783
▁frag	-12.2784
shan	-12.2788
▁ignati	-12.2788
▁fro	-12.279
sie	-12.2791
▁lur	-12.2792
togo	-12.2793
▁rybak	-12.2793
eena	-12.2793
uth	-12.2795
▁guillot	-12.2796
▁dris	-12.28
▁bertil	-12.28
▁prado	-12.2803
ead	-12.2803
▁sims	-12.2805
▁mang	-12.2806
▁moran	-12.2809
▁lina	-12.281
sser	-12.2811
▁seidl	-12.2812
▁salmon	-12.2814
swati	-12.2815
▁maus	-12.2815
▁borys	-12.2818
hair	-12.2818
▁koster	-12.2819
evska	-12.2819
khin	-12.282
▁torsten	-12.2824
▁coc	-12.2824
▁rasch	-12.2827
▁canda	-12.2831
▁portal	-12.2833
▁dreyfus	-12.2833
bull	-12.2835
bastian	-12.2838
▁anke	-12.2839
lisch	-12.2841
birken	-12.2842
▁bee	-12.2842
ignot	-12.2845
rhode	-12.2847
▁santor	-12.2847
▁summers	-12.2848
▁vu	-12.285
▁wyler	-12.2852
▁goetz	-12.2854
▁sissa	-12.2854
▁biology	-12.2854
abil	-12.2855
iris	-12.2856
wetter	-12.2856
undi	-12.2857
▁kasda	-12.2857
▁zhukov	-12.2862
ried	-12.2864
mondo	-12.2869
▁menache	-12.2869
▁ayn	-12.2869
kens	-12.2874
metz	-12.2875
▁reiss	-12.2876
▁lass	-12.2877
▁stripe	-12.288
▁tomasz	-12.2882
esch	-12.2883
▁zane	-12.2886
▁krab	-12.2886
▁kash	-12.2888
▁dila	-12.2888
radz	-12.2889
▁nanni	-12.289
▁mitt	-12.2894
ripa	-12.29
verdi	-12.2901
▁naturalis	-12.2902
christ	-12.2903
▁judo	-12.2904
▁leu	-12.2907
▁ang	-12.2907
▁herse	-12.2909
▁arbe	-12.291
witsch	-12.2911
▁salo	-12.2912
bright	-12.2912
▁mingu	-12.2915
▁inside	-12.2916
▁lani	-12.2918
▁rai	-12.2918
terbur	-12.2918
▁mcke	-12.292
herta	-12.292
▁kempe	-12.292
cube	-12.2922
▁przemysl	-12.2923
▁bhim	-12.2923
▁drechs	-12.2923
elope	-12.2923
▁criminal	-12.2923
▁ultimat	-12.2923
▁thacker	-12.2924
▁dixie	-12.2924
▁carne	-12.2925
▁amalie	-12.2928
icus	-12.293
nny	-12.293
anqui	-12.2931
▁kayser	-12.2935
▁leit	-12.2935
qata	-12.2935
wicz	-12.2936
inkel	-12.2937
▁nee	-12.2937
▁capek	-12.2938
ayala	-12.2939
▁mcg	-12.294
▁henley	-12.294
river	-12.2941
▁azna	-12.2943
▁lazare	-12.2943
▁rowland	-12.2943
ania	-12.2946
▁yuan	-12.2947
▁mane	-12.2948
▁roza	-12.295
▁olympia	-12.2951
zhen	-12.2952
▁beny	-12.2952
▁corona	-12.2953
abo	-12.2955
bles	-12.2955
rowsk	-12.2956
bird	-12.2958
▁miya	-12.2961
▁carin	-12.2964
▁scherz	-12.2966
▁caitl	-12.2967
▁koko	-12.2969
gne	-12.2969
▁linne	-12.297
▁myer	-12.297
▁volkma	-12.2972
▁single	-12.2972
▁silber	-12.2972
allman	-12.2982
▁popper	-12.2983
▁hint	-12.2986
zar	-12.2988
▁ava	-12.2988
eisen	-12.299
▁fiorell	-12.2994
▁kul	-12.2996
▁natur	-12.2999
▁cruise	-12.3
▁simons	-12.3002
ukov	-12.3004
▁pants	-12.3005
▁kids	-12.3005
▁brugg	-12.3005
▁zeli	-12.3009
kees	-12.3012
▁kabu	-12.3013
▁quai	-12.3016
▁hege	-12.3018
opel	-12.3019
▁ferr	-12.302
▁malgo	-12.3031
▁weill	-12.3031
▁playbo	-12.3033
▁chiar	-12.3036
▁dau	-12.3039
▁sham	-12.3041
▁trip	-12.3042
▁sund	-12.3043
▁vill	-12.3043
▁rebel	-12.3043
▁torre	-12.3044
▁holm	-12.3045
jou	-12.3045
prieto	-12.3047
▁grund	-12.3047
uni	-12.3049
▁laure	-12.3052
onzo	-12.3052
▁lucky	-12.3053
▁giovann	-12.3053
▁mail	-12.3054
weissenbu	-12.3055
kevicius	-12.3056
▁aa	-12.3062
chun	-12.3062
▁seo	-12.3066
▁lasse	-12.3066
pollina	-12.3067
▁lega	-12.3068
▁wain	-12.3068
▁casal	-12.3068
daly	-12.307
▁joss	-12.3073
▁hayle	-12.3074
▁rum	-12.3074
brandenburg	-12.3077
▁malte	-12.3078
schneider	-12.3078
▁trott	-12.3079
rouge	-12.3081
▁labe	-12.3085
▁amer	-12.3086
▁gom	-12.3091
prague	-12.3092
▁find	-12.3092
neel	-12.3093
▁wilke	-12.3094
tate	-12.3099
uff	-12.3099
taut	-12.3102
grun	-12.3103
▁capell	-12.3105
▁adul	-12.3105
▁breton	-12.3108
▁og	-12.311
rot	-12.3111
▁goodwi	-12.3112
iques	-12.3112
▁invi	-12.3115
▁dac	-12.3116
▁constan	-12.3118
▁walz	-12.3119
life	-12.3119
ual	-12.3119
▁lines	-12.3125
▁acoustic	-12.3126
▁nesbit	-12.3126
▁donetsk	-12.3126
▁odysse	-12.3126
▁seychelle	-12.3126
▁sozial	-12.3126
▁bourgeois	-12.3126
scription	-12.3126
▁kirchenfeld	-12.3126
▁belov	-12.3127
▁protector	-12.3127
▁gautier	-12.3127
▁riedern	-12.3127
too	-12.3127
▁gebhard	-12.3128
▁pugachev	-12.3128
▁python	-12.3129
▁arrest	-12.3129
uhr	-12.3129
▁tata	-12.313
goldwyn	-12.313
▁stamp	-12.3131
▁knoll	-12.3133
reuth	-12.3133
▁aids	-12.3134
▁rae	-12.3135
▁elisa	-12.3135
▁fonse	-12.3138
villier	-12.3139
▁wieg	-12.3139
▁mic	-12.3141
pold	-12.3142
▁lvov	-12.3142
▁brann	-12.3143
▁zal	-12.3143
yat	-12.3145
▁jolie	-12.3146
▁ribi	-12.3146
▁ballo	-12.3146
▁block	-12.3147
▁bellow	-12.3148
▁hiller	-12.3148
▁helf	-12.3149
▁vian	-12.3149
▁arles	-12.3153
aga	-12.3155
yanov	-12.3156
▁thurg	-12.3156
▁cas	-12.3157
▁patron	-12.3158
▁bunt	-12.3159
▁gag	-12.3162
cemi	-12.3163
bai	-12.3163
▁kreis	-12.3165
▁navarro	-12.3166
▁steinberg	-12.3167
bow	-12.3168
▁guerin	-12.3168
▁gerber	-12.3168
lois	-12.3169
ozano	-12.3172
▁scand	-12.3172
▁animal	-12.3172
▁henkel	-12.3174
▁coco	-12.3174
tingen	-12.3174
verlag	-12.3175
trea	-12.3176
▁biber	-12.3176
code	-12.3176
coe	-12.3176
math	-12.3176
rine	-12.318
schner	-12.3181
urgen	-12.3181
sama	-12.3184
bhash	-12.3188
▁murat	-12.3194
▁kav	-12.3194
evan	-12.3196
▁rhod	-12.3197
▁hull	-12.32
bein	-12.3202
▁leif	-12.3204
rabal	-12.3204
▁jett	-12.3205
▁leut	-12.3207
▁sanger	-12.3208
▁tog	-12.3213
▁micro	-12.3213
▁kak	-12.3214
▁side	-12.3215
▁bentinck	-12.3216
ruber	-12.3216
▁schal	-12.3217
over	-12.3218
▁batll	-12.3219
▁sech	-12.3221
▁vai	-12.3222
▁kert	-12.3222
chek	-12.3224
▁brecht	-12.3225
▁dav	-12.3225
mind	-12.3227
ulka	-12.3228
urai	-12.3232
▁hund	-12.3233
▁milic	-12.3234
tova	-12.324
lack	-12.325
tyne	-12.3254
hui	-12.3255
jet	-12.3257
▁eul	-12.3257
▁blonde	-12.3258
▁fursten	-12.326
▁pf	-12.3263
▁blondel	-12.3269
ija	-12.327
▁dij	-12.327
▁bernt	-12.327
▁brandi	-12.327
goya	-12.3272
▁pesc	-12.3272
tten	-12.3274
▁brin	-12.3276
▁chart	-12.3276
▁maximo	-12.3277
onne	-12.328
hini	-12.3283
▁ferran	-12.3283
amp	-12.3283
▁janusz	-12.3285
▁bertol	-12.3286
▁mcgra	-12.3292
▁style	-12.3294
euil	-12.3296
▁tamm	-12.3296
uard	-12.3297
▁alphons	-12.3298
latera	-12.33
11	-12.3302
▁tetsu	-12.3303
▁jovanov	-12.3304
▁trap	-12.3306
▁cond	-12.3307
▁reck	-12.3308
▁medi	-12.3309
murai	-12.3311
wasser	-12.3312
▁mose	-12.3312
ards	-12.3313
▁eun	-12.3314
riol	-12.3317
victor	-12.3317
▁reese	-12.3317
▁mirabe	-12.3319
good	-12.3319
gui	-12.3322
▁tsar	-12.3322
▁sixt	-12.3325
▁hoyer	-12.3328
▁scient	-12.3328
▁jae	-12.3329
▁ladisla	-12.333
▁almo	-12.333
▁rubi	-12.3332
antonio	-12.3332
▁smurf	-12.3333
▁spartacus	-12.3333
▁phantom	-12.3333
▁dufresn	-12.3333
▁keldy	-12.3333
▁stafford	-12.3333
▁aitken	-12.3333
▁gambo	-12.3333
los	-12.3333
▁napier	-12.3334
▁ruslan	-12.3335
▁beaver	-12.3335
▁kort	-12.3335
▁dufour	-12.3335
▁janson	-12.3335
▁munro	-12.3336
▁arcadi	-12.3337
▁sergius	-12.3337
agno	-12.3338
igel	-12.3338
▁ebers	-12.3339
▁raine	-12.3339
▁kiefer	-12.3341
▁solana	-12.3342
gast	-12.3343
lawi	-12.3343
▁kopp	-12.3343
▁zoll	-12.3343
▁cortin	-12.3344
▁vat	-12.3345
anneke	-12.3345
sfeld	-12.3345
ifa	-12.3347
▁kho	-12.3353
▁boa	-12.3354
▁barrie	-12.3354
cutta	-12.3356
▁demetrio	-12.3358
lma	-12.3359
▁aze	-12.336
▁faiz	-12.3367
▁tsi	-12.3367
▁beig	-12.3369
▁gai	-12.3369
oin	-12.3373
clay	-12.3376
czew	-12.3376
▁stir	-12.3377
▁maldi	-12.3378
▁negr	-12.3378
▁yoon	-12.3382
hava	-12.3382
plin	-12.3384
▁peck	-12.3384
▁rosco	-12.3387
reprise	-12.3388
▁decker	-12.3389
▁bethle	-12.3389
▁rucker	-12.3396
auch	-12.3397
axton	-12.3398
▁junge	-12.3398
ein	-12.34
butte	-12.3401
▁gong	-12.3403
▁gans	-12.3406
guy	-12.3407
▁whi	-12.3408
▁swa	-12.3409
▁breath	-12.3411
▁hari	-12.3411
▁baran	-12.3415
toshi	-12.3417
▁scheff	-12.3419
ienne	-12.3421
▁gonc	-12.3422
▁rutherfor	-12.3422
▁garner	-12.3422
▁worn	-12.3423
▁slovene	-12.3429
▁goes	-12.343
anti	-12.3431
check	-12.3431
bek	-12.3431
▁gianna	-12.3433
▁swen	-12.3436
▁bai	-12.3437
▁handel	-12.3437
▁fac	-12.3446
utsk	-12.3451
▁schade	-12.3453
▁liberi	-12.3454
▁ponti	-12.3454
armid	-12.3456
▁alek	-12.3456
soo	-12.3458
▁door	-12.3461
▁veroni	-12.3464
ryk	-12.3466
schon	-12.3466
otkin	-12.3467
▁crus	-12.3467
▁hala	-12.3467
ruth	-12.3468
bier	-12.3469
▁balt	-12.347
jof	-12.3472
▁avant	-12.3473
▁hug	-12.3473
▁geig	-12.3473
▁antonell	-12.3473
▁wicker	-12.3474
▁amor	-12.3475
▁thirt	-12.3475
▁politi	-12.3476
▁hosn	-12.3479
gesch	-12.3479
pont	-12.348
inyan	-12.3482
polev	-12.3483
grange	-12.3487
umi	-12.3491
▁bey	-12.3493
▁novik	-12.3494
▁vito	-12.3496
throp	-12.3502
▁schwan	-12.3502
▁koc	-12.3505
▁holo	-12.3506
lentan	-12.3509
▁zdenk	-12.3509
aci	-12.351
▁kurz	-12.351
▁twic	-12.3511
▁cool	-12.3512
along	-12.3513
▁vor	-12.3513
▁bertin	-12.3514
arrell	-12.3517
▁ciara	-12.3518
▁brass	-12.3519
▁rabbi	-12.3519
enhau	-12.3519
▁martino	-12.3521
erica	-12.3522
veld	-12.3522
▁leonor	-12.3524
▁conso	-12.3525
▁aros	-12.3525
▁tau	-12.3526
▁kud	-12.3526
▁olden	-12.3527
▁tal	-12.3528
▁geri	-12.3528
myrd	-12.353
▁hewit	-12.3532
▁gat	-12.3532
place	-12.3533
▁kep	-12.3533
▁killing	-12.3535
chloe	-12.3537
nger	-12.3541
▁glaz	-12.3542
▁shneider	-12.3545
▁rosemary	-12.3545
▁agripp	-12.3545
▁gilmour	-12.3545
▁ehrlich	-12.3545
▁crook	-12.3545
▁heribert	-12.3545
▁commission	-12.3545
▁freund	-12.3545
▁haunt	-12.3545
▁niyaz	-12.3546
▁sigmar	-12.3547
orie	-12.3547
▁dohna	-12.3547
▁schloss	-12.3549
iang	-12.3549
▁schlum	-12.3549
▁blok	-12.3549
magne	-12.355
▁hwang	-12.355
torturer	-12.3551
▁xuan	-12.3552
▁meeting	-12.3553
▁hide	-12.3554
noel	-12.3556
▁robb	-12.3556
▁narayan	-12.3558
ighty	-12.356
schosshalde	-12.3561
▁lauter	-12.3562
▁cardo	-12.3564
▁yeo	-12.3567
pper	-12.3568
park	-12.3569
▁cotton	-12.3569
▁denning	-12.357
▁habib	-12.3571
▁shaff	-12.3573
▁nail	-12.3575
ekete	-12.3577
nesia	-12.3578
▁maass	-12.3579
keyne	-12.3579
▁guang	-12.358
▁lager	-12.358
sleben	-12.358
heid	-12.3581
▁michi	-12.3583
▁tuc	-12.3583
▁lloren	-12.3584
auska	-12.3585
▁baste	-12.3585
rance	-12.3586
rop	-12.3587
▁goog	-12.3587
▁traci	-12.3589
anovsky	-12.3591
▁charter	-12.3591
▁cryptograph	-12.3592
▁kuk	-12.3593
▁brest	-12.3594
▁kab	-12.3595
leben	-12.3596
▁sima	-12.3597
▁dare	-12.3597
▁nadj	-12.3598
▁dos	-12.3602
itsyn	-12.3604
csik	-12.3604
endar	-12.3606
▁zorn	-12.3606
▁mery	-12.3607
▁cherny	-12.3608
ingmar	-12.3608
▁monter	-12.3614
graw	-12.3615
andt	-12.3618
nette	-12.3618
▁alten	-12.3622
▁morisse	-12.3627
▁szeke	-12.3628
anca	-12.3631
▁akin	-12.3631
▁ching	-12.3632
bret	-12.3633
assis	-12.3635
▁arv	-12.3635
peg	-12.3636
leven	-12.3636
erber	-12.3638
▁nye	-12.3643
ili	-12.3643
ecm	-12.3644
brucke	-12.3646
▁branch	-12.3647
▁bohl	-12.3651
▁room	-12.3653
▁holl	-12.3653
▁mukh	-12.3654
▁bie	-12.3662
▁rigg	-12.3663
▁lune	-12.3664
▁carle	-12.3665
chy	-12.3666
▁naz	-12.3671
▁lieberman	-12.3674
▁bette	-12.3675
▁yoshihi	-12.3676
▁ingol	-12.3684
orno	-12.3685
▁mcf	-12.3686
naim	-12.3687
▁net	-12.3689
rem	-12.3689
▁sill	-12.3691
▁laut	-12.3695
▁ambrosi	-12.3695
▁brez	-12.3695
▁aren	-12.3697
▁maker	-12.3702
leith	-12.3703
▁wander	-12.3703
▁rond	-12.3705
▁thil	-12.3705
▁mano	-12.3707
▁vuk	-12.371
timor	-12.3713
uns	-12.3714
▁filipp	-12.3715
▁falken	-12.3717
▁honeck	-12.3721
hines	-12.3725
▁armi	-12.3725
▁pana	-12.3727
wal	-12.3728
▁bl	-12.3728
▁mess	-12.3728
▁hak	-12.3731
▁else	-12.3733
upac	-12.3737
▁taran	-12.3743
▁kisho	-12.3746
▁ayre	-12.3747
endorf	-12.3747
▁armag	-12.3748
▁toru	-12.3752
wine	-12.3753
ladimir	-12.3759
▁job	-12.3759
uder	-12.3759
▁bacteri	-12.376
▁kretschm	-12.3761
▁advocate	-12.3761
lbronn	-12.3761
▁ekkehard	-12.3761
▁sebald	-12.3761
▁frideric	-12.3761
▁prokhor	-12.3761
▁sudeten	-12.3761
▁chronicle	-12.3761
▁holloway	-12.3761
▁bercht	-12.3762
▁malakhov	-12.3762
▁osvald	-12.3763
▁develop	-12.3763
kirchhof	-12.3763
antas	-12.3764
▁renaud	-12.3764
▁ping	-12.3764
▁talma	-12.3765
▁wohlen	-12.3765
▁farah	-12.3765
▁genetic	-12.3766
▁staud	-12.3768
mbard	-12.3769
eppen	-12.3769
▁hutten	-12.3769
bol	-12.377
▁myung	-12.377
▁baez	-12.3771
▁ivins	-12.3773
▁haz	-12.3774
chett	-12.3775
▁tem	-12.3777
▁daughter	-12.378
arc	-12.378
arau	-12.3784
▁selig	-12.3784
▁bolt	-12.3785
▁jovi	-12.3785
▁reye	-12.3785
▁parod	-12.3786
▁frido	-12.3787
▁bati	-12.3789
hol	-12.3791
▁krop	-12.3791
▁natsu	-12.3793
loup	-12.3795
▁lindeman	-12.3796
▁rune	-12.3797
▁brunel	-12.3799
luj	-12.3799
▁castan	-12.38
ife	-12.3801
inck	-12.3801
▁savign	-12.3802
▁wrath	-12.3802
▁dayton	-12.3803
▁governor	-12.3803
▁merril	-12.3804
▁vom	-12.3808
▁rezn	-12.3811
▁cli	-12.3813
croft	-12.3816
ters	-12.3818
▁arro	-12.3818
▁donn	-12.3819
evit	-12.382
ophoni	-12.3822
dominique	-12.3823
▁seger	-12.3823
republican	-12.3824
▁corin	-12.3825
▁gavri	-12.3826
▁deby	-12.3826
▁dmitriy	-12.3829
▁hume	-12.3831
▁dari	-12.3833
▁mall	-12.3836
▁tiger	-12.3836
▁tym	-12.3837
dsworth	-12.3837
iegel	-12.3837
▁fabr	-12.3838
▁thiers	-12.3839
▁betten	-12.3839
gno	-12.3841
▁mosche	-12.3842
▁medel	-12.3842
tsuka	-12.3842
▁vasile	-12.3844
enza	-12.3845
▁veron	-12.3847
crae	-12.3847
lla	-12.3853
▁blei	-12.3857
elec	-12.3857
assing	-12.3858
italia	-12.3859
karta	-12.3861
▁argo	-12.3864
nimoy	-12.3865
▁dumb	-12.3869
▁mica	-12.3869
sner	-12.387
engler	-12.3873
inguet	-12.3874
buchs	-12.3876
guib	-12.3877
aujo	-12.3877
▁herte	-12.3878
ukhin	-12.3878
▁pich	-12.3881
lier	-12.3882
▁beauv	-12.3883
▁vinni	-12.3884
▁ehler	-12.3885
towic	-12.3885
▁vischer	-12.3886
▁krol	-12.3887
▁cade	-12.3888
blad	-12.3889
aender	-12.3894
▁ilyi	-12.3896
▁hech	-12.3897
▁kovaly	-12.3897
igg	-12.3899
▁fare	-12.3901
▁shishk	-12.3903
▁dele	-12.3904
▁mcdow	-12.3905
▁working	-12.3905
▁picker	-12.391
▁nada	-12.3911
▁stars	-12.3912
dina	-12.3912
interi	-12.3914
obi	-12.3916
▁croat	-12.3924
▁mortim	-12.3925
bal	-12.3927
▁dias	-12.3933
aiman	-12.3934
▁babes	-12.3936
▁kinse	-12.3939
▁jelen	-12.3943
▁ries	-12.3944
▁brill	-12.3947
▁hasen	-12.3948
chkin	-12.395
awer	-12.3953
omid	-12.3953
▁bred	-12.3953
▁valk	-12.3953
tress	-12.3955
▁schrey	-12.3958
▁chest	-12.3964
▁raab	-12.3965
vich	-12.3966
▁jew	-12.3967
▁licht	-12.3968
▁caval	-12.3968
▁athanasi	-12.3968
▁raz	-12.3973
olid	-12.3973
▁tatsu	-12.3975
▁bitter	-12.3977
▁vanu	-12.3979
▁tome	-12.3979
riya	-12.3981
issin	-12.3982
▁khrushch	-12.3982
newspaper	-12.3982
▁congregational	-12.3982
▁gloucester	-12.3982
▁paleontolog	-12.3982
▁hillebrand	-12.3982
▁agronom	-12.3982
▁effect	-12.3982
▁polon	-12.3982
▁helsing	-12.3982
▁zaleski	-12.3983
apocalyptic	-12.3984
steiner	-12.3984
ancho	-12.3984
▁feodor	-12.3984
▁mosle	-12.3984
▁fellini	-12.3986
▁placid	-12.3986
▁nob	-12.3987
▁kjell	-12.3988
▁antonov	-12.3989
▁superior	-12.399
▁snatch	-12.3992
▁bibl	-12.3993
▁rip	-12.3994
haka	-12.3995
▁titanic	-12.3995
▁monkey	-12.3995
ilian	-12.3996
▁zador	-12.3999
wart	-12.4
▁durand	-12.4001
▁markovic	-12.4003
▁khlo	-12.4006
▁haupt	-12.4009
tampa	-12.4011
▁hazl	-12.4013
▁kathe	-12.4013
▁eg	-12.4014
▁pavlov	-12.4017
▁kahan	-12.4017
▁milner	-12.4017
▁preuss	-12.4019
▁reimer	-12.402
▁lombardi	-12.402
▁vac	-12.4021
▁pache	-12.4025
▁ludovi	-12.4027
▁nevil	-12.403
▁stokes	-12.4031
▁kol	-12.4032
▁britta	-12.4032
ratt	-12.4034
▁hig	-12.4035
ju	-12.4035
lushi	-12.4036
apua	-12.4037
fuss	-12.4045
▁linn	-12.4046
▁loret	-12.4046
brick	-12.4049
▁martine	-12.4051
riet	-12.4052
valu	-12.4054
▁otta	-12.4055
▁schroed	-12.4056
male	-12.4056
halden	-12.4061
▁loon	-12.4062
icz	-12.4062
▁inva	-12.4064
▁bring	-12.4064
sevo	-12.4066
▁giu	-12.407
rham	-12.4071
▁rohan	-12.4073
▁sell	-12.4076
▁kus	-12.4078
▁cheri	-12.408
▁sz	-12.408
▁mandat	-12.4081
▁robot	-12.4082
star	-12.4083
▁bluh	-12.4084
ipp	-12.4084
▁tash	-12.4085
erma	-12.4086
▁altan	-12.4086
omis	-12.4089
▁saban	-12.4096
estrad	-12.41
ative	-12.41
dijk	-12.4106
▁krishna	-12.4109
straus	-12.411
reille	-12.4111
olf	-12.4112
nterre	-12.4117
▁kann	-12.412
▁parl	-12.4122
▁biz	-12.4125
mith	-12.4126
▁mega	-12.4126
▁misch	-12.4126
chain	-12.4126
pil	-12.413
crane	-12.4131
▁isma	-12.4131
▁zac	-12.4133
▁buz	-12.4133
▁lac	-12.4134
▁rado	-12.4136
▁abc	-12.4139
▁alp	-12.4144
▁kelli	-12.4147
▁yankov	-12.4148
▁schna	-12.4149
▁vs	-12.4154
▁zit	-12.4154
▁yehud	-12.4157
dashi	-12.4158
▁mitsu	-12.4158
▁kaji	-12.4159
▁marton	-12.4159
huys	-12.4162
▁huch	-12.4164
▁rosselli	-12.4165
▁bukhara	-12.4166
prah	-12.4169
omi	-12.4169
▁mao	-12.417
▁gamal	-12.417
member	-12.4173
▁sw	-12.4176
▁koichi	-12.4177
rzat	-12.4178
▁fight	-12.4184
▁olin	-12.4188
randt	-12.4189
tre	-12.419
oft	-12.4193
▁panic	-12.4195
▁birgitt	-12.4196
▁marit	-12.4197
turro	-12.4199
aragon	-12.4199
▁faur	-12.4199
senger	-12.4199
▁publi	-12.42
▁herm	-12.4203
▁agra	-12.4203
▁bianco	-12.4206
▁gasco	-12.4206
▁zsuzsa	-12.4208
▁extrem	-12.4208
▁bartholom	-12.4208
▁dumitr	-12.4208
▁solange	-12.4208
▁tsuji	-12.4208
oust	-12.4208
▁coimb	-12.4208
▁clover	-12.4208
▁mubar	-12.4209
▁soderberg	-12.421
rfur	-12.4211
▁hirschfeld	-12.4212
▁ledger	-12.4212
▁gud	-12.4212
▁sioux	-12.4212
▁race	-12.4212
▁ocho	-12.4213
sk	-12.4213
edwig	-12.4214
▁gui	-12.4214
▁pah	-12.4215
▁hoso	-12.4215
▁tarzan	-12.4215
▁titan	-12.4217
▁garrigue	-12.4218
▁blackett	-12.4218
corn	-12.4219
▁silesian	-12.4219
▁leighton	-12.4219
▁durren	-12.4219
linski	-12.4226
enau	-12.4226
▁jai	-12.4229
esterh	-12.4231
▁right	-12.4231
▁tide	-12.4231
▁rhian	-12.4233
▁boehm	-12.4234
▁salam	-12.4234
▁wassil	-12.4236
had	-12.4236
ihl	-12.4237
▁muniz	-12.4238
▁bardo	-12.4239
rikh	-12.4241
▁duan	-12.4244
zak	-12.4244
▁asta	-12.4248
▁walters	-12.4248
▁grube	-12.4248
fors	-12.4252
▁kappel	-12.4254
▁viterb	-12.4255
▁zofi	-12.4258
▁burnett	-12.4258
arento	-12.4259
▁riza	-12.426
▁bord	-12.426
▁schmol	-12.4264
▁pipp	-12.4265
gius	-12.4265
say	-12.4265
▁pepi	-12.4265
▁nort	-12.4266
zheim	-12.4268
legg	-12.4268
▁naftali	-12.4268
uli	-12.4269
sandro	-12.4269
aumburg	-12.427
▁knock	-12.427
szeg	-12.4277
liano	-12.4278
▁lebow	-12.4279
cic	-12.4279
▁vander	-12.428
▁afro	-12.4281
▁raza	-12.4281
irk	-12.4285
▁kirsch	-12.4287
singer	-12.4287
▁fasc	-12.4288
vis	-12.4289
▁cloo	-12.4291
▁felici	-12.4296
garde	-12.4296
▁octavi	-12.4297
▁garrel	-12.4297
▁stur	-12.4301
▁moltk	-12.4301
▁huet	-12.4304
▁rath	-12.4304
▁eber	-12.4307
wieck	-12.4313
elho	-12.4315
▁janne	-12.4317
▁pinker	-12.4318
▁renne	-12.432
▁lon	-12.4322
▁weiner	-12.4325
▁pons	-12.4326
▁hanau	-12.4326
▁faustin	-12.4327
▁pereir	-12.433
▁ochs	-12.4331
niro	-12.4332
▁bono	-12.4335
▁debb	-12.4335
ice	-12.4339
gore	-12.4339
▁gin	-12.4344
enius	-12.4349
▁koech	-12.4349
▁shino	-12.4349
isaia	-12.435
stre	-12.435
▁lammer	-12.4353
▁self	-12.4353
▁clem	-12.4357
pso	-12.4359
▁dura	-12.436
eiser	-12.4364
▁lonn	-12.4367
▁pon	-12.437
battist	-12.437
pala	-12.4371
▁soli	-12.4372
▁schw	-12.4372
▁cree	-12.4374
▁maslov	-12.4374
▁bergam	-12.4374
ehud	-12.4377
▁mehr	-12.4377
▁magi	-12.4381
▁yank	-12.4383
▁clari	-12.4384
albert	-12.4394
▁tin	-12.4396
▁nih	-12.4397
ombre	-12.4397
▁sense	-12.4399
▁chico	-12.4399
wo	-12.4399
▁curti	-12.4402
hore	-12.4402
lotte	-12.4402
lavi	-12.4406
kian	-12.4408
▁alexa	-12.4408
▁jod	-12.441
wett	-12.441
▁janko	-12.441
▁farr	-12.441
▁kren	-12.441
▁lore	-12.4411
cote	-12.4412
▁happ	-12.4413
▁diez	-12.4413
▁glori	-12.4416
demir	-12.4417
▁maar	-12.442
▁nuri	-12.442
▁grish	-12.4422
▁barbu	-12.4423
▁brend	-12.4426
ckler	-12.4428
▁fazi	-12.4429
▁paus	-12.4429
▁sus	-12.4432
▁mya	-12.4432
▁liebe	-12.4435
iti	-12.4438
▁mitscherlich	-12.4439
▁neighbor	-12.4439
▁bogoslovsk	-12.4439
▁ulbrich	-12.4439
▁earle	-12.4439
▁auschwitz	-12.4439
▁fdp	-12.4439
▁clancy	-12.444
▁fairbank	-12.444
▁schnur	-12.4441
lomono	-12.4441
▁ficht	-12.4442
▁nejedl	-12.4442
baba	-12.4442
▁tigr	-12.4443
▁maclean	-12.4443
▁strobel	-12.4443
▁material	-12.4443
landers	-12.4443
▁kwa	-12.4444
▁sigurd	-12.4444
▁predator	-12.4445
oyama	-12.4445
▁oberdorf	-12.4445
▁schreck	-12.4446
thyn	-12.4446
▁proje	-12.4447
▁fournier	-12.4447
dori	-12.4448
001	-12.4448
▁mehdi	-12.4449
anga	-12.445
▁ehm	-12.4451
▁azerbaijani	-12.4452
▁trin	-12.4453
▁howell	-12.4454
cchi	-12.4454
inha	-12.4455
▁egan	-12.4459
atso	-12.4459
▁koss	-12.446
▁saarland	-12.4461
▁valeriu	-12.4462
artli	-12.4463
▁sabato	-12.4463
tanzani	-12.4463
▁hook	-12.4466
▁heyde	-12.4467
tting	-12.4467
▁tcha	-12.4468
aster	-12.447
▁kampf	-12.4472
▁rodion	-12.4474
▁rickenbach	-12.4476
▁vakh	-12.4478
melodic	-12.4478
▁mett	-12.4479
▁hit	-12.4479
▁rankin	-12.4481
▁mend	-12.4483
▁arbore	-12.4484
▁esper	-12.4485
▁torri	-12.4485
▁ditt	-12.4486
▁semi	-12.4486
▁dir	-12.4489
amy	-12.4491
▁dezs	-12.4494
▁keir	-12.4494
onnet	-12.4496
▁flat	-12.4496
▁remi	-12.4497
▁gallu	-12.4498
▁zub	-12.4498
▁sym	-12.4498
chaux	-12.4499
mand	-12.4499
chnow	-12.45
▁lita	-12.4503
wei	-12.4507
▁schaub	-12.451
▁lobe	-12.4513
▁naga	-12.4514
▁cann	-12.4515
▁cosb	-12.4515
▁guille	-12.4517
▁cosm	-12.4518
▁plane	-12.4523
tory	-12.4524
bus	-12.4524
▁hirs	-12.4525
ffy	-12.4525
▁eller	-12.4528
▁noll	-12.4529
▁capo	-12.4532
▁ulf	-12.4532
▁anno	-12.4534
▁tilli	-12.4535
▁riehl	-12.4535
▁toot	-12.4537
▁artes	-12.4537
mard	-12.4538
▁camo	-12.4538
ikko	-12.4539
▁miecz	-12.4539
▁hye	-12.454
chief	-12.4541
▁cortes	-12.4542
▁lindo	-12.4542
ushevsk	-12.4544
▁asen	-12.4546
ambien	-12.4554
▁grams	-12.4554
▁kamen	-12.456
▁qian	-12.4563
▁jada	-12.4564
eye	-12.4566
▁paso	-12.4567
▁muj	-12.4567
azs	-12.4568
▁witch	-12.4569
▁newcomb	-12.4572
▁fant	-12.4574
mil	-12.4576
▁micros	-12.4576
▁myst	-12.4579
rickman	-12.4581
▁bessi	-12.4584
▁num	-12.4585
▁beut	-12.4586
ific	-12.4587
▁schuck	-12.4588
avoy	-12.4589
▁boden	-12.459
▁suns	-12.459
▁plain	-12.459
▁killa	-12.4592
▁kreu	-12.4593
▁cun	-12.4596
▁assis	-12.4598
hammer	-12.4598
zewsk	-12.4599
▁farg	-12.4601
deschi	-12.4603
▁ras	-12.4603
▁krus	-12.4604
▁gaida	-12.4606
▁jov	-12.461
▁kuri	-12.4611
▁wentz	-12.4612
▁frel	-12.4617
▁hennes	-12.4618
isner	-12.4619
▁kamp	-12.4621
▁nante	-12.4624
annibal	-12.4624
lisa	-12.4627
ilhelm	-12.4629
▁nol	-12.463
▁cultur	-12.4631
▁drei	-12.4638
▁shot	-12.4641
cauc	-12.4642
▁donne	-12.4643
▁matz	-12.4646
eller	-12.4647
▁vayn	-12.4648
▁sae	-12.4651
▁rinald	-12.4652
▁gode	-12.4653
ghi	-12.4657
baker	-12.4658
rendorf	-12.4659
▁odon	-12.466
▁mase	-12.4663
▁bandar	-12.4666
▁stre	-12.4667
pola	-12.4667
▁ans	-12.4668
▁kroe	-12.4671
szcz	-12.4675
elon	-12.4675
agliari	-12.4676
▁alvensleben	-12.4676
▁innokent	-12.4676
▁bethesda	-12.4676
▁plunkett	-12.4676
▁romuald	-12.4676
▁mineralog	-12.4676
▁gracie	-12.4676
▁strutt	-12.4676
▁krafft	-12.4676
▁gan	-12.4676
azanov	-12.4676
▁rorschach	-12.4676
▁nasir	-12.468
are	-12.468
▁zulfi	-12.4681
▁fahren	-12.4682
▁nid	-12.4684
▁fresno	-12.4685
comb	-12.4686
haru	-12.4686
▁groth	-12.4686
▁kesten	-12.4688
apoca	-12.4688
▁latifa	-12.469
▁pio	-12.4691
▁vier	-12.4693
▁lude	-12.4694
abrol	-12.4695
jarvi	-12.4696
insberg	-12.4696
▁lagarde	-12.4696
vall	-12.4697
▁kandi	-12.4699
ilja	-12.4701
▁monce	-12.4701
▁comment	-12.4702
▁fisk	-12.4702
▁mendi	-12.4703
lutsk	-12.4703
▁gerhar	-12.4706
▁comp	-12.4706
▁peder	-12.4707
opol	-12.4708
roze	-12.4709
▁chanson	-12.4709
enstock	-12.4711
▁burge	-12.4716
▁roderic	-12.4716
▁environmentalis	-12.4717
uyu	-12.4717
▁maha	-12.4722
▁clot	-12.4725
▁joris	-12.4725
▁crusade	-12.4727
▁trev	-12.4729
▁michelin	-12.473
▁kruse	-12.473
▁magnu	-12.4731
▁hyp	-12.4731
▁scors	-12.4733
▁none	-12.4733
▁glei	-12.4733
▁plato	-12.4733
asia	-12.4733
maki	-12.4734
thaus	-12.4737
▁vinc	-12.474
fts	-12.4742
▁agric	-12.4743
▁mck	-12.4744
pinter	-12.4747
nilla	-12.4748
▁rat	-12.4748
lynn	-12.4749
racht	-12.4749
▁arias	-12.4752
atari	-12.4753
▁vaj	-12.4753
▁galicia	-12.4758
▁corre	-12.4758
▁went	-12.476
▁emmett	-12.4764
rensse	-12.4764
▁liza	-12.4765
▁josi	-12.4765
▁damme	-12.4766
▁hunz	-12.4768
▁bacch	-12.4768
▁brau	-12.4773
bjorn	-12.4774
gasca	-12.4775
▁renner	-12.4776
laise	-12.4776
ames	-12.4776
holt	-12.4778
▁siem	-12.4778
▁keys	-12.4781
▁bala	-12.4784
▁vag	-12.4785
▁scoo	-12.4787
▁cse	-12.4787
rai	-12.4787
jus	-12.4788
acon	-12.479
dwyn	-12.4791
▁dary	-12.4792
▁brut	-12.4792
▁bianc	-12.4794
▁nevi	-12.4796
linde	-12.4797
▁internationale	-12.4797
▁seller	-12.4797
wirth	-12.4798
necker	-12.48
oyev	-12.4801
▁vasa	-12.4801
▁peders	-12.4802
▁slayer	-12.4803
▁barbud	-12.4805
agua	-12.4806
▁hort	-12.4808
▁amalri	-12.4809
▁sul	-12.481
▁augusta	-12.481
ifred	-12.4814
▁stigl	-12.4815
oui	-12.4817
ize	-12.482
▁tauber	-12.482
fa	-12.4822
▁valla	-12.4823
▁aguil	-12.4823
oniki	-12.4825
▁rover	-12.4827
▁wac	-12.4828
mohand	-12.4828
▁bross	-12.4829
▁mcint	-12.4832
▁broder	-12.4833
▁alig	-12.4836
estre	-12.4837
▁efro	-12.484
▁reitz	-12.4844
▁polk	-12.4844
▁schick	-12.4845
nch	-12.4846
wern	-12.4846
▁orlov	-12.4856
▁fromm	-12.4856
zoller	-12.4856
▁alfie	-12.4857
▁monni	-12.4859
▁danil	-12.4862
▁hass	-12.4868
▁gemm	-12.4869
▁gorbach	-12.4871
▁gaj	-12.4873
rohr	-12.4874
▁dorri	-12.4875
▁vico	-12.4875
▁simm	-12.4877
▁jerma	-12.4877
▁mais	-12.4878
▁stamm	-12.4879
nica	-12.488
▁rugg	-12.488
▁reinhar	-12.4883
▁bren	-12.4889
▁bea	-12.489
gand	-12.4895
▁amate	-12.4895
paine	-12.49
farm	-12.49
▁hegel	-12.4901
weir	-12.4904
▁sato	-12.4904
unice	-12.4905
assia	-12.4905
assic	-12.4907
▁makh	-12.4908
yola	-12.491
▁ear	-12.4912
eggen	-12.4912
front	-12.4913
gustave	-12.4913
taph	-12.4913
▁raid	-12.4914
ayashi	-12.4914
▁violen	-12.4914
facto	-12.4915
▁lanca	-12.4915
▁dzerzhinsk	-12.4918
▁saavedra	-12.4918
▁zdzislaw	-12.4918
▁korotayev	-12.4918
▁reutlingen	-12.4918
▁scorpio	-12.4918
▁skrip	-12.4918
▁shuttle	-12.4918
▁riedbach	-12.4919
▁carmel	-12.4919
▁aharon	-12.4919
▁shams	-12.4919
▁miyaza	-12.4919
▁daylight	-12.492
▁frontier	-12.492
▁pfitz	-12.492
▁infant	-12.4921
▁prinz	-12.4922
tkamer	-12.4922
▁sonnenfeld	-12.4922
▁pleas	-12.4923
▁bieber	-12.4923
▁height	-12.4924
▁els	-12.4925
▁bogdan	-12.4925
▁bucket	-12.4927
▁una	-12.4927
tav	-12.4929
mpress	-12.4929
▁skull	-12.4929
▁komarov	-12.4929
▁loeb	-12.493
erkind	-12.493
▁parf	-12.493
▁clees	-12.4931
rauch	-12.4931
esslingen	-12.4931
▁candida	-12.4931
▁fryd	-12.4932
▁rathen	-12.4932
▁benav	-12.4932
alde	-12.4933
▁abi	-12.4933
igi	-12.4933
muhl	-12.4934
street	-12.4936
storf	-12.4936
▁nemec	-12.4937
rov	-12.4937
yong	-12.4938
▁crazy	-12.4941
▁lone	-12.4941
▁surfer	-12.4941
▁olmo	-12.4942
kaite	-12.4942
▁loa	-12.4942
▁bernadett	-12.4944
▁micha	-12.4945
▁renan	-12.4945
▁ribb	-12.4946
nspira	-12.4946
▁heyden	-12.4947
▁meet	-12.4947
▁nena	-12.4948
▁students	-12.495
rone	-12.495
buhl	-12.4954
seong	-12.4955
▁pitch	-12.4957
▁fricke	-12.4957
▁lachman	-12.4959
▁begin	-12.4959
▁licen	-12.4959
cyr	-12.4959
trait	-12.496
skaia	-12.4961
kja	-12.4962
rera	-12.4962
brenn	-12.4963
monov	-12.4964
▁morell	-12.4969
▁qua	-12.497
▁joli	-12.497
▁secu	-12.497
▁khalid	-12.497
▁modi	-12.497
evi	-12.4971
▁giese	-12.4972
▁darby	-12.4973
▁pant	-12.4975
llo	-12.4975
▁rodolph	-12.4976
▁sanct	-12.4976
▁hauptman	-12.4979
tlev	-12.498
▁mansur	-12.4981
reiber	-12.4981
▁degen	-12.4982
▁vr	-12.4982
▁gorge	-12.4985
▁rosh	-12.4987
▁rogg	-12.4988
▁going	-12.4992
▁frieda	-12.4994
raker	-12.4994
▁jawa	-12.4994
▁ramp	-12.4996
▁frolov	-12.4999
▁sten	-12.5002
kate	-12.5002
▁chord	-12.5003
▁vad	-12.5003
plana	-12.5005
▁aix	-12.5005
▁barge	-12.5005
▁karr	-12.5009
▁isidore	-12.5011
▁mckell	-12.5011
▁shige	-12.5013
egel	-12.5015
▁mathis	-12.5017
zhan	-12.5023
elvet	-12.5023
▁noto	-12.5028
ordin	-12.5029
duke	-12.503
irma	-12.503
▁rox	-12.5032
elev	-12.5038
▁malik	-12.5039
▁plann	-12.5043
▁shak	-12.5043
▁kaor	-12.5043
eisenberg	-12.5045
▁krum	-12.5046
llor	-12.5048
▁rohm	-12.5051
boud	-12.5053
▁hoppe	-12.5054
beth	-12.5054
okai	-12.5054
▁vienne	-12.5057
▁whale	-12.5059
▁lotf	-12.506
ovkin	-12.506
▁gipp	-12.5061
▁sent	-12.5061
dimitrio	-12.5062
▁balk	-12.5067
ohan	-12.5069
uriz	-12.5069
▁mui	-12.507
▁kemen	-12.5071
▁malag	-12.5071
▁kick	-12.5072
▁chet	-12.5079
▁giesl	-12.5079
▁dillinge	-12.5083
▁bodi	-12.5083
boy	-12.5084
▁voor	-12.5086
▁moretti	-12.5087
hand	-12.5092
▁mcgo	-12.5093
ewers	-12.5094
▁silk	-12.5095
azzo	-12.5095
▁bese	-12.5096
hanks	-12.5097
abate	-12.5099
terberg	-12.5101
▁zil	-12.5105
▁greni	-12.5105
▁napoli	-12.5105
▁sharpe	-12.5106
▁cuvi	-12.5107
hwan	-12.5111
▁toya	-12.5111
▁gangs	-12.5111
leod	-12.5112
down	-12.5118
▁dogs	-12.512
ullo	-12.5121
▁fruit	-12.5124
▁avic	-12.5126
lene	-12.5127
cova	-12.5128
▁akos	-12.5129
▁braga	-12.513
▁bland	-12.5131
ellier	-12.5133
▁baraka	-12.5138
ansha	-12.5141
hoe	-12.5141
▁boze	-12.5142
▁foss	-12.5144
gler	-12.5145
▁bashir	-12.5146
idis	-12.515
▁hutt	-12.5152
▁serena	-12.5152
▁zakhar	-12.5156
tgen	-12.5157
egas	-12.5159
aeronauti	-12.5164
▁balan	-12.5165
▁piro	-12.5166
▁koh	-12.5167
▁submarine	-12.5167
▁vorobyov	-12.5167
▁fairfax	-12.5167
▁nemeth	-12.5167
▁ariadn	-12.5167
▁gifford	-12.5167
▁holligen	-12.5167
▁whistl	-12.5167
▁hoover	-12.5168
▁straub	-12.5168
▁stoyanov	-12.5168
▁amazon	-12.5168
▁hollow	-12.5168
▁buckingham	-12.5168
▁gianlu	-12.5169
▁gentle	-12.5171
▁navi	-12.5172
auden	-12.5172
▁naha	-12.5172
▁wahr	-12.5174
▁szep	-12.5175
taka	-12.5175
karev	-12.5176
▁maslow	-12.5176
▁nevada	-12.5176
▁maestr	-12.5177
▁schatz	-12.5178
campo	-12.5179
anov	-12.5179
▁tuscan	-12.518
tlef	-12.5181
onneau	-12.5181
▁fresh	-12.5182
▁akse	-12.5182
▁althus	-12.5182
▁cannav	-12.5182
▁hunger	-12.5184
▁emmen	-12.5185
▁dalla	-12.5187
▁fuld	-12.5188
▁hebe	-12.5189
amalia	-12.519
▁heartbreak	-12.519
ech	-12.5191
▁klima	-12.5194
clerk	-12.5194
wertheim	-12.5194
otard	-12.5197
▁matus	-12.5197
▁krohn	-12.5197
bey	-12.5198
joon	-12.5198
westphal	-12.5201
▁caill	-12.5202
▁hunting	-12.5203
▁stolz	-12.5203
hrad	-12.5203
▁bouy	-12.5204
▁quest	-12.5205
▁brey	-12.5205
alexandre	-12.5206
▁lehn	-12.5206
▁hsu	-12.5207
▁allende	-12.5207
etienne	-12.5208
woman	-12.5211
enger	-12.5215
▁tich	-12.5215
lanta	-12.5215
nack	-12.5219
fuente	-12.522
▁guo	-12.522
▁holz	-12.5221
▁pasqual	-12.5222
▁chil	-12.5223
guardia	-12.5224
▁emir	-12.523
▁cei	-12.523
▁crud	-12.5231
▁zak	-12.5233
▁kulis	-12.5233
▁caro	-12.5234
▁cove	-12.5234
▁koen	-12.5238
fosse	-12.5238
▁lansin	-12.524
▁garve	-12.5242
uz	-12.5243
imski	-12.5244
rizzi	-12.5245
sel	-12.5249
igner	-12.525
▁wilhelmine	-12.525
▁mercad	-12.5251
▁cosim	-12.5251
▁vest	-12.5252
▁diari	-12.5253
▁giraud	-12.5254
▁betanc	-12.5255
very	-12.5257
ild	-12.5258
▁niki	-12.5258
ubitsch	-12.5259
zumi	-12.526
▁massa	-12.5265
▁merl	-12.5266
erp	-12.5267
▁cub	-12.5268
▁henne	-12.5269
▁paloma	-12.5271
sius	-12.5272
kada	-12.5272
inelli	-12.5276
binski	-12.5279
▁vlada	-12.5284
▁note	-12.5285
breu	-12.5285
▁gardin	-12.5286
sfelde	-12.5287
▁weissen	-12.5289
gers	-12.5294
tom	-12.5295
▁timm	-12.5295
▁werth	-12.5296
▁abba	-12.5297
▁elg	-12.5298
▁daz	-12.5298
▁keri	-12.5298
ars	-12.53
lsworth	-12.53
rilli	-12.5301
▁florent	-12.5301
▁belya	-12.5305
bling	-12.5305
genthal	-12.5306
▁campin	-12.5307
▁monge	-12.5309
penti	-12.531
raper	-12.531
▁corne	-12.5311
brok	-12.5313
▁schwe	-12.5317
▁lesch	-12.5318
▁edme	-12.5318
urdy	-12.5319
nneberg	-12.5319
▁dada	-12.532
▁labou	-12.5321
▁hano	-12.5323
▁cork	-12.5323
▁lene	-12.5323
▁wra	-12.5323
▁baude	-12.5324
peron	-12.5326
agon	-12.5326
tchev	-12.5327
dham	-12.5329
▁hohl	-12.5329
▁voig	-12.5329
▁lidd	-12.533
▁grone	-12.5331
▁gori	-12.5331
▁italia	-12.5334
▁goer	-12.534
▁dani	-12.5342
einfelden	-12.5344
▁colon	-12.5347
▁lons	-12.5349
▁sobi	-12.535
▁chorz	-12.5353
▁ruff	-12.5354
liya	-12.5356
▁chat	-12.5357
▁redd	-12.5357
yrie	-12.5361
▁eger	-12.5362
cci	-12.5362
haim	-12.5365
none	-12.5368
gier	-12.5368
ntry	-12.5369
▁mirk	-12.5369
▁riv	-12.5372
joki	-12.5372
ascon	-12.5373
▁latter	-12.5373
▁lah	-12.5373
▁kh	-12.5375
▁rami	-12.5376
cev	-12.5378
▁bohle	-12.5379
▁wust	-12.5379
elina	-12.5379
▁romer	-12.538
riot	-12.538
euf	-12.5385
ttigen	-12.5387
▁anand	-12.5387
isse	-12.5388
bell	-12.5388
saill	-12.539
lidia	-12.5392
lague	-12.5392
▁nakh	-12.5393
iate	-12.5393
▁princip	-12.5393
▁wyl	-12.5393
▁hach	-12.5395
▁karas	-12.5396
▁dany	-12.5397
▁chandra	-12.5399
▁yui	-12.54
pach	-12.5402
cker	-12.5402
▁kart	-12.5403
▁bein	-12.5403
hazar	-12.5404
seps	-12.5407
shank	-12.5407
▁klime	-12.5412
ffer	-12.5413
▁volk	-12.5414
kuno	-12.5414
▁schus	-12.5415
▁lohman	-12.5418
cfarlan	-12.5419
▁metcalf	-12.5421
▁punjab	-12.5421
▁goncharov	-12.5421
▁myasnikov	-12.5422
▁estefan	-12.5422
▁demidov	-12.5422
▁anoush	-12.5422
▁moldavia	-12.5422
▁spivak	-12.5422
▁witness	-12.5422
▁kloster	-12.5423
▁yasmin	-12.5423
▁palacio	-12.5423
▁bourdon	-12.5423
▁fleck	-12.5423
▁octo	-12.5425
▁geis	-12.5425
▁kahr	-12.5425
spoon	-12.5426
▁topf	-12.5426
▁thyn	-12.5427
▁bruck	-12.5427
▁wittig	-12.5427
▁dreams	-12.5427
ppo	-12.5428
storck	-12.5428
▁kaas	-12.5428
ushko	-12.543
tribu	-12.543
▁vitali	-12.5432
▁dierk	-12.5432
▁brodie	-12.5433
▁corpu	-12.5433
▁rong	-12.5434
▁balagu	-12.5434
▁rhode	-12.5435
▁heuss	-12.5436
casse	-12.5436
▁fontan	-12.5437
▁topol	-12.544
tannen	-12.5441
vay	-12.5441
elnikov	-12.5442
▁grosse	-12.5443
fellow	-12.5444
▁quinto	-12.5446
▁zahi	-12.5448
▁capa	-12.5449
▁crom	-12.5452
▁sire	-12.5453
▁boss	-12.5453
▁rounder	-12.5453
alk	-12.5454
▁gets	-12.5454
▁pinet	-12.5455
omaha	-12.5456
grass	-12.5457
hemar	-12.5458
▁lavin	-12.5458
▁laf	-12.5458
symon	-12.5459
eaves	-12.546
▁teiss	-12.5463
▁prox	-12.5464
raux	-12.5465
▁barres	-12.5466
kofi	-12.5466
aida	-12.5467
▁brow	-12.547
cival	-12.547
▁pinoc	-12.5471
▁satan	-12.5472
▁slavic	-12.5472
kyrko	-12.5472
▁barbo	-12.5473
ynov	-12.5477
xia	-12.5478
▁luisa	-12.5478
▁clou	-12.5478
lemper	-12.5481
track	-12.5482
▁ludwigsh	-12.5482
▁berez	-12.5483
▁franca	-12.5487
ardot	-12.5488
▁cala	-12.5488
avant	-12.5489
▁meni	-12.5493
▁margrav	-12.5493
▁leonida	-12.5495
nheim	-12.5496
adhya	-12.5498
▁wilbur	-12.55
▁alton	-12.55
ento	-12.55
▁espino	-12.5501
hossein	-12.5501
tok	-12.5505
gordon	-12.5507
▁hendricks	-12.5509
rud	-12.5509
baby	-12.5509
▁sarn	-12.551
ostak	-12.551
uster	-12.5511
yuko	-12.5514
▁clyde	-12.5514
lanz	-12.5515
▁evert	-12.5516
▁herrn	-12.5516
▁adamo	-12.5516
acha	-12.5516
tsumi	-12.5519
▁kolesnik	-12.5521
zeki	-12.5522
cox	-12.5523
▁madd	-12.5524
urdu	-12.5529
beau	-12.5531
hei	-12.5532
▁nipp	-12.5533
eiden	-12.5534
▁kule	-12.5534
stat	-12.5535
▁schan	-12.5535
▁meer	-12.5538
▁weller	-12.5543
celle	-12.5544
▁nai	-12.5546
▁raw	-12.5547
eber	-12.5548
eilen	-12.5549
▁afanasy	-12.5553
▁basch	-12.5554
ilo	-12.5555
rds	-12.5557
akovsk	-12.5557
▁prok	-12.5558
pf	-12.5559
▁shore	-12.556
▁karp	-12.5564
erding	-12.5565
▁thiel	-12.5566
▁slask	-12.5567
ange	-12.5569
▁gup	-12.5571
quen	-12.5574
msworth	-12.5574
▁rech	-12.5575
buro	-12.5575
mayor	-12.5579
▁trem	-12.5579
▁hat	-12.5581
▁krasin	-12.5583
▁hamad	-12.5584
▁liviu	-12.5586
▁marten	-12.5587
palm	-12.5589
▁mura	-12.5591
▁parris	-12.5591
ziere	-12.5592
▁cra	-12.5593
▁belp	-12.5596
▁pac	-12.5599
▁tren	-12.5601
avada	-12.5601
▁musso	-12.5605
▁casi	-12.5606
lle	-12.5607
▁schiffer	-12.5609
aur	-12.561
razzi	-12.5611
▁shih	-12.5611
manolo	-12.5616
▁kru	-12.5617
lsky	-12.5617
emming	-12.5618
▁hutch	-12.562
gaz	-12.562
toum	-12.5622
▁beren	-12.5628
finkel	-12.563
skind	-12.563
▁mclag	-12.5634
▁momoi	-12.5635
▁dod	-12.5635
▁thi	-12.5636
▁nao	-12.5638
lani	-12.5639
arafa	-12.5639
travin	-12.564
▁farb	-12.5641
reign	-12.5642
iev	-12.5643
▁gruen	-12.5643
▁seam	-12.5646
▁kour	-12.5646
▁nuy	-12.565
▁ahn	-12.5651
▁ugl	-12.5652
▁rih	-12.5652
▁maty	-12.5653
▁lightnin	-12.5654
▁capu	-12.5655
▁seung	-12.5656
▁vela	-12.5658
nev	-12.5658
▁schall	-12.5659
hulk	-12.5659
▁quarte	-12.5661
▁ohls	-12.5664
rogov	-12.5668
vital	-12.5669
▁bykov	-12.5669
orio	-12.567
▁shami	-12.5674
▁eis	-12.5676
nut	-12.5676
▁siege	-12.5677
▁cob	-12.5677
▁nos	-12.5678
obhan	-12.5682
useful	-12.5682
▁stump	-12.5683
▁nebraska	-12.5683
▁wissenschaft	-12.5683
lalleman	-12.5683
▁flugge	-12.5683
schein	-12.5683
▁extra	-12.5683
▁aristide	-12.5684
▁crowther	-12.5684
pov	-12.5684
▁staple	-12.5684
▁ipek	-12.5685
▁belmont	-12.5685
sanguin	-12.5685
▁blumen	-12.5686
▁kearn	-12.5686
source	-12.5686
▁studenten	-12.5687
▁fredd	-12.5688
▁mirror	-12.5688
▁helms	-12.5689
▁celtic	-12.5689
▁squi	-12.569
▁visa	-12.569
abashi	-12.5691
▁neri	-12.5691
▁scout	-12.5692
con	-12.5692
▁fatima	-12.5693
▁ste	-12.5694
▁cott	-12.5694
▁actu	-12.5695
▁gutz	-12.5696
▁mankiewicz	-12.5697
aldi	-12.5699
▁chicken	-12.5699
▁aristot	-12.57
▁macla	-12.5703
▁engelke	-12.5703
garay	-12.5703
tell	-12.5705
▁twenty	-12.5705
▁chely	-12.5706
▁gheorgh	-12.5707
▁ungar	-12.5709
▁plau	-12.5711
▁nod	-12.5715
▁lachen	-12.5715
ernes	-12.5716
▁wiesel	-12.5716
▁cera	-12.5717
▁sieve	-12.572
▁hennig	-12.572
▁arth	-12.572
▁enver	-12.5721
▁shav	-12.5723
▁ranke	-12.5723
inda	-12.5724
hmet	-12.5724
▁hawks	-12.5725
▁danzig	-12.5725
ouri	-12.5726
▁hollis	-12.5727
shad	-12.5728
▁puch	-12.5729
▁winger	-12.573
▁carrer	-12.5731
shut	-12.5731
warden	-12.5734
▁neue	-12.5734
▁drop	-12.5734
▁ficker	-12.5734
▁relat	-12.5736
▁holstein	-12.5736
▁stier	-12.5736
▁bely	-12.5741
▁behrend	-12.5741
▁brund	-12.5744
▁fis	-12.5746
▁polansk	-12.5747
▁split	-12.5753
▁cron	-12.5754
▁kl	-12.5758
▁frid	-12.5758
▁zakari	-12.5759
▁gymnast	-12.5759
▁jol	-12.576
▁dand	-12.576
instrumental	-12.576
▁pollac	-12.576
▁abder	-12.5763
▁gossl	-12.5765
▁gome	-12.5766
▁torrent	-12.5767
leth	-12.5769
▁kut	-12.577
▁sicil	-12.5772
alism	-12.5773
▁philo	-12.5775
▁milt	-12.5776
fonte	-12.5776
▁ziya	-12.5777
▁lama	-12.5779
▁mes	-12.5779
▁steen	-12.5779
▁rosch	-12.578
▁wilfr	-12.5785
▁rota	-12.5785
▁cos	-12.5785
▁kond	-12.5786
▁shag	-12.5787
skog	-12.5787
▁pila	-12.5789
ruti	-12.5789
amara	-12.579
▁jor	-12.5791
▁hornb	-12.5791
orkin	-12.5792
▁scharf	-12.5792
▁raff	-12.5793
ullin	-12.5794
nagh	-12.5795
▁gao	-12.5796
gua	-12.5802
▁jara	-12.5803
gass	-12.5803
▁gaza	-12.5804
▁regnaul	-12.5804
ssal	-12.5807
▁buda	-12.5808
▁louv	-12.5809
▁oyste	-12.5813
▁sukh	-12.5813
ylli	-12.5814
▁renn	-12.5814
lise	-12.5814
▁kno	-12.5815
schmitt	-12.5815
▁wer	-12.5816
ogg	-12.5817
after	-12.5819
uren	-12.582
sperat	-12.5821
▁laun	-12.5821
▁brave	-12.5824
▁fle	-12.5825
▁shol	-12.5825
▁huck	-12.5826
▁vassil	-12.5828
ulm	-12.5834
▁takaha	-12.5835
▁kies	-12.5836
dusk	-12.5836
▁meng	-12.5841
rusino	-12.5841
parell	-12.5842
▁mell	-12.5843
▁fury	-12.5843
genev	-12.5845
▁erz	-12.5846
▁tab	-12.5847
▁anj	-12.5847
ndrome	-12.5847
▁sage	-12.585
munk	-12.5852
mitra	-12.5852
▁bremer	-12.5852
raver	-12.5854
▁pose	-12.5854
▁kog	-12.5854
erritt	-12.5855
▁chef	-12.5855
▁sonder	-12.5857
▁treit	-12.5859
▁pess	-12.586
▁spech	-12.5862
▁ecolog	-12.5863
▁mahmo	-12.5865
▁wolk	-12.5868
▁bom	-12.5869
▁cao	-12.5869
▁manol	-12.5869
geld	-12.587
round	-12.5871
▁other	-12.5871
▁wolfen	-12.5875
▁kubi	-12.5877
cion	-12.5878
▁tad	-12.5878
▁sanz	-12.5878
▁haya	-12.5879
▁sze	-12.588
▁eco	-12.5881
usio	-12.5882
▁darr	-12.5882
ponte	-12.5883
▁garb	-12.5884
▁hana	-12.589
▁bride	-12.589
▁hod	-12.5891
▁cantor	-12.5891
▁afri	-12.5892
▁gogo	-12.5894
▁furth	-12.5896
num	-12.5897
sakov	-12.5898
▁nott	-12.5899
▁boz	-12.5901
luss	-12.5904
kiko	-12.5904
respo	-12.5904
▁bernie	-12.5907
▁mong	-12.5908
▁trojan	-12.591
▁katt	-12.5912
▁martell	-12.5914
ehler	-12.5914
▁roos	-12.5915
▁jaa	-12.5916
▁tessa	-12.5919
▁safa	-12.5921
room	-12.5921
davi	-12.5921
▁pand	-12.5922
mba	-12.5926
orra	-12.5927
akita	-12.5927
karl	-12.5928
umpf	-12.5928
czak	-12.593
▁roch	-12.593
▁hau	-12.5931
▁hamda	-12.5932
▁sev	-12.5933
▁cela	-12.5933
▁dress	-12.5935
▁sinis	-12.5935
chase	-12.5936
▁neuhaus	-12.5937
enez	-12.5941
omer	-12.5941
lomb	-12.5942
akami	-12.5943
hitomi	-12.5945
▁iori	-12.5947
awi	-12.5949
▁terz	-12.595
▁montesqui	-12.5951
▁arkhangelsk	-12.5951
▁asquith	-12.5951
▁reventlow	-12.5951
▁bohdan	-12.5951
▁einsiedel	-12.5951
▁jocelyn	-12.5951
▁sukarno	-12.5951
▁concert	-12.5952
▁gauthier	-12.5952
▁boguslaw	-12.5952
▁guinness	-12.5952
▁speicher	-12.5952
▁chiesa	-12.5952
▁alfyorov	-12.5952
▁adeb	-12.5953
▁transport	-12.5953
▁kromer	-12.5953
▁gwendol	-12.5954
▁lux	-12.5954
▁delibe	-12.5954
▁hutchi	-12.5954
▁brione	-12.5955
▁cousin	-12.5956
▁dio	-12.5956
▁hikm	-12.5956
▁raimund	-12.5957
▁bis	-12.5958
▁fishburn	-12.5958
▁toll	-12.5959
▁highway	-12.5959
▁abri	-12.5959
▁hensel	-12.596
▁souv	-12.596
▁vyse	-12.5961
▁bourge	-12.5964
roble	-12.5964
▁weck	-12.5966
▁maff	-12.5967
▁shim	-12.5967
▁frame	-12.5967
nholm	-12.5967
waiting	-12.5968
ocrat	-12.5968
▁fenc	-12.597
▁gennar	-12.5972
▁ritch	-12.5972
▁jaum	-12.5973
pache	-12.5973
▁struga	-12.5973
▁kli	-12.5974
▁taube	-12.5974
illot	-12.5975
nall	-12.5975
▁sars	-12.5975
▁ilha	-12.5976
laer	-12.5976
▁vog	-12.5978
▁bye	-12.598
beder	-12.598
moulin	-12.5981
▁raabe	-12.5982
▁josip	-12.5982
▁riviere	-12.5983
demic	-12.5984
ubeck	-12.5985
▁kavan	-12.5987
▁aven	-12.5988
▁might	-12.5988
zhev	-12.5989
▁cr	-12.5989
▁klimov	-12.5989
▁drex	-12.5989
erno	-12.599
▁shining	-12.599
stin	-12.5991
▁rog	-12.5992
chul	-12.5992
idol	-12.5992
▁eike	-12.5993
▁hajo	-12.5993
▁bagda	-12.5993
laus	-12.5995
▁elba	-12.5998
▁cris	-12.5999
▁magnan	-12.5999
ill	-12.5999
szt	-12.6
▁illic	-12.6001
▁wyss	-12.6003
mmis	-12.6003
eind	-12.6003
▁kene	-12.6004
▁buber	-12.6006
▁sapp	-12.6007
▁fett	-12.6008
▁ayk	-12.6009
retu	-12.6009
biasc	-12.6012
▁resurrect	-12.6015
rews	-12.6016
ambar	-12.6016
▁svein	-12.6017
mper	-12.6018
▁swar	-12.6019
zier	-12.6019
thering	-12.6019
sheva	-12.6019
▁reuss	-12.602
naud	-12.6022
▁loud	-12.6023
▁lyss	-12.6025
uyev	-12.6026
▁wirt	-12.6027
ncelo	-12.6031
▁luz	-12.6032
jay	-12.6033
▁langle	-12.6034
▁salon	-12.6036
▁kaila	-12.6038
bova	-12.604
ewell	-12.604
▁cesk	-12.604
▁andrus	-12.6043
▁tila	-12.6043
rate	-12.6044
rats	-12.6045
▁blatt	-12.6047
ebbel	-12.6047
mega	-12.6048
hin	-12.6048
iggins	-12.605
▁hurl	-12.605
bias	-12.6051
▁cerv	-12.6052
▁gazz	-12.6057
misso	-12.6058
▁mod	-12.6059
▁lied	-12.6066
▁duka	-12.6066
evio	-12.6067
▁bieler	-12.6068
▁paret	-12.6069
suu	-12.607
▁sat	-12.6071
▁beltra	-12.6075
matov	-12.6076
brot	-12.6077
▁bragg	-12.6079
elfinge	-12.608
▁neus	-12.6081
▁pit	-12.6083
▁brandl	-12.6086
emon	-12.6087
▁som	-12.6087
▁dies	-12.6089
▁madar	-12.609
▁baren	-12.609
▁immor	-12.6094
hatha	-12.6094
▁levit	-12.6094
▁elber	-12.6095
holzer	-12.6095
lovis	-12.6096
games	-12.6098
▁socialists	-12.6103
aime	-12.6103
▁pab	-12.6108
▁juha	-12.6108
▁bartha	-12.6111
▁vassili	-12.6113
▁ami	-12.6113
▁yevgeniy	-12.6114
▁veli	-12.6114
sica	-12.6118
vares	-12.6119
▁tsu	-12.6121
▁rit	-12.6122
▁salome	-12.6122
▁crue	-12.6122
▁rovn	-12.6125
clyde	-12.6128
public	-12.613
▁hacker	-12.613
▁vino	-12.6131
baw	-12.6134
▁stig	-12.6135
ferdinand	-12.6136
arte	-12.6137
▁gelt	-12.6137
thomas	-12.6138
▁yuma	-12.6138
jones	-12.6141
▁trace	-12.6141
ibb	-12.6142
gorz	-12.6142
mill	-12.6144
ersee	-12.6147
▁damas	-12.6147
sanja	-12.6147
bati	-12.6149
▁tane	-12.615
▁bech	-12.615
▁miks	-12.6151
▁hussa	-12.6151
harl	-12.6152
▁guan	-12.6153
zhansk	-12.6154
ivell	-12.6156
▁shirin	-12.6158
▁blond	-12.6159
▁manfredi	-12.6164
▁rha	-12.6164
▁bruggeman	-12.6165
▁balin	-12.6167
ibel	-12.6168
▁lewin	-12.6171
▁destin	-12.6172
▁tripp	-12.6174
▁monch	-12.6176
▁davo	-12.618
▁trab	-12.6183
▁sela	-12.6183
hasli	-12.6184
▁hoss	-12.6184
▁raum	-12.6187
▁yulia	-12.6187
▁haag	-12.6187
▁bem	-12.6188
▁dall	-12.619
etzk	-12.619
▁gille	-12.6192
▁coll	-12.6192
halle	-12.6193
▁ulv	-12.6194
▁emine	-12.6195
▁breg	-12.6196
▁hays	-12.6196
▁fr	-12.6198
michael	-12.6199
blis	-12.6201
▁kamil	-12.6202
wes	-12.6205
ori	-12.6205
▁kany	-12.6206
urner	-12.6207
dogan	-12.6207
▁murr	-12.6213
▁montp	-12.6217
▁kolo	-12.6222
▁rieme	-12.6223
▁braus	-12.6225
▁sainte	-12.6225
▁bilbao	-12.6227
▁hermenegild	-12.6227
▁scissor	-12.6227
▁crematorium	-12.6227
between	-12.6227
▁boutros	-12.6227
▁timisoara	-12.6227
▁najaf	-12.6227
▁zhiv	-12.6228
provenc	-12.6228
▁shreve	-12.6228
▁leprince	-12.6229
▁freytag	-12.6229
▁dewitt	-12.623
▁kleinma	-12.6231
▁blah	-12.6232
▁limit	-12.6232
▁schwel	-12.6233
▁demme	-12.6235
▁stalin	-12.6235
▁rasul	-12.6235
chiro	-12.6235
▁akhmetov	-12.6236
▁mangold	-12.6236
▁melle	-12.6236
▁ould	-12.6237
▁cana	-12.6237
▁coromin	-12.6239
▁bischof	-12.6239
▁pecs	-12.624
dine	-12.624
▁spine	-12.624
▁messia	-12.6241
▁typho	-12.6243
strow	-12.6243
▁fabri	-12.6245
rugger	-12.6249
▁fender	-12.625
bner	-12.6252
zhov	-12.6253
▁tass	-12.6255
▁jul	-12.6255
▁nath	-12.6255
▁safari	-12.6255
▁lorentz	-12.6256
▁fries	-12.6257
▁mammad	-12.6262
▁abk	-12.6264
mirov	-12.6264
▁dab	-12.6265
psey	-12.6266
minck	-12.6266
rnbaum	-12.6266
wind	-12.6269
▁zhor	-12.6269
audi	-12.627
equip	-12.6271
▁kray	-12.6272
waldenburg	-12.6272
▁szen	-12.6273
bakht	-12.6273
▁gael	-12.6274
via	-12.6276
▁metro	-12.6277
inez	-12.6277
▁halli	-12.6278
▁donau	-12.6278
vid	-12.6279
▁bae	-12.628
rou	-12.628
▁paglia	-12.6281
▁winan	-12.6283
▁unitarian	-12.6283
hieri	-12.6283
▁thro	-12.6285
▁todorov	-12.6285
iyev	-12.6286
▁lat	-12.6288
▁steal	-12.6288
ariu	-12.629
xu	-12.629
urban	-12.6292
ente	-12.6293
einar	-12.6294
▁erick	-12.6297
▁pund	-12.6298
shery	-12.6299
▁rza	-12.6299
▁warne	-12.63
▁vasiliev	-12.6303
▁kasper	-12.6303
▁montez	-12.6303
▁teo	-12.6304
inograd	-12.6304
▁engelberg	-12.6305
▁moine	-12.6306
▁leno	-12.6308
▁valdi	-12.6308
▁yue	-12.6308
▁kuhne	-12.6308
hil	-12.6309
▁klop	-12.6309
▁kiese	-12.631
▁leder	-12.6312
eddin	-12.6312
enschlag	-12.6313
fra	-12.6313
utter	-12.6314
▁gell	-12.6315
uise	-12.6315
▁herwart	-12.6315
▁arnald	-12.6316
▁dama	-12.6316
elyan	-12.6316
▁nefy	-12.6316
▁fej	-12.6318
▁darry	-12.6319
▁infern	-12.6321
▁faroe	-12.6321
▁lale	-12.6322
▁aas	-12.6322
eb	-12.6324
▁siegen	-12.6324
▁marat	-12.6324
▁stri	-12.6324
▁reif	-12.6328
▁szy	-12.6328
▁kro	-12.6329
eko	-12.633
▁serb	-12.6331
sif	-12.6333
now	-12.6333
▁sultana	-12.6337
▁kremer	-12.6337
▁lorne	-12.6338
▁cice	-12.6339
hangov	-12.6342
▁bergmann	-12.6343
▁gaye	-12.6347
▁leven	-12.635
▁kleiner	-12.635
▁wulf	-12.6352
▁pozz	-12.6353
play	-12.6353
▁bulat	-12.6353
▁graff	-12.6353
▁madr	-12.6359
▁grind	-12.6362
▁gyor	-12.6363
▁ebel	-12.6363
▁brede	-12.6364
▁rois	-12.6364
uch	-12.6367
kiss	-12.6368
kovska	-12.637
▁toto	-12.6372
▁nest	-12.6372
▁celestin	-12.6372
sgard	-12.6375
▁morge	-12.6376
▁fili	-12.6376
▁xxx	-12.6376
▁schult	-12.6376
erraz	-12.6378
rac	-12.638
▁franci	-12.6383
shiro	-12.6386
▁esteve	-12.6387
▁efrai	-12.639
▁leonce	-12.6393
shchuk	-12.6393
▁bamba	-12.6396
▁saldan	-12.6396
▁kross	-12.6396
▁schwed	-12.6397
aise	-12.6399
▁kien	-12.6399
▁blau	-12.64
axen	-12.6401
▁falco	-12.6401
gens	-12.6402
gat	-12.6405
arova	-12.6408
▁bayl	-12.6409
occup	-12.6415
▁ramm	-12.6417
liyev	-12.6418
▁need	-12.6419
▁gies	-12.6421
▁ride	-12.6421
▁rega	-12.6422
theim	-12.6422
manda	-12.6422
soy	-12.6424
▁lombard	-12.6424
mein	-12.6427
▁togn	-12.6429
▁cante	-12.6433
hur	-12.6434
egawa	-12.6435
arsten	-12.6435
▁clap	-12.6438
▁sio	-12.6438
▁anni	-12.6438
rodt	-12.644
▁pou	-12.6441
erlich	-12.6441
arzyn	-12.6441
▁shing	-12.6443
▁pel	-12.6445
▁molo	-12.6447
▁asa	-12.6449
brough	-12.645
remin	-12.6451
▁kao	-12.6451
▁daf	-12.6452
▁sie	-12.6453
▁margrethe	-12.6456
dienst	-12.6457
▁collo	-12.6457
sgad	-12.6459
holstein	-12.646
▁rotten	-12.6462
lio	-12.6462
▁belli	-12.6464
▁nun	-12.6465
udena	-12.6465
grove	-12.6468
▁fess	-12.647
▁mikhailov	-12.6471
ageri	-12.6471
barn	-12.6472
sunc	-12.6473
▁joni	-12.6474
dem	-12.6476
montal	-12.6477
▁bagn	-12.6479
lord	-12.6482
kumar	-12.6482
▁hos	-12.6482
haud	-12.6484
ssel	-12.6484
sina	-12.6484
▁nasr	-12.6487
beat	-12.6492
▁westheim	-12.6492
ourney	-12.6496
dix	-12.6498
guille	-12.6498
fold	-12.6498
▁dorp	-12.6499
volta	-12.65
urcell	-12.65
▁babett	-12.6501
▁konstantinovic	-12.6504
▁mock	-12.6505
▁tyr	-12.6509
uspensk	-12.6509
▁byelorussia	-12.6511
▁walburga	-12.6511
▁hewlett	-12.6511
▁macc	-12.6511
▁forbid	-12.6511
▁kranz	-12.6511
▁matute	-12.6511
▁feucht	-12.6511
list	-12.6511
▁could	-12.6511
▁harbou	-12.6511
▁thyssen	-12.6512
asker	-12.6512
▁ramsay	-12.6512
▁digg	-12.6512
▁gaines	-12.6512
lipse	-12.6512
▁puig	-12.6513
▁chloth	-12.6513
▁sevast	-12.6513
▁bleu	-12.6513
▁winsl	-12.6514
▁jeffery	-12.6514
▁soll	-12.6515
▁boga	-12.6515
anus	-12.6515
▁grze	-12.6516
▁gigli	-12.6516
▁dancing	-12.6516
▁ciprian	-12.6517
aire	-12.6517
▁glob	-12.6518
▁curb	-12.6519
▁santillan	-12.6519
▁ljung	-12.6519
▁lemon	-12.652
▁matvi	-12.652
▁teufel	-12.652
▁braff	-12.652
▁muot	-12.6521
▁lavert	-12.6521
▁schwei	-12.6522
▁takes	-12.6523
chon	-12.6524
oria	-12.6525
▁huisman	-12.6525
▁begley	-12.6528
stige	-12.6528
▁pulp	-12.6528
andra	-12.6528
veen	-12.6529
▁nucci	-12.6529
▁derby	-12.6529
▁isold	-12.6529
▁bresci	-12.653
▁szp	-12.653
tado	-12.6531
▁cedar	-12.6531
▁goschen	-12.6531
▁cauch	-12.6532
▁kalin	-12.6532
▁lia	-12.6532
▁bled	-12.6534
▁fogel	-12.6536
▁siebel	-12.6536
▁matthes	-12.6537
▁lamarr	-12.6538
▁azad	-12.6539
▁marvel	-12.654
▁epps	-12.6541
▁konop	-12.6541
deutsche	-12.6542
▁gustaw	-12.6543
▁moj	-12.6543
dance	-12.6544
bottigen	-12.6545
▁nunn	-12.6546
▁arctic	-12.6547
rawi	-12.6548
▁gayn	-12.6548
▁morse	-12.6551
▁nikitin	-12.6552
▁dus	-12.6552
▁wear	-12.6552
oros	-12.6553
▁myth	-12.6556
▁agop	-12.6558
▁schweiz	-12.6559
▁baar	-12.656
▁wacker	-12.656
▁luce	-12.656
iros	-12.6561
▁annik	-12.6562
▁batist	-12.6564
▁mutten	-12.6564
▁patten	-12.6565
▁smoke	-12.6566
rrell	-12.6566
▁muld	-12.6567
▁stans	-12.657
camp	-12.657
▁hami	-12.6571
▁knau	-12.6571
kiru	-12.6572
▁kristof	-12.6572
▁valen	-12.6578
arth	-12.6578
▁passa	-12.658
▁neg	-12.6581
▁cle	-12.6583
▁kuan	-12.6585
▁keye	-12.6586
▁esc	-12.6587
▁gregori	-12.6587
aston	-12.6587
avell	-12.6589
▁concept	-12.659
▁alekseev	-12.6591
aria	-12.6591
elica	-12.6591
acton	-12.6592
▁graef	-12.6595
nant	-12.6596
▁masson	-12.6597
▁pil	-12.6598
▁gordi	-12.6599
▁baik	-12.6601
▁tork	-12.6601
grapher	-12.6601
▁hira	-12.6605
▁dil	-12.6607
hal	-12.661
▁frol	-12.6615
▁lubbe	-12.6615
▁robes	-12.6615
▁architectur	-12.6617
▁conne	-12.6619
▁hinde	-12.6621
zuma	-12.6622
▁rohr	-12.6622
▁rabbit	-12.6626
egi	-12.6626
moon	-12.6627
▁malan	-12.6628
ansbach	-12.6631
syan	-12.6632
ieff	-12.6632
▁teena	-12.6635
▁darc	-12.6636
▁bahn	-12.6636
▁lanc	-12.6637
▁derrid	-12.6638
ays	-12.6638
▁dury	-12.664
mante	-12.6643
▁strass	-12.6644
▁buckm	-12.6647
sok	-12.665
ehl	-12.665
▁kuhl	-12.6653
▁doub	-12.6653
▁soria	-12.6654
iain	-12.6654
▁ceza	-12.6655
▁afanas	-12.6657
▁rossett	-12.6658
yoko	-12.6659
▁celest	-12.666
▁amado	-12.666
▁amis	-12.666
▁late	-12.6662
truy	-12.6663
mbek	-12.6664
▁ira	-12.6665
aryan	-12.6667
deau	-12.6668
▁wide	-12.667
▁kalb	-12.6671
▁fune	-12.6672
▁ayse	-12.6672
elow	-12.6673
▁zuk	-12.6674
▁sopr	-12.6674
▁lear	-12.6676
bing	-12.6679
▁bobrow	-12.668
milian	-12.6681
▁oehl	-12.6681
avik	-12.6682
trick	-12.6682
▁ferris	-12.6689
▁cadena	-12.6691
▁taken	-12.6693
alliga	-12.6696
▁kuni	-12.6698
▁wilmer	-12.6698
▁sob	-12.6699
▁oley	-12.6702
▁urba	-12.6707
ristov	-12.671
▁coss	-12.671
▁trop	-12.6712
▁depp	-12.6712
iji	-12.6713
nzo	-12.6715
▁garne	-12.6717
▁schlaf	-12.6719
spitz	-12.6719
▁mccla	-12.6723
▁elah	-12.6723
lebon	-12.6724
▁loch	-12.6728
▁mcra	-12.6728
▁fari	-12.6729
▁cud	-12.6729
omsk	-12.6729
▁skin	-12.6732
▁kulik	-12.6732
orn	-12.6732
▁geiss	-12.6737
▁pfor	-12.6738
▁fel	-12.6739
▁gund	-12.674
▁fad	-12.674
alban	-12.6742
stetter	-12.6743
▁boie	-12.6745
▁agusti	-12.6748
▁isak	-12.6749
▁bertels	-12.6749
▁lino	-12.675
rup	-12.675
kina	-12.6753
▁bugs	-12.6753
▁arbor	-12.6756
clough	-12.6756
igal	-12.6756
▁shoe	-12.6757
capri	-12.6757
hra	-12.6757
▁aso	-12.6757
▁waal	-12.6758
▁klemen	-12.6758
yu	-12.6759
▁mame	-12.676
cles	-12.6761
▁schonher	-12.6761
▁rhon	-12.6761
▁harden	-12.6762
yuan	-12.6762
▁pax	-12.6763
▁mcew	-12.6764
▁ill	-12.6765
lof	-12.6766
▁pann	-12.6768
▁sacr	-12.6771
▁bonom	-12.6771
▁univers	-12.6771
▁tuttl	-12.6773
nas	-12.6773
nitzk	-12.6774
anouk	-12.6776
▁gia	-12.6777
▁gymnas	-12.6778
▁baltz	-12.6778
porren	-12.678
▁made	-12.678
▁sadl	-12.678
igo	-12.6781
▁rhe	-12.6782
chowsk	-12.6783
spital	-12.6786
▁dour	-12.6786
dol	-12.6786
carell	-12.6787
▁coutur	-12.6787
▁broy	-12.6787
▁kuo	-12.6788
ersdorf	-12.6788
▁hasse	-12.6789
▁masami	-12.6791
schied	-12.6791
▁anger	-12.6795
▁russel	-12.6795
▁snai	-12.6796
igor	-12.6796
schi	-12.6797
▁aj	-12.6797
▁nasri	-12.6797
ezer	-12.6798
▁agatha	-12.6799
germain	-12.6799
lymp	-12.6799
avril	-12.68
carita	-12.68
▁chow	-12.6801
▁tee	-12.6801
▁anuradha	-12.6803
▁pomona	-12.6803
▁seydoux	-12.6803
▁feathers	-12.6803
▁sigfrid	-12.6803
▁strawberr	-12.6803
▁clown	-12.6803
▁ugarte	-12.6803
▁astrophysic	-12.6803
▁koltsov	-12.6803
▁juoza	-12.6803
▁warrior	-12.6803
▁gresham	-12.6804
▁gervais	-12.6804
▁folklorist	-12.6805
▁ditlev	-12.6805
▁tomlinson	-12.6805
benoit	-12.6805
▁burchard	-12.6806
pfalz	-12.6806
anthe	-12.6806
ulli	-12.6807
▁mastr	-12.6807
▁sauve	-12.6808
kuhn	-12.6808
district	-12.6809
▁stas	-12.6809
zzi	-12.681
▁does	-12.681
▁northridge	-12.681
▁cri	-12.6812
▁bogar	-12.6812
flower	-12.6812
▁amigo	-12.6814
▁ransom	-12.6815
▁shat	-12.6815
▁baylis	-12.6816
walter	-12.6816
▁vysotsky	-12.6817
rav	-12.6817
▁schwende	-12.6818
▁mcgui	-12.6819
▁cinemat	-12.6819
▁broz	-12.6819
ticultur	-12.6819
▁vijay	-12.682
▁gee	-12.682
▁foldes	-12.6821
▁tary	-12.6822
▁ulmen	-12.6823
nic	-12.6824
▁ximen	-12.6824
▁rend	-12.6825
▁niese	-12.6825
▁mugh	-12.6826
▁houns	-12.6827
▁gliwic	-12.6828
▁drey	-12.6828
govic	-12.6831
▁haji	-12.6833
traud	-12.6834
tengel	-12.6838
ascar	-12.6838
▁gaul	-12.6839
werge	-12.6841
▁sarta	-12.6842
▁potts	-12.6843
nari	-12.6844
▁trude	-12.6845
▁cugn	-12.6846
▁terre	-12.6847
laugh	-12.6848
▁jef	-12.6848
errero	-12.6849
▁vollm	-12.685
sada	-12.6852
▁yar	-12.6853
▁durn	-12.6854
atz	-12.6856
bain	-12.6856
▁bohumi	-12.6856
▁lieben	-12.6857
▁tatar	-12.6857
▁petz	-12.6858
▁josefin	-12.6859
ovszk	-12.6859
▁linko	-12.686
ilke	-12.686
▁diem	-12.6861
▁serr	-12.6862
▁bast	-12.6863
humanit	-12.6864
ratti	-12.6864
hren	-12.6864
▁saraso	-12.6867
▁doblin	-12.6867
rian	-12.687
▁amund	-12.6873
▁nasty	-12.6875
ccia	-12.6875
▁jarr	-12.6876
▁savin	-12.6877
▁sab	-12.688
▁frobe	-12.6881
▁reisch	-12.6883
uppi	-12.6885
▁pha	-12.6885
ipi	-12.6885
truck	-12.6885
uper	-12.6886
vezia	-12.6886
▁ziel	-12.6887
▁cler	-12.6892
▁cate	-12.6894
mel	-12.6896
breaker	-12.6897
▁gavril	-12.6899
▁stoll	-12.6902
▁baque	-12.6903
bh	-12.6905
isau	-12.6907
▁tiberi	-12.691
▁kury	-12.6911
▁grae	-12.6911
xan	-12.6913
ntin	-12.6913
▁hyun	-12.6914
▁gild	-12.6916
arro	-12.6916
▁irons	-12.6917
▁gable	-12.6917
tierna	-12.6917
redi	-12.6919
▁marni	-12.692
ennant	-12.6921
glis	-12.6921
▁galt	-12.6922
rah	-12.6922
halifa	-12.6923
tabar	-12.6926
▁shv	-12.6927
▁ambro	-12.6927
cui	-12.6929
▁bartels	-12.693
chanov	-12.6931
landis	-12.6933
▁sverr	-12.6935
▁livs	-12.6935
▁kolb	-12.6935
outen	-12.6936
▁neubau	-12.6937
▁sche	-12.694
aska	-12.6942
▁clai	-12.6942
ceau	-12.6943
▁seag	-12.6945
lop	-12.6947
polo	-12.6948
alder	-12.6948
▁bouch	-12.6948
lotz	-12.6948
▁maro	-12.6955
illier	-12.6955
kuma	-12.6955
olzhen	-12.6958
▁kwon	-12.6959
▁regin	-12.6959
engo	-12.6961
▁lucie	-12.6962
▁guggen	-12.6962
▁flick	-12.6963
▁weiler	-12.6964
mpere	-12.6967
okhin	-12.6969
ilene	-12.6969
▁scheu	-12.697
▁szil	-12.6971
banov	-12.6971
know	-12.6971
▁slaw	-12.6972
igau	-12.6972
▁zamo	-12.6979
▁deni	-12.6979
▁cossig	-12.6983
▁huf	-12.6984
▁roden	-12.6985
vina	-12.6985
ollah	-12.6987
ady	-12.6988
pai	-12.6988
liyah	-12.6989
▁barto	-12.699
gel	-12.699
▁dede	-12.6991
aird	-12.6992
▁jaco	-12.6992
▁nec	-12.6993
▁cahu	-12.6993
av	-12.6993
kulin	-12.6996
▁mimi	-12.6997
▁prud	-12.6998
▁zize	-12.6999
nelson	-12.7001
▁edelman	-12.7002
▁ciri	-12.7004
avo	-12.7004
▁alda	-12.7005
▁olimpi	-12.7006
▁cerve	-12.7006
▁jons	-12.7008
▁cerro	-12.7009
buhr	-12.7021
rwin	-12.7024
▁malu	-12.7025
lies	-12.7026
▁hadda	-12.7027
▁pupi	-12.7027
▁hassa	-12.7027
▁evgeni	-12.7027
can	-12.7029
▁sap	-12.7029
esi	-12.703
▁smithson	-12.703
▁meij	-12.7034
riq	-12.7035
okhov	-12.7037
lew	-12.7039
vya	-12.7041
zhevsk	-12.7042
sum	-12.7043
amien	-12.7044
▁wag	-12.7044
▁sorg	-12.7047
▁mans	-12.7048
zali	-12.7048
▁yakub	-12.7049
▁rapa	-12.7051
▁heu	-12.7052
▁bandy	-12.7055
▁britton	-12.7056
▁tied	-12.706
ately	-12.7061
▁ree	-12.7061
trava	-12.7061
▁wund	-12.7061
▁bunge	-12.7063
amon	-12.7063
sik	-12.7063
▁sayer	-12.7063
onia	-12.7065
▁uz	-12.7066
rtl	-12.7066
ocq	-12.7066
▁plie	-12.7066
fler	-12.7069
▁sociology	-12.7069
ernak	-12.7069
▁brac	-12.7071
▁ribo	-12.7072
▁normand	-12.7073
▁sme	-12.7074
stik	-12.7075
▁pistol	-12.7079
▁gersten	-12.7079
▁rahn	-12.7081
rit	-12.7081
▁sahra	-12.7083
▁seg	-12.7083
zow	-12.7084
rable	-12.7087
▁massi	-12.7088
yukov	-12.7089
iale	-12.7092
olt	-12.7094
▁triv	-12.7096
▁henn	-12.7098
▁leach	-12.7099
▁kowalsk	-12.71
▁macedon	-12.71
▁mays	-12.7101
▁mieszko	-12.7101
▁navratil	-12.7104
▁hsiao	-12.7104
▁mordecha	-12.7104
▁klestil	-12.7104
▁dolezal	-12.7104
▁dmytr	-12.7104
▁putnam	-12.7104
▁figueroa	-12.7104
▁schnitt	-12.7104
▁frohlich	-12.7104
▁golub	-12.7104
joe	-12.7104
▁brzezi	-12.7104
▁turtle	-12.7104
▁mgm	-12.7105
▁offen	-12.7106
▁vostr	-12.7106
▁hida	-12.7106
▁anschutz	-12.7106
▁kovalevsk	-12.7106
▁slep	-12.7107
▁sugi	-12.7107
▁bak	-12.7108
▁cheikh	-12.7108
▁idle	-12.7108
▁ervin	-12.7108
▁rafail	-12.711
▁gamz	-12.7111
▁hardin	-12.7111
▁ashkena	-12.7111
▁jalil	-12.7111
▁porno	-12.7112
hring	-12.7113
▁exi	-12.7115
▁shojo	-12.7115
▁wolter	-12.7115
▁juven	-12.7116
▁thorstein	-12.7116
▁wolve	-12.7117
▁lichtenberg	-12.7118
vicius	-12.7118
▁nisha	-12.7118
gift	-12.7119
▁tarjan	-12.7119
wreck	-12.7119
▁fullerton	-12.7119
sous	-12.712
▁portman	-12.712
patow	-12.712
▁sonne	-12.7121
senko	-12.7122
▁grammar	-12.7122
▁borow	-12.7123
▁tipp	-12.7124
▁bazan	-12.7124
▁walen	-12.7125
▁neko	-12.7125
aenz	-12.7126
▁nag	-12.7127
▁kohn	-12.7128
▁altman	-12.7128
▁becke	-12.7129
tkin	-12.713
▁clock	-12.713
▁samm	-12.7132
▁borgn	-12.7132
part	-12.7133
▁xvii	-12.7135
▁hella	-12.7135
▁eamon	-12.7136
enoch	-12.7136
▁monne	-12.7137
▁gummer	-12.7138
▁pev	-12.7138
basi	-12.7138
▁lover	-12.714
enhausen	-12.714
anton	-12.7142
helfens	-12.7142
▁inten	-12.7142
▁zita	-12.7143
▁chern	-12.7143
cett	-12.7144
high	-12.7145
▁thoms	-12.7146
▁wutt	-12.7146
tazar	-12.7148
manus	-12.7149
ege	-12.715
▁jimen	-12.7151
▁matra	-12.7151
▁jouve	-12.7153
▁szent	-12.7155
slice	-12.7155
yamada	-12.7155
▁feth	-12.7157
▁lafarg	-12.7157
▁heuve	-12.7159
▁magni	-12.7159
knapp	-12.7159
ymyr	-12.716
nielsen	-12.716
giacom	-12.7161
▁jeon	-12.7162
gyorgy	-12.7162
▁canne	-12.7163
▁salim	-12.7163
urg	-12.7164
▁merce	-12.7165
benj	-12.7165
▁push	-12.7165
pke	-12.7166
throne	-12.7167
▁voya	-12.7168
shige	-12.7169
arthur	-12.717
cler	-12.7171
dmak	-12.7173
ebing	-12.7173
▁toma	-12.7175
▁lobo	-12.7176
▁valent	-12.7176
▁damo	-12.7177
▁eschen	-12.7177
mari	-12.7179
columb	-12.7181
ote	-12.7182
▁alun	-12.7185
▁snick	-12.7186
eji	-12.7187
▁traut	-12.7192
▁juice	-12.7192
▁nold	-12.7193
zbor	-12.7194
iordan	-12.7196
fleur	-12.7197
schmer	-12.7199
agur	-12.72
▁bans	-12.72
▁maier	-12.7203
eque	-12.7206
▁handle	-12.7206
▁tyra	-12.7208
▁djer	-12.7209
▁halv	-12.7209
▁manzon	-12.7213
▁serkin	-12.7214
▁letter	-12.7215
▁karn	-12.7216
▁insul	-12.7217
▁tarant	-12.7218
rild	-12.7218
▁potth	-12.7219
▁holli	-12.722
▁appia	-12.7221
ean	-12.7226
guer	-12.7227
▁bryc	-12.723
ncke	-12.7232
qing	-12.7233
▁carn	-12.7235
▁roxann	-12.7235
▁hamen	-12.7236
unha	-12.7238
zy	-12.7239
▁lava	-12.7241
▁lanci	-12.7243
▁airb	-12.7243
▁glau	-12.7245
kisch	-12.7245
dier	-12.7247
tto	-12.7248
▁godin	-12.725
▁leiber	-12.7252
▁jedi	-12.7252
▁aeb	-12.7256
▁saleh	-12.7256
▁diep	-12.7258
▁dunst	-12.7259
▁mclu	-12.726
ismat	-12.726
▁sumi	-12.726
▁gratz	-12.7261
olivar	-12.7263
▁allai	-12.7267
zis	-12.7268
werni	-12.727
nio	-12.7271
▁talab	-12.7272
▁arc	-12.7273
▁hyne	-12.7274
event	-12.7275
▁grie	-12.7275
gela	-12.7278
▁sack	-12.728
▁carstens	-12.7282
▁bayard	-12.7284
torski	-12.7284
gawa	-12.7285
vira	-12.7287
▁pors	-12.7291
▁zeppe	-12.7292
▁mecht	-12.7292
mara	-12.7292
▁cheb	-12.7294
▁tet	-12.7297
▁zay	-12.7297
▁nut	-12.7298
iga	-12.7299
▁zilli	-12.7303
▁christia	-12.7304
uczynsk	-12.7304
adolph	-12.7304
▁cl	-12.7304
▁hodge	-12.7306
itta	-12.7309
anson	-12.731
▁issa	-12.731
▁gual	-12.7311
▁mast	-12.7312
▁izz	-12.7316
▁kishi	-12.7316
▁atlanti	-12.7321
▁schole	-12.7321
▁chay	-12.7321
polina	-12.7321
▁attic	-12.7321
uppert	-12.7328
tman	-12.7328
▁beil	-12.7329
▁halber	-12.733
▁szi	-12.7331
▁sove	-12.7334
▁oel	-12.7335
jakov	-12.7344
jen	-12.7345
udolf	-12.7347
grille	-12.7347
▁nij	-12.7348
▁mexican	-12.735
▁fyodorov	-12.735
▁cura	-12.7352
enti	-12.7353
tsutom	-12.7355
apes	-12.7356
plan	-12.7357
frun	-12.7359
▁korne	-12.736
▁vishn	-12.736
khan	-12.7363
▁brog	-12.7363
▁runnin	-12.7365
appa	-12.7368
▁fate	-12.7371
▁lauper	-12.7372
▁butterf	-12.7372
▁patak	-12.7374
▁dionne	-12.7374
▁pavlovsk	-12.7375
▁plin	-12.7376
▁mage	-12.7378
▁blanche	-12.7381
▁mccon	-12.7384
▁argu	-12.7386
iglio	-12.739
▁moura	-12.739
ende	-12.7391
▁jewel	-12.7392
pura	-12.7392
pata	-12.7394
moni	-12.7394
▁ales	-12.7395
falud	-12.7396
▁adami	-12.74
rescu	-12.7401
ajd	-12.7401
▁brons	-12.7402
▁bocc	-12.7405
▁sess	-12.7406
▁knuds	-12.7406
▁lame	-12.7409
oleta	-12.7412
jona	-12.7412
▁schimmel	-12.7414
▁verbitsk	-12.7414
▁bogomol	-12.7414
▁soap	-12.7414
▁hieronym	-12.7414
▁scienti	-12.7414
embol	-12.7414
dynamic	-12.7414
▁fresco	-12.7414
expect	-12.7414
▁halloween	-12.7414
▁boogie	-12.7415
▁bluff	-12.7415
▁balaban	-12.7415
▁warhol	-12.7415
▁agassiz	-12.7415
▁eraser	-12.7415
▁klo	-12.7415
▁flond	-12.7416
▁sacer	-12.7417
▁civita	-12.7417
iaga	-12.7418
▁crews	-12.7418
▁tahir	-12.7418
▁dubois	-12.7419
▁mcphe	-12.7419
▁must	-12.7419
▁sarmi	-12.7419
▁schie	-12.7419
▁suspe	-12.7419
▁borodin	-12.7419
▁vorder	-12.7421
israeli	-12.7421
▁altenburg	-12.7421
▁parade	-12.7422
▁mcsh	-12.7423
▁hermin	-12.7423
▁sik	-12.7423
▁alegr	-12.7424
▁stadio	-12.7425
▁chee	-12.7425
▁asph	-12.7425
▁radha	-12.7426
unkel	-12.7426
mulhouse	-12.7429
▁bracken	-12.7429
▁figuer	-12.743
▁pekka	-12.743
▁zy	-12.7432
▁ruhle	-12.7433
▁villar	-12.7434
lko	-12.7435
▁musse	-12.7436
▁savona	-12.7436
▁heng	-12.7437
▁retz	-12.7438
▁vladimirov	-12.7441
▁ziz	-12.7441
assant	-12.7442
bring	-12.7442
▁schapir	-12.7443
▁obers	-12.7443
▁swede	-12.7444
anning	-12.7444
▁oswal	-12.7446
oix	-12.7446
▁remus	-12.7446
▁hilda	-12.7447
arnon	-12.7447
▁robbe	-12.7449
▁maksym	-12.7449
▁mis	-12.7449
gosci	-12.745
▁humor	-12.7451
tusi	-12.7452
rini	-12.7453
▁canto	-12.7453
spach	-12.7454
orban	-12.7454
▁echev	-12.7456
▁lilien	-12.7459
▁hammars	-12.746
cho	-12.7461
▁solon	-12.7462
▁kawab	-12.7462
▁bachman	-12.7463
ovna	-12.7463
▁abbad	-12.7464
▁gwa	-12.7465
awad	-12.7466
▁golda	-12.7466
▁schaer	-12.7468
▁hernande	-12.7468
august	-12.747
uschi	-12.7472
amow	-12.7472
▁kuus	-12.7472
▁berge	-12.7477
shaus	-12.7477
ather	-12.7478
▁fleisch	-12.7482
▁dink	-12.7482
▁widen	-12.7483
▁collection	-12.7483
▁elga	-12.7483
▁froes	-12.7486
phant	-12.7487
ebotte	-12.7487
ieres	-12.7487
ayers	-12.7489
ewart	-12.749
▁gram	-12.749
▁nato	-12.7492
simo	-12.7492
xiii	-12.7493
▁wich	-12.7493
▁menge	-12.7495
▁luden	-12.7496
▁barla	-12.7497
nella	-12.7498
ntsev	-12.75
▁odett	-12.7502
▁ours	-12.7503
▁vladi	-12.7506
eglia	-12.7506
▁margolis	-12.7507
fortunat	-12.7508
▁kittel	-12.7509
▁yere	-12.751
igula	-12.7511
▁malm	-12.7513
▁aik	-12.7513
maury	-12.7514
nterio	-12.7514
govern	-12.7515
rupt	-12.7515
▁gla	-12.752
uit	-12.752
manli	-12.752
▁kev	-12.752
▁elys	-12.752
izon	-12.752
▁motte	-12.7522
▁borda	-12.7522
ibur	-12.7523
▁sons	-12.7523
weather	-12.7524
acchi	-12.7526
▁ratz	-12.7527
▁gys	-12.7528
▁kord	-12.7528
sofia	-12.753
▁qa	-12.7531
khoda	-12.7533
▁firt	-12.7533
selt	-12.7533
eino	-12.7534
▁darwi	-12.7534
▁bolo	-12.7535
▁stip	-12.7536
▁winfr	-12.7536
▁polen	-12.7538
▁coti	-12.754
ecchi	-12.7543
▁rame	-12.7545
▁terenc	-12.7547
▁schro	-12.7547
▁altsta	-12.7548
full	-12.7549
▁gunder	-12.7551
rovsky	-12.7555
▁perfume	-12.7555
christian	-12.7557
▁yano	-12.7557
▁...	-12.7558
▁klu	-12.7559
▁brandy	-12.7559
▁hohn	-12.7562
▁mink	-12.7562
▁munn	-12.7566
▁uli	-12.7566
edmont	-12.7567
▁own	-12.7567
metal	-12.7567
▁naru	-12.7568
ppard	-12.757
▁hedin	-12.757
▁heinle	-12.757
kand	-12.7571
▁schley	-12.7571
baland	-12.7572
barge	-12.7572
enkamp	-12.7572
▁jaure	-12.7572
▁luth	-12.7573
▁escher	-12.7574
▁perrine	-12.7575
aqi	-12.7575
lsen	-12.7576
kami	-12.7576
▁jale	-12.7577
▁kobe	-12.7578
▁scotti	-12.7579
▁parra	-12.7581
▁beckman	-12.7582
udek	-12.7582
oisson	-12.7583
kozy	-12.7584
▁ryd	-12.7585
▁paper	-12.7586
zena	-12.7588
▁viol	-12.7588
ubov	-12.7592
▁georgio	-12.7595
▁toepl	-12.7597
ulio	-12.7597
▁fide	-12.7597
▁gisc	-12.7598
▁kope	-12.7599
▁cuban	-12.7602
▁trou	-12.7603
▁ante	-12.7604
▁flav	-12.7604
bayev	-12.7605
fee	-12.7607
▁almen	-12.7609
assar	-12.761
▁gurt	-12.7611
▁taub	-12.7611
▁chemin	-12.7612
hues	-12.7613
▁hid	-12.7613
▁lobb	-12.7614
▁lig	-12.7614
viad	-12.7614
tia	-12.7616
ishev	-12.7617
▁laden	-12.7618
asian	-12.7621
atin	-12.7622
ffler	-12.7623
▁posad	-12.7625
▁nair	-12.7628
▁bakhti	-12.7628
▁herme	-12.7636
belo	-12.7636
▁hattie	-12.7638
▁tie	-12.7639
▁monda	-12.7639
ocka	-12.764
▁kuh	-12.7643
▁deli	-12.7645
▁clo	-12.7645
▁gue	-12.7648
▁fill	-12.7648
▁ariste	-12.7649
▁buten	-12.7651
▁shir	-12.7658
eben	-12.7658
▁noy	-12.7659
▁broch	-12.7659
enzens	-12.7659
▁lige	-12.7661
▁chiasso	-12.7662
▁bij	-12.7664
eliya	-12.7664
tro	-12.7665
▁barbar	-12.7667
skill	-12.7669
pike	-12.7672
eryk	-12.7672
▁achter	-12.7673
bois	-12.7674
▁walden	-12.7675
artz	-12.7675
iuk	-12.7676
▁oberbottigen	-12.7677
ishchev	-12.7682
▁coughl	-12.7686
anek	-12.7687
▁frear	-12.7688
▁jaen	-12.769
▁voll	-12.769
▁banner	-12.7692
▁schwand	-12.7696
▁nik	-12.7696
ahl	-12.7701
lanzmann	-12.7701
gall	-12.7704
araya	-12.7706
▁emeric	-12.7706
lek	-12.7706
eyre	-12.7708
agle	-12.7708
▁naj	-12.7709
▁schol	-12.7711
▁schosshalde	-12.7711
matos	-12.7712
fond	-12.7713
▁amita	-12.7714
dzi	-12.7715
jim	-12.7716
▁lod	-12.7716
▁paoli	-12.7721
▁odds	-12.7721
▁andor	-12.7723
reb	-12.7724
czy	-12.7724
▁bok	-12.7725
▁dalia	-12.7727
▁gorr	-12.773
▁carra	-12.7731
gerra	-12.7731
ugen	-12.7732
▁mccr	-12.7734
▁euclid	-12.7734
▁metternich	-12.7734
▁yevtushenko	-12.7734
isfahan	-12.7734
▁manteuffel	-12.7734
▁pimentel	-12.7734
▁deighton	-12.7734
▁confuci	-12.7734
▁rhymes	-12.7734
▁reuben	-12.7734
▁darko	-12.7734
▁elfenau	-12.7734
▁zorro	-12.7734
▁escobar	-12.7734
▁bollore	-12.7734
▁buzzati	-12.7734
▁knobl	-12.7734
▁tschapp	-12.7735
▁madchen	-12.7735
iet	-12.7735
▁benoist	-12.7736
▁angelopoulos	-12.7736
▁snell	-12.7736
▁corri	-12.7736
▁clermont	-12.7737
▁litvin	-12.7738
▁album	-12.7738
▁eleut	-12.7738
▁stett	-12.7738
▁schnell	-12.7738
▁mahmud	-12.7738
▁bito	-12.7738
▁mohsen	-12.7739
▁schlatt	-12.774
tali	-12.774
▁rustem	-12.774
▁afrika	-12.774
▁schi	-12.774
▁consuel	-12.7741
▁talley	-12.7741
▁dauphin	-12.7742
▁citro	-12.7742
▁kress	-12.7742
▁branca	-12.7744
ajara	-12.7744
▁cochrane	-12.7746
▁corvin	-12.7746
lim	-12.7746
▁mandarin	-12.7747
▁match	-12.7747
▁vide	-12.7749
▁beyonce	-12.7749
▁malf	-12.775
▁republica	-12.7751
▁catania	-12.7753
egory	-12.7753
▁dro	-12.7753
▁astral	-12.7753
ifert	-12.7754
adorno	-12.7754
▁lasker	-12.7754
▁eiji	-12.7754
rommel	-12.7755
elchin	-12.7756
▁debus	-12.7757
styn	-12.7758
▁clone	-12.7758
gnon	-12.7758
▁sui	-12.776
▁wilb	-12.7761
▁mariel	-12.7761
▁maza	-12.7762
▁kaur	-12.7764
▁rochel	-12.7765
▁pavic	-12.7767
▁dim	-12.7767
zenz	-12.7768
ieri	-12.7768
▁punt	-12.7768
ourt	-12.7769
mous	-12.777
▁pik	-12.777
▁fiescher	-12.7771
▁puska	-12.7772
▁arman	-12.7773
isher	-12.7775
▁dore	-12.7776
▁simson	-12.7776
▁corte	-12.7776
▁seas	-12.7779
▁houss	-12.778
▁gatti	-12.7783
dway	-12.7784
rego	-12.7785
▁zill	-12.7785
▁folle	-12.7789
▁zapat	-12.779
▁dje	-12.7791
▁peeter	-12.7792
hien	-12.7792
▁mox	-12.7793
▁kurd	-12.7794
▁croy	-12.7795
▁scha	-12.7796
▁marz	-12.78
▁milev	-12.7804
▁sieb	-12.7806
queiro	-12.7806
athy	-12.7806
▁mcent	-12.7806
▁zeng	-12.7806
ub	-12.7807
eegan	-12.7809
▁zisch	-12.7809
▁wir	-12.781
spiel	-12.7811
▁waden	-12.7811
▁emer	-12.7811
nsen	-12.7812
▁mayn	-12.7812
ugu	-12.7813
▁cacci	-12.7817
uro	-12.7817
unge	-12.7819
▁skinn	-12.7819
▁leuen	-12.7824
spall	-12.7825
elek	-12.7825
amper	-12.7826
boj	-12.7827
▁beard	-12.7829
lisha	-12.7829
▁natan	-12.783
▁muhle	-12.7832
▁fusi	-12.7838
▁masak	-12.7839
▁drach	-12.7841
▁kosz	-12.7842
▁yuji	-12.7844
point	-12.7846
▁shev	-12.7846
▁przy	-12.7847
▁schone	-12.7847
▁kaisers	-12.7847
▁shiri	-12.7849
▁gabb	-12.7849
▁mons	-12.785
▁tse	-12.7852
cza	-12.7853
erbedz	-12.7853
▁birmens	-12.7859
▁reba	-12.786
▁belloc	-12.7861
mogen	-12.7861
▁saveri	-12.7862
▁hirze	-12.7865
▁halid	-12.7866
▁grusch	-12.7867
▁schultze	-12.7867
archim	-12.7867
▁stepanov	-12.7868
moya	-12.7869
zu	-12.787
▁corti	-12.787
johan	-12.7871
▁smed	-12.7871
asami	-12.7872
▁catharin	-12.7872
▁kade	-12.7872
▁wedg	-12.7872
peake	-12.7874
▁zyl	-12.7876
▁gothe	-12.7877
ruffa	-12.7878
▁mcclu	-12.7878
▁calv	-12.7879
▁muta	-12.7881
arsky	-12.7882
maison	-12.7882
▁jost	-12.7883
rogge	-12.7883
▁rakow	-12.7883
tay	-12.7886
▁rok	-12.7886
▁epp	-12.7887
▁lust	-12.7889
▁silvan	-12.7892
▁boucher	-12.7893
▁agath	-12.7893
▁krag	-12.7894
▁eur	-12.7894
▁tzar	-12.7895
ashi	-12.7895
onis	-12.7896
▁angli	-12.7897
▁stair	-12.7897
clas	-12.79
bad	-12.7901
▁noa	-12.7901
▁sidd	-12.7902
▁bet	-12.7902
unin	-12.7902
▁goldin	-12.7904
lage	-12.7904
▁marque	-12.7905
▁sibel	-12.7905
talbot	-12.7906
▁riz	-12.791
mersch	-12.7911
church	-12.7911
throm	-12.7912
monti	-12.7912
ilov	-12.7913
▁breiten	-12.7913
▁aleksandrov	-12.7915
▁loewe	-12.7918
fair	-12.7918
▁buffet	-12.7919
▁romul	-12.792
▁heiss	-12.7922
▁dijk	-12.7923
holland	-12.7923
naes	-12.7923
▁jamal	-12.7925
lecki	-12.7926
▁armas	-12.7927
▁heyd	-12.7931
▁vasilyev	-12.7932
▁bresl	-12.7932
▁bice	-12.7934
▁galla	-12.7936
azza	-12.7936
ffir	-12.7937
wurt	-12.7937
scape	-12.7938
▁alb	-12.794
mut	-12.794
▁kalla	-12.794
▁hecht	-12.7944
sebe	-12.7945
table	-12.7946
izot	-12.7947
▁pip	-12.7947
▁godo	-12.7953
▁rouss	-12.7954
▁delon	-12.7954
schiel	-12.7955
nicol	-12.7955
rmand	-12.7955
▁books	-12.7956
fish	-12.7958
""	-12.7967
arini	-12.7967
▁toku	-12.7969
khat	-12.797
▁remar	-12.797
▁maran	-12.797
met	-12.7972
▁brel	-12.7972
▁piech	-12.7972
oetze	-12.7974
▁concep	-12.7976
champ	-12.7976
▁torbe	-12.7977
licht	-12.7977
▁mela	-12.7978
▁dewe	-12.7979
▁troel	-12.7979
▁bree	-12.798
▁romol	-12.7981
▁kip	-12.7983
eim	-12.7984
alia	-12.7985
tane	-12.7986
▁allah	-12.799
▁kros	-12.7991
lyapi	-12.7991
▁loop	-12.7992
▁wasi	-12.7993
▁rosi	-12.7995
elov	-12.7996
▁darb	-12.7996
oja	-12.7997
asli	-12.7998
▁pandor	-12.7999
mento	-12.8
▁pellet	-12.8
▁sahi	-12.8001
▁gais	-12.8002
▁shinji	-12.8004
brue	-12.8011
rise	-12.8012
▁catal	-12.8012
▁hofstette	-12.8015
erik	-12.8016
▁indi	-12.8019
nieres	-12.802
▁brando	-12.8021
▁kolk	-12.8021
risch	-12.8021
▁wetzl	-12.8021
▁biro	-12.8022
int	-12.8025
misch	-12.8025
etzow	-12.8025
loch	-12.8028
chat	-12.803
▁canta	-12.803
▁corpse	-12.8033
▁eben	-12.8034
▁schla	-12.8036
▁zabr	-12.8037
▁kug	-12.8038
▁masha	-12.8038
▁physi	-12.8039
elka	-12.8039
▁lari	-12.8039
▁laine	-12.804
▁schweig	-12.8041
▁courb	-12.8045
▁parnas	-12.8045
▁meta	-12.8046
pardi	-12.8046
▁maximu	-12.8048
▁felt	-12.8049
▁khosro	-12.8052
kustu	-12.8055
▁sarg	-12.8055
ahlen	-12.8056
▁hawaii	-12.8061
▁thoma	-12.8061
royd	-12.8061
▁bust	-12.8061
▁kehl	-12.8063
rid	-12.8064
▁guld	-12.8064
▁knie	-12.8064
▁caballero	-12.8064
▁pussycat	-12.8064
▁gujarat	-12.8064
▁mikhaylov	-12.8064
▁wojci	-12.8065
▁droste	-12.8065
▁pigeon	-12.8065
▁manner	-12.8065
▁komnen	-12.8065
▁brilliant	-12.8065
▁gesell	-12.8065
▁tiefen	-12.8065
▁lefevre	-12.8066
▁mcadam	-12.8066
▁kirby	-12.8066
▁serhi	-12.8067
▁pentti	-12.8067
▁feltri	-12.8067
erlinck	-12.8068
▁deaver	-12.8068
▁baranov	-12.8068
brahe	-12.8068
▁abend	-12.8069
prin	-12.8069
▁element	-12.8069
▁flanner	-12.8072
▁oberwil	-12.8072
▁gadzhi	-12.8072
▁monsi	-12.8072
nysa	-12.8072
▁meren	-12.8073
▁mcgin	-12.8075
▁fulvi	-12.8075
▁sarkis	-12.8075
▁yef	-12.8075
▁burhan	-12.8076
cle	-12.8076
hae	-12.8077
▁bly	-12.8077
▁glukh	-12.8078
▁milne	-12.8079
▁mirr	-12.808
▁marthe	-12.808
▁eichel	-12.8082
▁putt	-12.8082
▁calw	-12.8086
▁malick	-12.8087
▁tull	-12.8087
▁gibra	-12.8088
▁grus	-12.8089
▁golg	-12.8091
fs	-12.8091
oulu	-12.8091
bash	-12.8091
▁blaze	-12.8092
▁javan	-12.8092
agara	-12.8092
▁eisele	-12.8094
▁salga	-12.8095
▁servi	-12.8096
▁mould	-12.8097
▁scheck	-12.8097
▁soti	-12.8097
winkel	-12.8099
▁sandberg	-12.8102
▁mestre	-12.8102
▁bosse	-12.8104
▁scheel	-12.8104
▁lid	-12.8104
adis	-12.8105
▁hermi	-12.8105
▁voron	-12.8105
▁schmel	-12.8106
▁weiden	-12.8106
▁courte	-12.8111
▁kwai	-12.8111
▁kuman	-12.8112
▁conra	-12.8114
umbo	-12.8114
bashev	-12.8114
▁haen	-12.8115
▁khu	-12.8116
▁avig	-12.812
▁goldi	-12.8122
ase	-12.8124
▁blag	-12.8125
liku	-12.8126
▁kac	-12.8127
▁repin	-12.8128
▁koto	-12.8129
▁luka	-12.8129
▁saki	-12.813
▁janel	-12.8131
▁stetten	-12.8133
▁goldene	-12.8133
▁iuri	-12.8134
▁mace	-12.8134
viny	-12.8137
▁aho	-12.8138
▁eu	-12.814
▁goldf	-12.814
▁bachel	-12.8141
▁safavi	-12.8142
▁frit	-12.8144
kat	-12.8145
▁platon	-12.8147
ikolaj	-12.8148
▁eltz	-12.8149
▁xiang	-12.815
▁stoltz	-12.8151
▁zinc	-12.8153
▁holler	-12.8153
▁azar	-12.8154
prit	-12.8161
roniko	-12.8162
▁caz	-12.8162
kazu	-12.8164
marco	-12.8166
▁estes	-12.8166
touch	-12.8166
▁vesel	-12.8166
▁joost	-12.8167
▁abdurrah	-12.8168
▁bettan	-12.8168
assas	-12.8169
entle	-12.8169
▁suprem	-12.8171
eiji	-12.8172
yar	-12.8174
hsan	-12.8174
▁vivien	-12.8176
▁pos	-12.8176
▁aran	-12.8177
▁lasch	-12.8177
▁ionesc	-12.8179
▁hobo	-12.8181
▁sih	-12.8184
vino	-12.8185
▁trio	-12.8186
▁gaud	-12.8188
▁rasp	-12.8188
▁wendi	-12.8189
tenbach	-12.8189
▁herzl	-12.8192
▁encin	-12.8192
azarov	-12.8193
▁wat	-12.8193
ipling	-12.8194
kut	-12.8195
▁singin	-12.8195
▁lupu	-12.8195
▁ovidi	-12.8196
mathi	-12.8197
▁pony	-12.82
▁artemy	-12.8202
▁carrier	-12.8202
▁sales	-12.8202
▁dou	-12.8203
ones	-12.8203
▁muni	-12.8203
elheim	-12.8205
▁niev	-12.8205
▁glyn	-12.8208
aoui	-12.8211
adt	-12.8211
auldin	-12.8211
▁yevgeni	-12.8211
▁octavia	-12.8213
dana	-12.8216
▁tolc	-12.8217
▁boom	-12.8217
▁kami	-12.8217
mbrecht	-12.8217
hollah	-12.8217
▁dail	-12.8218
▁gorki	-12.8219
▁seen	-12.8222
dyk	-12.8224
zzo	-12.8224
▁canni	-12.8224
▁lister	-12.8226
▁vallon	-12.8227
trice	-12.8227
clos	-12.8228
▁lukash	-12.823
▁morel	-12.823
agata	-12.8231
▁schil	-12.8233
▁ruti	-12.8236
▁hamadan	-12.8237
bahn	-12.8238
lapse	-12.8243
imer	-12.8243
ammar	-12.8244
▁verti	-12.8246
kiw	-12.8249
national	-12.8249
fman	-12.8249
tschwil	-12.825
dzhi	-12.825
▁haak	-12.825
carag	-12.8256
▁fist	-12.8262
▁lohn	-12.8263
▁curio	-12.8266
uki	-12.8267
labru	-12.8267
maz	-12.8267
▁arash	-12.8271
belle	-12.8271
▁vysh	-12.8272
▁hunts	-12.8272
▁ceme	-12.8278
nibal	-12.8278
pel	-12.8282
dova	-12.8283
▁misko	-12.8284
cero	-12.8286
apfel	-12.8289
lune	-12.829
▁kozl	-12.8293
▁giannin	-12.8293
wizz	-12.8295
mizu	-12.8295
▁sicili	-12.8296
▁marita	-12.8296
zyb	-12.8297
▁masc	-12.8298
▁mini	-12.8302
▁kirsti	-12.8302
▁urie	-12.8302
nets	-12.8303
▁hin	-12.8303
cloud	-12.8303
chak	-12.8303
goldsmith	-12.8305
▁petrovic	-12.8305
▁shea	-12.8306
onchal	-12.8307
hom	-12.8308
▁yesh	-12.8309
▁dolg	-12.8311
stahl	-12.8311
▁nazim	-12.8311
brea	-12.8311
▁karu	-12.8312
▁mroz	-12.8313
ramat	-12.8313
▁machi	-12.8313
artner	-12.8313
▁dono	-12.8314
▁ragaz	-12.8314
chea	-12.8315
▁chor	-12.8315
▁boland	-12.8317
▁sau	-12.8318
▁oriol	-12.832
▁kalt	-12.8321
▁ake	-12.8322
▁krei	-12.8325
pohl	-12.8329
▁barre	-12.833
▁kary	-12.8331
herita	-12.8331
ensky	-12.8332
▁aneur	-12.8332
priv	-12.8332
▁flour	-12.8333
▁izm	-12.8334
▁brigg	-12.8335
stadte	-12.8339
▁rina	-12.8342
▁millionaire	-12.8342
▁swart	-12.8344
▁mim	-12.8346
▁gaber	-12.8346
▁ogar	-12.8352
oszk	-12.8353
gail	-12.8353
▁dimit	-12.8354
show	-12.8355
▁deja	-12.8356
▁wort	-12.8358
roi	-12.8358
▁waldo	-12.8361
▁pey	-12.8363
▁ax	-12.8364
vic	-12.8367
aige	-12.8368
fredo	-12.8369
▁schep	-12.8377
▁hitz	-12.8377
zzaro	-12.838
▁somers	-12.8381
coll	-12.8382
tfield	-12.8386
abd	-12.8386
▁travers	-12.8386
▁besi	-12.8387
orsted	-12.8388
▁chid	-12.839
tizia	-12.8391
▁ecker	-12.8392
▁bolot	-12.8394
▁blav	-12.8397
ndon	-12.8397
▁qi	-12.8398
mnitz	-12.8399
▁zara	-12.84
tah	-12.8402
▁fadey	-12.8402
ifel	-12.8403
▁llewel	-12.8406
informatic	-12.8406
▁gladiator	-12.8406
▁kharitonov	-12.8406
▁practic	-12.8406
▁hurmuza	-12.8406
bethune	-12.8406
▁kickbox	-12.8406
▁aden	-12.8406
▁hokkai	-12.8406
▁schupf	-12.8406
▁toulon	-12.8406
▁septim	-12.8406
▁spice	-12.8406
atigorsk	-12.8407
▁beauclerk	-12.8407
▁wound	-12.8407
kudz	-12.8407
▁crouch	-12.8407
lourde	-12.8408
▁nemirov	-12.8408
▁hoar	-12.8408
znach	-12.8408
▁anhalt	-12.8408
▁blig	-12.8408
▁asmus	-12.8408
▁schlichte	-12.8409
▁strad	-12.8409
▁rutsch	-12.8409
▁stratton	-12.8409
▁stowe	-12.841
▁diefenba	-12.841
▁battag	-12.841
cocca	-12.8411
▁rosenstock	-12.8411
▁haack	-12.8411
▁kono	-12.8411
▁traus	-12.8411
cheol	-12.8413
▁kap	-12.8413
hazia	-12.8413
▁delillo	-12.8413
▁holbrook	-12.8414
▁nettelb	-12.8414
▁tragic	-12.8414
schlacht	-12.8416
▁weise	-12.8416
▁lamont	-12.8416
▁egge	-12.8417
▁tier	-12.8417
▁maximili	-12.8417
▁uber	-12.8417
▁maury	-12.8417
▁rauch	-12.8417
▁tryg	-12.8419
▁boix	-12.8419
▁voltair	-12.842
▁luscher	-12.8421
jah	-12.8422
▁dvor	-12.8422
▁arnd	-12.8423
yol	-12.8423
kriegel	-12.8424
▁aich	-12.8425
wn	-12.8425
▁aleksan	-12.8426
unit	-12.8427
garden	-12.8427
irim	-12.8428
hut	-12.8428
▁tritt	-12.8429
▁flush	-12.843
▁kerim	-12.8431
▁lull	-12.8431
▁dip	-12.8431
▁reina	-12.8431
▁skie	-12.8431
chao	-12.8432
▁eyck	-12.8433
himm	-12.8434
▁christoffer	-12.8434
▁schor	-12.8434
▁porcar	-12.8434
▁gabel	-12.8434
▁finz	-12.8435
▁nemes	-12.8435
cris	-12.8436
▁mila	-12.8436
▁gorilla	-12.8438
palli	-12.8439
heni	-12.844
▁stack	-12.844
ewitsch	-12.844
▁kanda	-12.8441
▁deng	-12.8445
▁ait	-12.8449
crack	-12.845
▁tico	-12.845
▁pagan	-12.8452
byss	-12.8452
▁stoi	-12.8453
hnica	-12.8453
▁friel	-12.8454
▁beech	-12.8456
▁friz	-12.8458
eler	-12.8458
ffert	-12.8459
▁inch	-12.8459
ieck	-12.846
▁kugel	-12.8462
dget	-12.8462
tzsch	-12.8463
▁basi	-12.8463
▁junker	-12.8464
▁caden	-12.8465
▁teck	-12.8465
ohlin	-12.8467
zahn	-12.8468
ferrand	-12.8469
▁flim	-12.8469
▁jayant	-12.8469
▁frut	-12.8469
▁shali	-12.847
▁nann	-12.847
▁gmund	-12.8473
▁benni	-12.8473
▁dienst	-12.8474
▁rep	-12.8475
▁wunder	-12.8477
▁luzi	-12.8477
▁yah	-12.8478
▁bohmer	-12.8479
▁osmos	-12.848
▁cosmo	-12.848
▁meig	-12.8481
gyes	-12.8481
scotch	-12.8483
▁waitz	-12.8484
ibor	-12.8488
▁studer	-12.8492
glau	-12.8493
▁tiss	-12.8494
▁sco	-12.8494
nasse	-12.8496
▁veil	-12.8496
▁weizman	-12.8497
▁zier	-12.8497
▁knorr	-12.8499
wiler	-12.8499
margall	-12.8499
▁grem	-12.85
bubba	-12.8502
ellen	-12.8502
busters	-12.8502
ropov	-12.8503
ritz	-12.8505
▁valenti	-12.8505
▁mistr	-12.8505
gilman	-12.8508
▁sabba	-12.8509
ixell	-12.851
elidi	-12.851
▁kunz	-12.851
▁vou	-12.8511
zsa	-12.8512
▁aph	-12.8515
▁kage	-12.8516
▁milli	-12.8516
gild	-12.8518
▁morto	-12.852
▁herg	-12.8522
▁zerb	-12.8523
▁brack	-12.8524
▁cowl	-12.8525
▁zain	-12.8526
ustafa	-12.8527
▁cray	-12.8527
▁schwalba	-12.8529
lomo	-12.853
▁sax	-12.8531
▁egli	-12.8533
▁mair	-12.8536
▁pavlo	-12.8537
thorne	-12.8539
▁while	-12.8539
▁besse	-12.854
singhu	-12.854
oteas	-12.8542
▁felb	-12.8545
sitter	-12.8548
▁luzh	-12.8549
▁chick	-12.8549
▁dressel	-12.855
▁demetri	-12.855
▁carlin	-12.8551
ayonne	-12.8551
▁vass	-12.8554
▁gump	-12.8554
hde	-12.8555
dera	-12.8555
osthe	-12.8555
▁ewan	-12.8556
▁zve	-12.8556
▁vardi	-12.856
▁kher	-12.8563
▁zitt	-12.8564
lardi	-12.8565
ausser	-12.8565
▁gesta	-12.8568
einem	-12.8571
▁iman	-12.8571
▁insid	-12.8571
▁masi	-12.8573
gert	-12.8574
arros	-12.8576
▁gest	-12.8578
▁schmei	-12.8578
▁mikel	-12.8581
▁marjan	-12.8582
▁telle	-12.8583
▁buj	-12.8583
▁brial	-12.8586
▁guler	-12.8587
▁inga	-12.859
▁clas	-12.8593
eckert	-12.8595
▁cavi	-12.8596
just	-12.8598
▁perle	-12.8599
▁slot	-12.8599
▁weitz	-12.86
▁ripper	-12.86
tzki	-12.8602
lough	-12.8603
mor	-12.8603
▁kristo	-12.8604
▁gint	-12.8604
ash	-12.8604
▁jemi	-12.8605
[...]
