<unk>	0
<s>	0
</s>	0
<pad>	0
▁	-2.00961
|	-2.13858
t	-2.76757
:	-2.80546
▁predic	-2.83172
▁head	-3.52416
▁tail	-3.52475
s	-3.67282
▁contain	-4.1277
▁number	-4.39739
tion	-4.40185
▁popula	-4.40736
ed	-4.48776
▁of	-4.77932
▁by	-4.79381
▁m	-4.91431
▁no	-4.94136
,	-4.97708
▁type	-5.0114
table	-5.0816
/	-5.24462
.	-5.26831
▁time	-5.50143
▁zone	-5.5214
.0	-5.60981
▁united	-5.72574
-	-5.7343
▁states	-5.78245
▁the	-5.82255
▁japan	-5.8294
▁de	-5.83824
▁station	-5.84516
▁city	-5.88418
▁in	-5.91992
town	-6.07981
y	-6.0965
)	-6.10217
village	-6.11264
▁america	-6.16177
▁russia	-6.24559
▁location	-6.27554
▁date	-6.27663
n	-6.44837
▁illinois	-6.49737
▁film	-6.58597
'	-6.60127
1	-6.60719
(	-6.60881
2	-6.61314
4	-6.63128
▁works	-6.64594
▁spain	-6.66036
al	-6.67711
3	-6.67773
5	-6.68013
▁this	-6.68036
▁canada	-6.72538
a	-6.74658
▁ama	-6.75056
deus	-6.7583
▁mozart	-6.75904
▁wolfgang	-6.76096
▁la	-6.77182
l	-6.77603
6	-6.80751
▁china	-6.81005
7	-6.81058
8	-6.81806
▁book	-6.84395
▁university	-6.86603
▁college	-6.871
9	-6.885
▁country	-6.88633
▁(	-6.89247
o	-6.90501
▁position	-6.90628
▁compos	-6.91745
0	-6.92524
▁mean	-6.93506
▁composer	-6.93814
▁greenwich	-6.94423
z	-6.95988
▁k	-6.98402
▁and	-6.98717
▁stop	-7.01846
▁transit	-7.02378
c	-7.0242
▁lake	-7.0418
k	-7.04229
▁county	-7.04656
gender	-7.05721
.04	-7.06554
▁district	-7.06613
h	-7.08398
j	-7.10461
▁profession	-7.10778
▁place	-7.10901
▁for	-7.11517
e	-7.13459
▁airport	-7.14809
▁central	-7.16647
▁performances	-7.17865
▁township	-7.19058
▁publication	-7.19331
▁male	-7.19879
▁san	-7.20916
▁a	-7.21074
▁publish	-7.21877
▁editions	-7.22324
▁recordings	-7.23968
▁office	-7.25804
ing	-7.28698
▁government	-7.29812
▁river	-7.3003
m	-7.31974
b	-7.32451
g	-7.32906
r	-7.35327
▁mexico	-7.36336
000	-7.36414
d	-7.36909
▁del	-7.37971
▁nationalit	-7.38775
university	-7.39982
_	-7.43678
▁major	-7.45046
▁birth	-7.45697
▁ii	-7.47679
▁i	-7.47702
▁officeholder	-7.49736
▁house	-7.50189
▁park	-7.51352
▁tower	-7.51849
▁people	-7.5748
▁actor	-7.57622
▁montana	-7.58677
▁v	-7.58694
.09	-7.61819
▁here	-7.64077
▁new	-7.64748
▁genre	-7.65346
w	-7.65727
▁born	-7.66972
▁language	-7.67502
▁battle	-7.6768
▁el	-7.68558
▁w	-7.70014
▁krai	-7.71574
▁event	-7.71667
.05	-7.72624
i	-7.72657
▁title	-7.73345
▁d	-7.73786
▁start	-7.74042
v	-7.74282
▁to	-7.75337
▁krasnodar	-7.76815
▁held	-7.78179
▁life	-7.78797
f	-7.83093
▁north	-7.83267
p	-7.8402
▁bob	-7.84502
▁war	-7.8557
▁representatives	-7.87807
▁world	-7.87967
▁european	-7.89337
er	-7.89681
▁charles	-7.91943
▁act	-7.92963
▁john	-7.93541
▁fran	-7.94495
▁dylan	-7.94524
▁team	-7.95418
▁liszt	-7.96262
q	-7.96642
▁island	-7.97919
▁is	-7.98139
▁chicago	-7.98737
ritten	-8.0176
▁languages	-8.01966
▁richard	-8.05076
if	-8.05538
▁author	-8.07419
▁open	-8.07527
x	-8.08321
.02	-8.08829
▁from	-8.08899
ha	-8.08915
▁court	-8.10288
▁school	-8.11007
▁member	-8.12055
▁end	-8.12118
▁scene	-8.14077
an	-8.15662
▁one	-8.17271
or	-8.17306
▁on	-8.17502
▁south	-8.18702
▁death	-8.19312
▁official	-8.19823
ve	-8.20341
▁representative	-8.21968
▁american	-8.22354
▁national	-8.22509
.03	-8.22643
▁saint	-8.22852
▁prefecture	-8.23068
▁body	-8.2312
▁los	-8.23159
▁building	-8.23237
▁christie	-8.2377
▁international	-8.24006
us	-8.24263
▁g	-8.24744
▁mountain	-8.24872
▁region	-8.24933
▁player	-8.26652
▁santa	-8.268
▁iii	-8.26974
▁province	-8.27642
▁west	-8.29012
▁origin	-8.29114
▁campus	-8.29121
▁or	-8.29148
▁part	-8.29422
▁govern	-8.29525
▁republic	-8.30756
▁post	-8.31041
▁oblast	-8.31071
▁near	-8.31327
▁jurisdiction	-8.32616
▁division	-8.35032
▁orchestra	-8.35792
▁puerto	-8.35859
▁wagner	-8.36972
▁c	-8.37935
▁museum	-8.3974
▁holder	-8.4104
▁james	-8.42399
▁2	-8.42934
es	-8.43492
▁teams	-8.43935
▁main	-8.44246
▁kansas	-8.4502
▁bay	-8.4593
▁robert	-8.46698
▁center	-8.47178
▁senator	-8.47427
▁tourist	-8.47502
▁english	-8.47652
▁agat	-8.47849
▁attraction	-8.47953
▁b	-8.48601
▁politician	-8.49856
▁york	-8.51054
▁drama	-8.51599
▁administrati	-8.5225
▁skyscraper	-8.53135
▁piano	-8.54337
▁thomas	-8.56362
▁dickens	-8.57434
▁state	-8.57617
▁series	-8.59189
▁lee	-8.63163
▁football	-8.63939
▁f	-8.64216
▁found	-8.65001
flat	-8.65098
▁supreme	-8.65364
▁massachusetts	-8.66446
▁prominen	-8.66627
▁rico	-8.66714
▁album	-8.66899
▁e	-8.67791
en	-8.68547
▁william	-8.70123
▁claude	-8.70362
▁hong	-8.70661
▁jackson	-8.70699
▁destination	-8.71371
volved	-8.71467
▁religion	-8.71603
▁travel	-8.72038
▁george	-8.72045
▁kingdom	-8.72521
▁debussy	-8.7306
▁include	-8.73189
▁egypt	-8.73193
▁countries	-8.73879
entity	-8.74081
▁kong	-8.74362
▁le	-8.74797
u	-8.75843
▁arizona	-8.76954
▁islands	-8.77115
▁little	-8.78744
▁cases	-8.79242
on	-8.79376
▁character	-8.79973
▁east	-8.80096
▁legal	-8.80549
sky	-8.80687
▁includ	-8.80867
▁easter	-8.81622
▁die	-8.82648
▁militar	-8.82868
son	-8.8336
▁operation	-8.83379
▁michael	-8.83599
▁basi	-8.85769
▁conflict	-8.86126
▁spoke	-8.8668
▁first	-8.86832
▁cercle	-8.87236
▁las	-8.87277
la	-8.87676
by	-8.88684
▁mount	-8.88791
▁ontario	-8.88811
▁department	-8.8938
▁area	-8.89506
▁church	-8.8967
▁creat	-8.90795
▁mark	-8.92031
▁female	-8.92744
▁washington	-8.93322
.010	-8.93564
roster	-8.93931
▁code	-8.9415
▁education	-8.94166
▁cup	-8.94301
ish	-8.94681
▁darwin	-8.95131
▁stan	-8.95538
▁league	-8.9598
▁municipality	-8.95982
▁co	-8.96479
ins	-8.97598
▁david	-8.9776
▁di	-8.97843
▁plaza	-8.98023
▁juan	-8.98362
▁release	-8.98759
▁initia	-8.98829
ly	-8.99822
▁dahl	-9.00495
▁statistic	-9.00593
▁parent	-9.00977
▁mari	-9.0186
▁guatemala	-9.02431
▁award	-9.02461
▁roald	-9.02526
in	-9.02802
▁music	-9.03099
00	-9.03343
▁senate	-9.03967
10	-9.04661
▁adjo	-9.05832
▁fiction	-9.05973
▁creek	-9.05993
ka	-9.06286
▁governor	-9.06566
▁honduras	-9.07049
▁hotel	-9.07192
▁children	-9.07258
▁tom	-9.07451
▁second	-9.07754
▁trail	-9.0842
▁man	-9.09578
copa	-9.09607
▁you	-9.09867
▁garden	-9.10214
▁hills	-9.10608
▁jefferson	-9.10934
▁dominican	-9.12062
▁villa	-9.12739
▁with	-9.12799
▁tokyo	-9.13194
▁president	-9.13669
▁hill	-9.13972
29	-9.14319
▁rio	-9.14385
▁taylor	-9.15114
▁level	-9.1542
▁grove	-9.1563
▁ernest	-9.15717
▁sant	-9.15808
▁pacific	-9.16256
▁maria	-9.16261
ville	-9.16269
▁codes	-9.16349
▁minor	-9.16482
da	-9.17397
▁institute	-9.17533
▁technology	-9.1812
▁union	-9.1872
▁universidad	-9.19149
▁salvador	-9.19497
▁francisco	-9.19499
▁toronto	-9.19806
▁institution	-9.20137
▁wimbledon	-9.20271
▁franklin	-9.20273
▁du	-9.20785
▁brit	-9.21073
▁rock	-9.21153
50	-9.21622
▁henry	-9.22039
man	-9.22067
▁name	-9.2221
▁coast	-9.22502
▁england	-9.22629
▁great	-9.2293
▁at	-9.22998
▁barbados	-9.23015
▁hemingway	-9.23107
▁panama	-9.23392
ya	-9.24063
▁centre	-9.24639
▁science	-9.2502
▁autonomo	-9.25055
▁bridge	-9.25108
▁sports	-9.25192
26	-9.25279
▁martin	-9.25668
▁white	-9.25693
.07	-9.26411
▁me	-9.26519
▁disney	-9.27345
▁akt	-9.28416
▁lawyer	-9.28694
87	-9.28901
▁jose	-9.2897
re	-9.29908
▁iv	-9.29977
▁robinson	-9.30057
▁moscow	-9.30154
▁cuba	-9.30765
▁atlantic	-9.30869
▁starr	-9.30959
04	-9.31171
▁heights	-9.31316
▁home	-9.31556
▁art	-9.31633
▁jamaica	-9.31645
▁london	-9.31688
▁costa	-9.32413
▁stadium	-9.33268
▁burns	-9.33532
▁serve	-9.33713
▁stanley	-9.33725
▁sonata	-9.33897
▁twain	-9.34075
.0_	-9.34277
▁black	-9.34588
▁dallas	-9.34611
▁business	-9.34688
de	-9.34695
▁und	-9.34846
▁don	-9.35178
▁valley	-9.35303
▁szene	-9.35331
▁allegro	-9.35897
▁benjamin	-9.35951
io	-9.36284
ra	-9.36633
▁rica	-9.36685
▁love	-9.36784
▁metro	-9.36786
▁shanghai	-9.3697
▁inc	-9.37688
39	-9.37695
ina	-9.37792
▁season	-9.37954
ji	-9.38224
▁smith	-9.3863
aya	-9.39118
▁paul	-9.39364
▁walt	-9.39428
.11	-9.39566
▁company	-9.39762
06	-9.4006
▁sierra	-9.40135
▁will	-9.40142
▁brown	-9.40177
28	-9.40641
▁height	-9.4084
▁lincoln	-9.41198
90	-9.41223
▁laura	-9.41296
▁california	-9.41475
▁saskatchewan	-9.41475
ku	-9.41509
▁nishi	-9.41512
ia	-9.41639
▁2004	-9.41714
▁chorus	-9.42248
▁violin	-9.42415
▁madrid	-9.4244
▁mobile	-9.42553
▁ivor	-9.42762
▁grand	-9.42778
▁symphony	-9.42881
▁higashi	-9.42901
crt	-9.42932
▁re	-9.43035
▁castle	-9.43223
▁group	-9.43339
▁les	-9.43444
▁high	-9.43513
▁arrondissement	-9.4361
▁point	-9.43661
▁structur	-9.43669
▁regional	-9.43829
▁women	-9.44005
▁nike	-9.441
▁columbia	-9.44203
42	-9.44382
03	-9.4483
01	-9.44973
▁beverly	-9.44993
▁structure	-9.45532
▁championships	-9.45659
05	-9.45719
▁spouse	-9.45792
▁2003	-9.45816
▁germany	-9.45928
▁dam	-9.45936
▁quebec	-9.4602
12	-9.46373
▁mali	-9.46386
99	-9.46545
02	-9.4682
▁2007	-9.4724
▁adventure	-9.47344
no	-9.4736
▁torre	-9.47478
41	-9.47511
▁finals	-9.47999
▁2006	-9.48255
35	-9.48295
▁hall	-9.48337
▁swift	-9.48433
▁murder	-9.4855
vb	-9.4876
▁secret	-9.48982
▁virginia	-9.49266
▁2005	-9.49296
▁red	-9.49331
▁der	-9.499
81	-9.5007
85	-9.50151
▁site	-9.50155
ern	-9.50348
▁classics	-9.50526
▁port	-9.50629
▁joseph	-9.50693
▁civil	-9.50935
▁cat	-9.51387
▁instance	-9.52013
▁action	-9.52117
31	-9.52213
▁vi	-9.52345
▁1999	-9.52443
59	-9.53472
▁beach	-9.53694
▁dubai	-9.53717
▁diver	-9.53718
▁louis	-9.53808
▁jr	-9.53908
▁p	-9.54327
62	-9.54488
▁ridge	-9.54629
▁2002	-9.54634
▁old	-9.54704
▁my	-9.54784
64	-9.54836
14	-9.55009
21	-9.55133
68	-9.55157
27	-9.55231
60	-9.55284
▁valencia	-9.55298
timent	-9.55302
33	-9.55314
63	-9.5544
▁episode	-9.55468
▁musical	-9.55683
16	-9.55688
ity	-9.55833
08	-9.55916
▁king	-9.56346
▁france	-9.56457
▁estates	-9.56655
▁mass	-9.56748
40	-9.5693
hn	-9.57128
45	-9.57446
▁miami	-9.57477
▁shin	-9.57477
cr	-9.58328
▁blue	-9.59041
▁big	-9.59098
le	-9.59159
▁recitativo	-9.59317
▁basin	-9.59323
▁concerto	-9.59367
80	-9.59556
52	-9.59579
▁soloists	-9.59755
22	-9.59805
▁roman	-9.59818
mokey	-9.5985
30	-9.59889
44	-9.60303
▁kv	-9.60486
ringo	-9.60628
ic	-9.60795
77	-9.61052
▁christmas	-9.61148
▁sea	-9.61171
11	-9.61243
95	-9.61344
▁denver	-9.61617
ry	-9.61726
▁green	-9.6173
54	-9.61991
74	-9.62375
▁cleary	-9.62575
▁madison	-9.62662
09	-9.63134
▁charlie	-9.63275
▁collection	-9.63311
51	-9.63589
▁ocean	-9.63738
▁adventures	-9.63876
▁variations	-9.64325
25	-9.64329
▁net	-9.64364
▁cruz	-9.64485
24	-9.65065
▁carolina	-9.6522
▁mar	-9.65249
88	-9.65252
73	-9.65288
▁characters	-9.6532
07	-9.65583
▁real	-9.65765
ko	-9.65776
ial	-9.65847
land	-9.65919
19	-9.65931
69	-9.66038
ton	-9.66059
91	-9.6617
flix	-9.66182
▁medica	-9.66248
15	-9.66746
▁2001	-9.66986
23	-9.67103
▁prairie	-9.67197
▁wilder	-9.6743
47	-9.67436
▁prince	-9.67497
▁asia	-9.67557
34	-9.67575
89	-9.67585
▁represent	-9.67678
▁long	-9.67803
▁catholicism	-9.68025
57	-9.68105
▁square	-9.68169
▁2000	-9.68248
▁sun	-9.68266
el	-9.68361
▁alberta	-9.68483
▁colors	-9.68733
▁ingalls	-9.68924
related	-9.68933
65	-9.69116
▁beijing	-9.69431
13	-9.69538
▁villanueva	-9.69686
55	-9.70037
78	-9.7033
cho	-9.70451
▁colombia	-9.70452
98	-9.70639
▁browne	-9.70819
66	-9.70884
▁juni	-9.70925
▁tv	-9.71007
70	-9.71042
na	-9.71052
84	-9.71154
▁two	-9.71545
kh	-9.71573
86	-9.71591
▁aircraft	-9.71743
17	-9.71779
20	-9.71957
94	-9.72057
▁pedro	-9.72242
▁osaka	-9.72363
▁midlands	-9.7246
43	-9.7258
▁mystery	-9.72584
46	-9.72873
83	-9.72958
▁abraham	-9.73051
93	-9.73527
▁michigan	-9.73844
97	-9.73905
▁edward	-9.7398
▁super	-9.74036
▁arab	-9.74353
▁after	-9.74376
▁baseball	-9.74377
▁night	-9.74499
▁daniel	-9.74675
▁12	-9.74808
▁minaj	-9.75181
▁angeles	-9.75187
▁nicki	-9.75203
▁cowboys	-9.75234
▁star	-9.75252
96	-9.75595
▁air	-9.75654
▁aria	-9.75865
▁valle	-9.75921
do	-9.75942
ma	-9.75953
▁williams	-9.75964
82	-9.76109
▁georgia	-9.76542
jw	-9.76554
▁nicaragua	-9.76807
▁leon	-9.76893
▁be	-9.7725
▁minuet	-9.77624
go	-9.77639
▁texas	-9.77907
▁feature	-9.78184
▁74	-9.78569
▁all	-9.78936
36	-9.79028
▁stories	-9.79061
ml	-9.79078
53	-9.79199
iy	-9.79423
48	-9.79824
ch	-9.79945
▁virgin	-9.80135
32	-9.80154
ne	-9.80221
▁water	-9.80675
▁campaign	-9.80696
▁111	-9.80716
▁role	-9.8086
▁cause	-9.80875
72	-9.81554
▁kita	-9.81761
nced	-9.81828
flue	-9.82142
.064	-9.82449
▁street	-9.82483
71	-9.82771
ki	-9.82858
▁bill	-9.82993
mae	-9.83069
▁catholic	-9.83303
▁mary	-9.83319
▁van	-9.83323
▁canton	-9.83432
▁peninsula	-9.84476
agath	-9.84723
49	-9.84746
▁emirates	-9.85089
75	-9.85157
18	-9.85412
▁joan	-9.85692
▁bowl	-9.85757
ah	-9.85796
▁theatre	-9.85964
▁il	-9.86046
▁bell	-9.8612
▁frank	-9.86156
67	-9.86172
▁pope	-9.86297
▁papers	-9.86489
▁jean	-9.86531
▁tibet	-9.86537
▁aus	-9.86581
61	-9.86615
yama	-9.8662
un	-9.86856
▁barcelona	-9.86866
79	-9.87235
za	-9.8751
56	-9.8793
▁child	-9.88082
ie	-9.88116
▁queen	-9.88612
▁florida	-9.89005
▁1996	-9.89025
egory	-9.89314
▁floor	-9.89314
▁philadelphia	-9.89314
▁id	-9.89384
▁railway	-9.89625
▁et	-9.8963
▁greenland	-9.89633
58	-9.89988
▁135	-9.90158
▁voice	-9.90197
▁asturias	-9.90248
bw	-9.90355
▁haiti	-9.90367
▁sawyer	-9.90579
▁ciudad	-9.90819
▁victoria	-9.90886
vx	-9.90969
▁trinidad	-9.91507
▁minami	-9.91535
▁nam	-9.91681
▁ja	-9.91902
western	-9.92131
▁subject	-9.92142
▁do	-9.92167
.011	-9.9246
ga	-9.92586
se	-9.92786
▁horns	-9.92795
jx	-9.92894
machi	-9.92949
▁miguel	-9.93068
▁santiago	-9.93103
▁power	-9.93118
ro	-9.93367
▁forest	-9.93395
▁year	-9.93478
▁matt	-9.93527
37	-9.93564
▁organization	-9.93663
graduate	-9.93749
▁broncos	-9.93749
▁parish	-9.93825
▁volume	-9.94074
▁christopher	-9.94397
▁1998	-9.94426
▁missouri	-9.94538
▁antonio	-9.94557
▁rousseau	-9.94725
▁ramona	-9.9527
▁chris	-9.95323
76	-9.95414
wood	-9.95544
▁colorado	-9.95712
▁hokkaido	-9.95712
▁vega	-9.95812
▁johnson	-9.95813
▁german	-9.95918
▁summer	-9.96029
▁public	-9.96586
▁196	-9.97027
▁story	-9.97391
▁quartet	-9.97413
▁partial	-9.97417
il	-9.9749
▁kentucky	-9.97713
▁grande	-9.97792
▁bank	-9.9784
▁career	-9.98055
nd	-9.98217
▁fred	-9.98447
▁dolphins	-9.98493
▁oak	-9.98544
kv	-9.98583
ur	-9.98673
▁jules	-9.9873
kr	-9.9875
▁verne	-9.98775
jy	-9.98816
▁historic	-9.98927
ri	-9.98994
shi	-9.99179
▁kyushu	-9.99191
▁puebla	-9.99216
he	-9.99325
▁prime	-9.9941
▁academy	-9.99756
▁australia	-9.99757
▁vol	-9.99963
▁campo	-9.99971
be	-10.0006
▁europe	-10.0007
▁cerro	-10.001
ian	-10.0027
▁jones	-10.0046
▁2012	-10.005
▁das	-10.0055
▁tobago	-10.0114
▁italy	-10.0149
ba	-10.0163
▁produc	-10.0182
▁temple	-10.0184
▁xi	-10.0193
▁morgan	-10.0197
▁1997	-10.0223
▁minister	-10.029
▁fantasy	-10.0326
▁list	-10.0336
▁it	-10.0336
▁leaders	-10.0342
▁valles	-10.0343
ley	-10.0346
▁monte	-10.0357
▁connecticut	-10.0361
▁venue	-10.0361
▁nu	-10.0361
▁fox	-10.0362
regular	-10.0362
▁2008	-10.0393
▁cities	-10.0398
▁2013	-10.0404
▁mike	-10.0407
▁johnny	-10.0435
▁1992	-10.0436
▁royal	-10.0446
ai	-10.0461
▁kennedy	-10.0469
▁cove	-10.048
▁cd	-10.0483
▁carol	-10.0485
▁10	-10.0504
▁pennsylvania	-10.0505
▁participa	-10.0505
▁arts	-10.0506
bc	-10.0509
38	-10.0537
▁ben	-10.0551
li	-10.0598
▁joe	-10.0631
▁samuel	-10.0651
▁fan	-10.0655
▁sport	-10.0657
▁winner	-10.0657
▁an	-10.0672
▁tristan	-10.0673
▁peter	-10.0676
▁won	-10.0704
wk	-10.0719
▁jim	-10.0724
▁palace	-10.0762
▁about	-10.0763
▁partner	-10.0769
▁boston	-10.0784
▁pass	-10.0787
▁scott	-10.0836
▁dakota	-10.0837
.04_8	-10.0847
▁fa	-10.0854
▁student	-10.0884
▁halifax	-10.0885
co	-10.0893
▁portra	-10.0909
du	-10.0917
berry	-10.0928
.06	-10.0932
gx	-10.0947
▁gold	-10.0958
guchi	-10.0959
▁awards	-10.0973
▁normal	-10.099
▁mr	-10.0992
▁isolde	-10.0993
▁range	-10.0995
▁woods	-10.1064
▁medicine	-10.1065
▁andante	-10.1066
cg	-10.1073
▁sa	-10.1077
up	-10.1097
92	-10.1098
▁oregon	-10.1103
▁indiana	-10.1112
ling	-10.1115
vc	-10.1121
gawa	-10.1124
▁camp	-10.1145
▁2009	-10.1154
▁french	-10.1163
▁song	-10.1177
ll	-10.1197
ung	-10.1215
▁jersey	-10.1218
▁geographic	-10.1219
▁ohio	-10.1219
▁form	-10.1259
▁day	-10.1261
▁1995	-10.1262
▁men	-10.1266
jacques	-10.1276
▁model	-10.1299
▁von	-10.132
▁can	-10.1322
▁party	-10.1322
.012	-10.1395
little	-10.1429
▁students	-10.1446
▁four	-10.1458
▁626	-10.1464
▁zealand	-10.1496
▁mysteries	-10.1496
▁tale	-10.1504
▁girl	-10.1522
bashi	-10.1536
▁was	-10.1553
bo	-10.1562
▁domestic	-10.1576
▁view	-10.158
▁strings	-10.1585
▁springs	-10.1591
▁montreal	-10.1634
▁claus	-10.1657
▁pour	-10.1658
▁metropolitan	-10.1686
▁rey	-10.1694
▁con	-10.1735
▁howard	-10.1739
▁pre	-10.1743
▁library	-10.175
▁1989	-10.1785
▁africa	-10.1788
▁other	-10.1808
▁fuente	-10.1816
▁tennessee	-10.1821
▁harry	-10.1822
▁mysterio	-10.1828
▁law	-10.1886
ar	-10.1892
▁guadeloupe	-10.1904
▁frontera	-10.1904
▁ryan	-10.1905
▁requiem	-10.1941
▁crawford	-10.1946
▁governorate	-10.1946
▁2011	-10.1972
▁alexander	-10.1988
▁chubu	-10.1988
▁delaware	-10.2019
▁frederick	-10.2031
▁as	-10.2035
▁edmonton	-10.2048
▁atlanta	-10.2072
.04_7	-10.2073
▁1984	-10.2077
▁she	-10.2085
▁spring	-10.2094
▁aragon	-10.2127
▁winners	-10.2154
▁guangzhou	-10.2201
▁freeman	-10.2202
nba	-10.2238
▁davis	-10.2244
▁burnett	-10.2245
▁554	-10.2263
▁young	-10.2269
▁road	-10.228
▁hodg	-10.2287
▁heart	-10.229
▁burk	-10.2327
▁recurr	-10.233
▁three	-10.233
▁peak	-10.2334
▁frances	-10.2359
▁granada	-10.2374
mi	-10.2378
▁letters	-10.238
▁paris	-10.2416
▁lucia	-10.2434
▁golden	-10.2464
▁cathedral	-10.2501
▁un	-10.2505
▁carlos	-10.2517
kk	-10.2536
xg	-10.2538
▁scotia	-10.255
▁nacional	-10.255
ological	-10.2552
.040	-10.2559
▁recording	-10.2566
▁mountains	-10.2571
▁po	-10.2576
▁edition	-10.2577
▁houston	-10.2595
▁1987	-10.2599
▁da	-10.2606
▁campos	-10.2612
▁tohoku	-10.264
▁ghana	-10.2641
▁maple	-10.2684
▁faso	-10.2685
▁1993	-10.2689
hara	-10.2728
▁floyd	-10.273
▁martinique	-10.273
wv	-10.2739
▁original	-10.2742
▁fint	-10.2754
▁stone	-10.2755
▁maryland	-10.2776
▁11	-10.2778
▁club	-10.279
▁harbour	-10.2821
▁ethnic	-10.2821
▁precinct	-10.2821
▁convoy	-10.2821
▁special	-10.2823
▁1994	-10.2826
▁kami	-10.2837
▁cape	-10.2861
▁henan	-10.2867
▁african	-10.2884
▁adygea	-10.2913
▁mississippi	-10.2913
▁patrick	-10.2913
▁sam	-10.2917
▁adam	-10.2935
▁andrew	-10.2937
▁bass	-10.294
▁fukuoka	-10.2951
▁under	-10.2968
▁2010	-10.2976
skiy	-10.2991
▁minnesota	-10.3005
▁go	-10.3012
ng	-10.3013
▁santo	-10.3045
▁caribbean	-10.3052
▁memorial	-10.3052
▁so	-10.3075
▁lord	-10.308
gnis	-10.309
▁acres	-10.3099
▁jack	-10.3108
ana	-10.3109
dai	-10.3129
▁492	-10.3137
▁sur	-10.3139
▁basketball	-10.3146
wa	-10.3185
▁carradine	-10.3193
▁band	-10.3213
▁championship	-10.3225
▁albert	-10.3233
▁subdivision	-10.3241
▁falls	-10.3243
▁cosi	-10.3244
▁1991	-10.3247
▁vii	-10.3256
▁best	-10.3279
▁61	-10.3281
▁way	-10.3285
▁hospital	-10.3288
▁neighborhood	-10.3289
▁kansa	-10.3294
▁petersburg	-10.3309
▁dominica	-10.3335
▁tianjin	-10.3337
▁navy	-10.3337
▁1985	-10.3342
▁46	-10.3351
▁luis	-10.3363
▁champion	-10.3371
wh	-10.3382
▁1990	-10.3387
▁blues	-10.339
▁boy	-10.3396
▁ar	-10.3399
▁francis	-10.3405
opic	-10.3413
lived	-10.3418
▁garcia	-10.3418
▁stephen	-10.3431
▁history	-10.3434
▁arthur	-10.3434
▁hebei	-10.3434
▁diego	-10.3436
▁performance	-10.3472
▁plummer	-10.3482
▁borough	-10.35
▁606	-10.3507
▁india	-10.3515
▁tutte	-10.3531
1_	-10.357
▁alba	-10.358
▁alicante	-10.358
▁rose	-10.3595
the	-10.3601
▁bar	-10.3607
bel	-10.3637
▁family	-10.3659
ine	-10.3674
▁serenade	-10.3725
▁zhejiang	-10.373
▁anh	-10.374
▁zac	-10.3759
▁ma	-10.3789
▁li	-10.3811
▁tim	-10.3826
▁lot	-10.3834
▁your	-10.3845
▁places	-10.3857
▁kyoto	-10.3881
▁monastery	-10.3881
▁1988	-10.3885
▁version	-10.3909
▁douglas	-10.391
▁palmas	-10.3913
▁nick	-10.3929
▁armenia	-10.3932
▁glen	-10.397
chi	-10.3971
▁jordan	-10.3983
▁capital	-10.3983
▁community	-10.3983
ca	-10.3987
▁1986	-10.3988
▁51	-10.399
▁poirot	-10.4003
▁fleet	-10.4035
▁franco	-10.404
um	-10.4047
▁chongqing	-10.4049
▁trio	-10.4049
▁527	-10.4081
▁588	-10.4097
▁canadi	-10.4109
▁cairo	-10.4138
▁netherlands	-10.4152
field	-10.4153
ou	-10.4167
▁bahamas	-10.4247
▁field	-10.4277
▁princess	-10.4311
▁silver	-10.4326
di	-10.4346
))	-10.4352
▁games	-10.4354
▁15	-10.4379
ino	-10.439
▁nanjing	-10.4403
▁wiesel	-10.4403
ory	-10.4403
▁crossing	-10.4407
wc	-10.4445
▁oklahoma	-10.4456
▁sachar	-10.4457
▁folk	-10.4468
▁wilson	-10.4509
▁giovanni	-10.451
▁vincent	-10.451
▁1983	-10.4514
▁manuel	-10.4518
ni	-10.4526
▁gran	-10.4539
▁we	-10.4549
▁josh	-10.4555
▁miller	-10.4564
▁seattle	-10.4564
▁territories	-10.4565
▁1982	-10.4567
ese	-10.4572
▁direct	-10.4583
▁good	-10.4584
▁nagoya	-10.4588
▁torres	-10.4605
▁sainte	-10.4609
▁shrine	-10.4619
▁estadi	-10.4629
▁bush	-10.4637
▁judge	-10.4638
dy	-10.4641
▁rafael	-10.4674
▁credit	-10.4674
▁denmark	-10.4674
▁faculty	-10.4675
den	-10.4687
▁kobe	-10.4696
▁indian	-10.4699
2000	-10.4713
▁alabama	-10.4729
▁peace	-10.4729
▁ireland	-10.4729
▁iceland	-10.473
▁that	-10.4731
▁islam	-10.4732
▁620	-10.4734
▁aichi	-10.4735
▁wind	-10.4761
▁mu	-10.4766
▁burial	-10.4785
side	-10.4785
zb	-10.479
bg	-10.4816
▁producer	-10.4846
hz	-10.4852
▁hampshire	-10.4896
▁junction	-10.4897
▁pink	-10.4897
▁figaro	-10.4929
▁belize	-10.4953
▁facility	-10.4953
▁sean	-10.4968
▁print	-10.4969
gy	-10.4974
▁elie	-10.4975
.04_6	-10.4992
▁nuevo	-10.5012
▁che	-10.5043
my	-10.5053
gm	-10.506
▁73	-10.5065
▁vancouver	-10.5067
gw	-10.5084
▁elizabeth	-10.5101
is	-10.5111
▁17	-10.5111
▁run	-10.5115
▁health	-10.5124
▁yunnan	-10.5124
ce	-10.5142
▁finn	-10.5149
▁viola	-10.5159
ford	-10.5162
▁fu	-10.5171
▁our	-10.5175
▁things	-10.5178
▁down	-10.518
▁98	-10.5191
▁general	-10.5215
▁arena	-10.523
▁worship	-10.524
▁theodore	-10.5241
▁villar	-10.5241
▁en	-10.527
▁271	-10.5291
▁municipal	-10.5297
▁beecher	-10.5299
▁movie	-10.5301
▁days	-10.5301
bvd	-10.5314
▁trade	-10.533
▁439	-10.5331
▁336	-10.5336
▁steve	-10.5342
▁366	-10.5355
▁fresno	-10.5357
▁coruna	-10.5357
▁her	-10.5357
ola	-10.5359
pv	-10.5364
▁126	-10.5371
bh	-10.5379
▁lawrence	-10.5381
▁hiroshima	-10.541
▁guinea	-10.5416
▁murcia	-10.5416
▁veracruz	-10.5416
▁vermont	-10.5416
▁louisiana	-10.5416
▁laguna	-10.5417
nc	-10.5422
▁1976	-10.5422
▁mine	-10.5423
▁300	-10.5429
▁bo	-10.5445
▁aruba	-10.5476
▁alcala	-10.5476
▁liam	-10.5476
▁nova	-10.5476
nbx	-10.5477
jv	-10.5481
▁1978	-10.5484
clear	-10.5493
skaya	-10.5503
▁there	-10.5516
hc	-10.5521
ban	-10.5526
▁sebastian	-10.5535
▁mansion	-10.5535
▁baby	-10.5538
▁dan	-10.5546
▁confederat	-10.5549
ke	-10.556
▁38	-10.5566
technic	-10.5579
▁volcano	-10.5602
arriet	-10.561
▁2014	-10.5611
▁pr	-10.5615
▁dis	-10.5634
ies	-10.5645
ain	-10.5651
▁plant	-10.5656
▁program	-10.5656
▁hawaii	-10.5656
▁abroad	-10.5656
▁nevada	-10.5656
▁bois	-10.5669
▁sciences	-10.5696
▁casa	-10.5704
▁roger	-10.5706
dale	-10.5716
▁cemetery	-10.5717
▁vienna	-10.5717
▁384	-10.5731
▁krymsk	-10.5733
hy	-10.5742
▁wyoming	-10.5771
wl	-10.5773
pe	-10.5786
▁shimo	-10.5786
▁1972	-10.5788
▁farm	-10.5794
▁empire	-10.5804
▁cayo	-10.5828
▁caceres	-10.584
▁finance	-10.584
▁fernando	-10.584
zze	-10.5846
▁bosnia	-10.5866
ey	-10.5885
▁out	-10.5886
▁ron	-10.5886
erin	-10.5891
mar	-10.5894
▁domingo	-10.5902
▁game	-10.5903
▁llobregat	-10.5903
hercule	-10.593
▁jesus	-10.594
▁941	-10.595
▁wayne	-10.595
▁cont	-10.5952
▁sichuan	-10.5964
▁running	-10.5965
jz	-10.5968
▁naka	-10.5969
▁gorod	-10.5985
ge	-10.5995
▁te	-10.6009
▁calgary	-10.6027
jo	-10.6037
▁na	-10.6047
▁19	-10.6054
ition	-10.6063
pw	-10.6073
wj	-10.6074
▁who	-10.6085
▁protect	-10.609
▁arkansas	-10.609
▁institut	-10.6109
ball	-10.6125
▁billy	-10.6139
▁radio	-10.6148
▁duncan	-10.6154
▁saitama	-10.6154
bd	-10.6155
▁fire	-10.6156
▁arroyo	-10.6157
▁commander	-10.6158
▁ich	-10.6165
▁stowe	-10.6167
che	-10.6168
▁up	-10.6173
▁legend	-10.6185
▁br	-10.6205
▁ltd	-10.6208
▁anthony	-10.6218
▁glacier	-10.6218
▁shenzhen	-10.6218
▁baja	-10.6218
▁poland	-10.6219
▁ossia	-10.622
▁125	-10.6221
lo	-10.6231
nbw	-10.624
▁more	-10.6243
▁horn	-10.626
gf	-10.6274
▁guangdong	-10.6282
ff	-10.6286
▁maine	-10.63
jr	-10.6305
▁wood	-10.6319
▁provinc	-10.6339
▁viii	-10.6347
▁toledo	-10.6347
▁iowa	-10.6347
vd	-10.6348
▁1979	-10.6353
▁deer	-10.6355
nyy	-10.6384
▁lu	-10.6408
▁sibling	-10.6412
▁utah	-10.6412
▁zoo	-10.6415
▁chaplin	-10.6416
▁coach	-10.6416
▁may	-10.6452
▁raj	-10.6474
ny	-10.6475
▁leafs	-10.6475
▁ana	-10.6476
▁oakland	-10.6479
▁22	-10.6501
▁used	-10.6516
me	-10.654
▁badajoz	-10.6544
▁phoenix	-10.6544
▁rhode	-10.6544
▁tenerife	-10.6544
▁carmen	-10.6545
▁allen	-10.6549
▁1980	-10.6554
▁liebe	-10.6554
4_6	-10.6555
ura	-10.6564
dj	-10.6573
ye	-10.6575
▁korea	-10.6596
▁mouth	-10.6603
▁years	-10.6604
▁drive	-10.6604
gu	-10.662
▁1974	-10.6621
▁16	-10.6631
wy	-10.6633
rd	-10.6644
ary	-10.6665
▁cleveland	-10.6678
▁hidalgo	-10.6678
▁marshall	-10.6678
▁matilda	-10.6678
▁were	-10.6679
▁rayon	-10.6679
qp	-10.6704
▁ottawa	-10.6706
▁souls	-10.6735
▁kush	-10.6736
▁invasion	-10.6745
▁pontevedra	-10.6745
▁massacre	-10.6745
▁lac	-10.6745
▁anhui	-10.6745
▁colony	-10.6755
hk	-10.6764
au	-10.6804
▁executive	-10.6813
▁wisconsin	-10.6813
▁seville	-10.6814
▁1981	-10.6819
cvj	-10.6821
ano	-10.6826
▁mill	-10.684
▁middle	-10.6842
▁played	-10.6852
▁ross	-10.6858
▁oxford	-10.6859
▁design	-10.687
vo	-10.6876
am	-10.6881
▁adagio	-10.6881
▁cello	-10.6882
▁christian	-10.6883
▁morris	-10.6886
win	-10.6902
lin	-10.6918
▁1970	-10.6948
▁meistersinger	-10.695
▁offensive	-10.695
▁butler	-10.695
▁gakuin	-10.6961
ble	-10.6962
lote	-10.6965
▁casas	-10.698
▁vietnam	-10.698
va	-10.6985
▁244	-10.6997
▁march	-10.7011
▁prefectur	-10.7011
est	-10.7014
▁castro	-10.702
▁like	-10.702
▁poems	-10.7033
les	-10.7051
ei	-10.7055
ir	-10.7057
▁avila	-10.7071
▁dog	-10.7081
live	-10.7088
▁chinese	-10.7089
▁rioja	-10.709
▁dalian	-10.709
▁vicente	-10.7091
▁oliver	-10.7091
▁123	-10.7101
▁palma	-10.7105
▁manor	-10.7106
▁kan	-10.7133
uckle	-10.7142
▁385	-10.715
▁five	-10.7154
▁arriba	-10.716
▁cordoba	-10.716
km	-10.7162
▁1977	-10.7169
▁1971	-10.7174
jq	-10.718
hr	-10.7192
koen	-10.7193
hv	-10.72
▁gakuen	-10.7205
fv	-10.7205
▁establish	-10.723
▁sochi	-10.7236
▁101	-10.7237
▁1973	-10.7241
▁lady	-10.7247
▁dr	-10.7258
▁harris	-10.7259
▁he	-10.7262
ron	-10.7269
▁tec	-10.7271
▁kim	-10.7272
▁yu	-10.7274
▁pakistan	-10.7302
▁zaragoza	-10.7302
▁shandong	-10.7302
▁duero	-10.7302
ita	-10.7305
bv	-10.7323
qm	-10.7326
oye	-10.7356
▁federal	-10.7373
▁grenadines	-10.7373
▁hamilton	-10.7373
▁manchester	-10.7373
▁peoria	-10.7374
▁castillo	-10.7374
▁artist	-10.7376
▁spanish	-10.7389
▁flute	-10.7408
ru	-10.7416
▁seasons	-10.7426
▁ko	-10.7428
▁nagasaki	-10.7438
▁valverde	-10.7446
▁puente	-10.7446
▁murphy	-10.7446
▁occupation	-10.7446
▁blake	-10.7446
▁lopez	-10.7446
quartetti	-10.7447
▁clarke	-10.7453
▁corners	-10.7465
▁songs	-10.7487
▁siegfried	-10.7488
▁13	-10.7493
▁carter	-10.7518
▁2013-01-03	-10.7519
▁industry	-10.7519
▁tecnologic	-10.7519
▁grenada	-10.7519
▁macau	-10.7519
mer	-10.7519
▁soviet	-10.7522
▁ray	-10.7526
nr	-10.7529
▁castellon	-10.7534
onsen	-10.7538
ane	-10.7579
▁dance	-10.758
sho	-10.7585
gr	-10.7586
▁242	-10.759
▁yi	-10.7591
▁founder	-10.7591
▁craig	-10.7592
▁kevin	-10.7592
▁celtics	-10.7597
▁philippines	-10.7603
out	-10.7608
osa	-10.7611
▁max	-10.7616
▁fe	-10.7634
6_	-10.764
▁rome	-10.7663
▁raid	-10.7663
▁distri	-10.7666
▁nebraska	-10.7666
▁anne	-10.7671
▁621	-10.7674
▁kings	-10.7701
9_	-10.7705
▁cap	-10.7706
shima	-10.7717
ler	-10.7728
▁have	-10.773
▁neeson	-10.774
▁potter	-10.7741
▁madonna	-10.7741
▁quarterback	-10.7741
▁nazi	-10.7741
▁factory	-10.7742
▁antilles	-10.7754
▁literature	-10.7761
▁167	-10.7781
▁jew	-10.7782
▁159	-10.7796
▁leningrad	-10.78
▁terrace	-10.7816
pg	-10.7817
leaf	-10.7833
▁vocals	-10.7837
▁novgorod	-10.7871
▁nord	-10.7888
▁cuenca	-10.7891
▁private	-10.7891
▁brooklyn	-10.7891
zauberf	-10.7891
chyov	-10.7896
su	-10.7902
▁stewart	-10.7924
▁ho	-10.7924
▁economics	-10.7924
▁gomez	-10.7935
▁mont	-10.7936
▁damon	-10.7941
▁1969	-10.7952
▁earth	-10.7959
▁pobla	-10.7967
▁cuauhtemoc	-10.7967
▁complex	-10.7969
hx	-10.7969
▁wright	-10.7971
pc	-10.7977
▁ponto	-10.7984
▁adams	-10.8004
▁63	-10.8012
bfmh	-10.8018
▁herzegovina	-10.8044
▁punta	-10.8044
▁jeff	-10.8044
▁board	-10.8045
▁austin	-10.8046
kl	-10.8049
▁chile	-10.805
mo	-10.8085
▁work	-10.8096
▁clark	-10.8112
▁chihuahua	-10.8121
▁siege	-10.8122
▁harbor	-10.8122
milen	-10.8126
▁pond	-10.8129
kc	-10.8132
▁ranch	-10.8137
▁bear	-10.8141
▁theme	-10.8147
▁call	-10.816
▁meadows	-10.8161
▁how	-10.8166
▁dream	-10.8178
ichi	-10.818
▁corner	-10.8182
▁937	-10.8183
▁pop	-10.8191
▁just	-10.8194
▁basset	-10.8199
ribution	-10.8199
▁thailand	-10.8199
▁woman	-10.82
ho	-10.8203
344	-10.8204
▁base	-10.8233
▁parte	-10.824
▁hard	-10.8257
▁lo	-10.8264
ua	-10.8266
▁dem	-10.827
▁wide	-10.8271
▁loma	-10.8276
▁gotterdammerung	-10.8278
▁hungaria	-10.8278
▁clinton	-10.8278
▁political	-10.8278
▁sandler	-10.8279
▁theater	-10.8281
▁jane	-10.8281
▁chiapas	-10.829
▁ni	-10.8292
▁magic	-10.8301
hama	-10.8311
▁wuhan	-10.8312
cy	-10.8323
kf	-10.8336
hich	-10.8336
▁156	-10.8337
▁thompson	-10.8357
▁voyage	-10.8357
▁journey	-10.8357
▁gartn	-10.8357
▁mongolia	-10.836
▁isle	-10.8365
large	-10.837
▁palm	-10.8374
▁yokohama	-10.8386
.046	-10.8394
▁ab	-10.8403
▁rodriguez	-10.8404
▁shore	-10.8427
▁nicolas	-10.8431
▁randolph	-10.8437
▁salamanca	-10.8437
▁jacob	-10.8437
▁girona	-10.8437
▁logan	-10.8437
▁emily	-10.8438
▁marriage	-10.8441
▁suite	-10.8443
men	-10.8452
▁saga	-10.8453
anh	-10.8466
▁jay	-10.8471
shan	-10.8471
▁ice	-10.8489
▁justin	-10.849
▁107	-10.8494
▁208	-10.8498
▁olympic	-10.8505
xv	-10.8514
▁birmingham	-10.8518
▁businessperson	-10.8518
▁ralph	-10.8518
▁resort	-10.8518
▁vicarage	-10.8518
▁species	-10.8518
▁writer	-10.8518
▁austria	-10.8518
▁bruce	-10.8519
▁nara	-10.8526
▁instruments	-10.8551
▁horse	-10.8552
▁quintana	-10.8557
▁140	-10.8566
▁pat	-10.857
gi	-10.8593
gb	-10.8595
▁cheltenham	-10.8599
▁newfoundland	-10.8599
runner	-10.86
▁30	-10.8604
▁live	-10.8606
▁corp	-10.861
miss	-10.8612
wp	-10.8657
po	-10.8658
▁sugar	-10.8681
▁segura	-10.8681
▁federalis	-10.8683
rage	-10.8686
▁italia	-10.8686
▁known	-10.8688
hw	-10.8695
.02_	-10.8706
kawa	-10.8718
ak	-10.8725
ld	-10.8739
▁shima	-10.874
ida	-10.8741
fx	-10.8751
▁morne	-10.8754
▁antigua	-10.8763
▁manitoba	-10.8763
▁nathan	-10.8763
ama	-10.8779
▁faroe	-10.8783
roles	-10.8805
▁aldea	-10.8806
mon	-10.881
▁pleasant	-10.8811
don	-10.8813
▁172	-10.8817
▁ford	-10.8819
▁sound	-10.8824
▁none	-10.8832
▁wall	-10.8835
ers	-10.8839
▁andres	-10.8841
▁calatrava	-10.8846
▁holmes	-10.8846
▁fall	-10.8846
▁18	-10.8851
▁marx	-10.8858
▁olympics	-10.8859
▁tu	-10.8871
ao	-10.8878
.065	-10.8881
▁modern	-10.8889
▁ix	-10.8909
▁winter	-10.8921
▁marina	-10.8927
▁171	-10.8929
▁nurnberg	-10.893
▁nicole	-10.893
▁douglass	-10.8931
▁im	-10.8931
que	-10.8936
▁back	-10.8937
dd	-10.8943
je	-10.8943
▁portugal	-10.8953
▁cross	-10.8968
gk	-10.8968
▁fuentes	-10.8977
cf	-10.8978
▁nueva	-10.8996
▁136	-10.8997
▁singer	-10.9014
▁return	-10.9015
▁system	-10.9015
▁brian	-10.9016
▁catherine	-10.9017
▁service	-10.902
▁anna	-10.9026
▁okayama	-10.9034
gj	-10.9036
▁classic	-10.9036
lr	-10.9068
▁train	-10.9093
bfml	-10.91
▁attack	-10.91
▁lleida	-10.91
▁shenyang	-10.91
▁connery	-10.91
▁malta	-10.91
▁walker	-10.91
▁fujian	-10.9102
hai	-10.9109
ques	-10.911
▁114	-10.9119
gh	-10.9131
ning	-10.9132
kz	-10.9137
▁si	-10.9142
way	-10.9158
▁israel	-10.9164
line	-10.917
▁ken	-10.9171
_3	-10.9181
▁okinawa	-10.9186
▁bassoon	-10.9186
▁guerrero	-10.9186
▁murray	-10.9186
lw	-10.9189
▁his	-10.9189
▁collins	-10.9196
pa	-10.9199
ang	-10.9201
▁293	-10.9206
▁jo	-10.9215
▁parker	-10.922
▁lane	-10.9221
▁nashville	-10.9223
▁soprano	-10.9236
▁quintet	-10.9242
.052	-10.9246
sawa	-10.9253
▁lohengrin	-10.9257
▁pine	-10.927
▁cristobal	-10.9273
▁seven	-10.9273
▁walkure	-10.9273
centro	-10.9273
▁highland	-10.9276
▁medina	-10.9277
▁northwest	-10.9279
ol	-10.9289
cn	-10.9318
zh	-10.9319
▁century	-10.9351
ham	-10.9351
▁hick	-10.9353
▁moore	-10.936
▁correspondence	-10.936
▁giardiniera	-10.936
▁happy	-10.936
▁manhattan	-10.936
▁sleep	-10.936
▁movement	-10.936
▁vista	-10.9363
▁noble	-10.9364
▁final	-10.9364
▁leonardo	-10.9365
▁oboes	-10.9368
▁gardens	-10.937
nde	-10.9377
ren	-10.9402
lla	-10.9403
die	-10.9408
fc	-10.941
pr	-10.9412
▁reed	-10.9421
▁brook	-10.9436
▁250	-10.9445
▁crime	-10.9445
▁beaver	-10.9447
▁navarre	-10.9448
fragment	-10.9448
▁brazil	-10.9448
▁rostov	-10.9448
▁gulkevich	-10.9448
▁sanchez	-10.9449
▁forward	-10.9453
ul	-10.9454
▁god	-10.9455
▁pico	-10.9466
ella	-10.9467
▁sei	-10.9485
▁299	-10.9492
_6	-10.9498
▁andre	-10.9513
▁130	-10.9525
▁1968	-10.9531
▁towers	-10.9535
▁gifu	-10.9536
▁anguilla	-10.9538
▁semplice	-10.9538
▁snow	-10.9538
▁186	-10.9549
▁nan	-10.9556
▁depp	-10.9564
▁wa	-10.9574
▁108	-10.9577
ich	-10.9592
kp	-10.9594
gl	-10.9596
▁walter	-10.9597
▁malaga	-10.9605
▁alta	-10.9611
▁organizations	-10.9617
▁nelson	-10.9628
▁1975	-10.9638
ky	-10.9642
▁avenue	-10.9646
▁dead	-10.9652
sar	-10.9652
▁374	-10.9655
ue	-10.9657
0_	-10.966
▁1941	-10.966
▁riverside	-10.9663
▁se	-10.9664
jth	-10.9665
▁35	-10.9674
ph	-10.9676
▁free	-10.9696
▁burgos	-10.9703
bb	-10.9705
qx	-10.9708
▁ust	-10.9714
▁richmond	-10.9718
▁marple	-10.9718
▁sonora	-10.9718
▁idaho	-10.9718
▁vernon	-10.9718
▁orleans	-10.9722
cuela	-10.9726
ira	-10.973
pu	-10.9738
▁248	-10.9739
▁43	-10.9745
▁dick	-10.9748
▁philip	-10.9753
▁dong	-10.9753
▁95	-10.9754
▁val	-10.9772
▁162	-10.9779
▁agricultura	-10.981
▁buffalo	-10.981
▁indonesia	-10.981
▁dickinson	-10.981
.0130	-10.9811
▁timor	-10.9815
illa	-10.9821
▁rob	-10.9828
▁come	-10.9836
mx	-10.9838
paperback	-10.9842
▁166	-10.9851
▁silla	-10.9872
▁rain	-10.9873
idate	-10.9876
▁fukushima	-10.9886
▁off	-10.9889
▁189	-10.989
▁clemen	-10.9892
▁320	-10.9899
gg	-10.9899
▁nizhny	-10.9902
▁sabha	-10.9902
ascan	-10.9902
cqgj	-10.9902
▁latifah	-10.9902
cha	-10.9906
▁1945	-10.9912
▁jonath	-10.9916
▁car	-10.9918
▁vera	-10.9919
▁jolie	-10.9921
_4	-10.9931
wg	-10.9941
▁cave	-10.9942
fr	-10.9945
▁round	-10.9949
▁canal	-10.9965
bfmk	-10.9981
wz	-10.9984
jiang	-10.9984
▁traditional	-10.9985
jg	-10.9994
▁almeria	-10.9995
▁arlington	-10.9995
▁bluff	-10.9995
▁prize	-10.9995
▁scarlet	-10.9995
▁chocolat	-10.9995
▁anderson	-10.9995
▁cancer	-10.9995
▁receiver	-10.9997
▁otradn	-10.9998
▁bad	-11.0001
era	-11.0001
leste	-11.0002
▁barry	-11.0009
▁angel	-11.0012
▁nicholas	-11.0017
nby	-11.0019
▁summit	-11.005
▁dark	-11.0054
▁124	-11.0058
▁14	-11.0065
cw	-11.0066
pl	-11.0067
▁132	-11.0078
quel	-11.0084
118	-11.0086
▁montgomery	-11.0089
▁jaen	-11.0095
▁halen	-11.0095
bm	-11.0098
▁chu	-11.0099
▁iraq	-11.0104
▁25	-11.011
▁salt	-11.0129
▁mitr	-11.0132
▁104	-11.0148
▁venezuela	-11.0159
mori	-11.016
▁vall	-11.0161
zf	-11.0177
mw	-11.0182
▁hockey	-11.0184
▁labrador	-11.0184
▁valladolid	-11.0184
▁pablo	-11.0184
▁barrington	-11.0185
▁vilanova	-11.0185
▁stranger	-11.0185
▁ribera	-11.0185
▁what	-11.0191
▁102	-11.0197
ck	-11.021
lan	-11.0223
▁ali	-11.023
▁ponce	-11.0241
dori	-11.0246
▁fuji	-11.0259
ensky	-11.026
▁dear	-11.0261
▁writings	-11.0266
▁regina	-11.027
cv	-11.0271
puffin	-11.0274
ment	-11.0274
▁pe	-11.0276
▁land	-11.0277
▁mino	-11.028
▁bartolome	-11.028
▁bermuda	-11.028
▁abajo	-11.028
▁capacit	-11.028
▁esteban	-11.0281
▁nagano	-11.0281
▁kidman	-11.0281
▁harrison	-11.0281
▁2.	-11.0289
▁tibetan	-11.029
rm	-11.029
eisman	-11.0291
lm	-11.0295
▁ki	-11.0295
▁hans	-11.0306
▁chi	-11.0315
pp	-11.0319
lg	-11.0326
hp	-11.0349
▁205	-11.0349
▁fair	-11.0355
▁serena	-11.0364
▁mata	-11.0366
▁concepcion	-11.0377
▁tarragona	-11.0377
▁trois	-11.0377
▁alfred	-11.0377
▁pauper	-11.0377
▁sapporo	-11.0377
▁cincinnati	-11.0377
▁iran	-11.0386
▁qui	-11.0387
▁violins	-11.039
matsu	-11.0393
▁1944	-11.0413
der	-11.0414
▁zamora	-11.0418
▁rosa	-11.0423
hi	-11.0423
fq	-11.0426
kq	-11.0431
▁negro	-11.0434
▁natural	-11.044
▁176	-11.0441
▁six	-11.0444
▁wolf	-11.0456
▁1967	-11.0464
▁mir	-11.0473
▁campbell	-11.0474
▁liaoning	-11.0475
▁qingdao	-11.0475
▁jiangsu	-11.0475
▁aurora	-11.0475
▁danny	-11.0476
▁jerry	-11.0477
▁warren	-11.0478
binsky	-11.0486
lucio	-11.0492
▁take	-11.0496
▁twin	-11.0499
jima	-11.05
jvw	-11.0507
▁hon	-11.0509
▁writing	-11.0516
kyo	-11.052
tai	-11.0527
▁mayor	-11.054
eating	-11.0548
▁lewis	-11.0551
▁alto	-11.0555
▁appear	-11.0563
▁ring	-11.0569
▁guadalajara	-11.0574
▁detroit	-11.0574
▁reserve	-11.0574
▁brandon	-11.0575
▁allman	-11.0577
hu	-11.0578
qc	-11.0581
▁163	-11.0596
able	-11.0598
ber	-11.0623
pz	-11.0628
▁sara	-11.0653
zi	-11.0663
▁reservoir	-11.0674
▁seminary	-11.0674
▁villafranca	-11.0674
▁choice	-11.0674
▁larry	-11.0674
chome	-11.0679
4_	-11.0682
▁ent	-11.069
bu	-11.0698
▁hi	-11.0701
▁trophy	-11.0707
gq	-11.0712
▁sendai	-11.0714
▁345	-11.0714
▁kumamoto	-11.0716
▁tito	-11.073
yy	-11.0731
iel	-11.0743
qz	-11.0748
▁jiangxi	-11.0748
7_	-11.0759
eta	-11.0763
ena	-11.0763
▁mission	-11.0763
▁airstrip	-11.0774
▁headquarters	-11.0774
▁lesieg	-11.0774
▁mauritania	-11.0774
▁sydney	-11.0774
▁wildlife	-11.0774
▁shikoku	-11.0774
▁hunan	-11.0775
▁sweden	-11.0775
▁angelina	-11.0775
▁forever	-11.0776
saint	-11.0777
zo	-11.078
▁reina	-11.078
yr	-11.0781
▁100	-11.0784
▁bai	-11.0784
▁387	-11.0789
cheng	-11.0793
▁christ	-11.0796
qy	-11.0804
bf	-11.0808
▁547	-11.0809
▁windsor	-11.0812
xf	-11.0815
▁isaac	-11.0818
▁project	-11.0818
▁zu	-11.0818
▁dances	-11.0821
▁sha	-11.0829
▁131	-11.0832
▁last	-11.0836
▁1.	-11.0858
▁ramon	-11.0865
▁gu	-11.0867
▁1964	-11.0868
ico	-11.0873
▁thunder	-11.0876
▁amsterdam	-11.0876
▁sacramento	-11.0876
▁segovia	-11.0876
▁gulf	-11.0876
▁chengdu	-11.0876
▁ci	-11.0876
▁creta	-11.0876
mc	-11.0878
▁pi	-11.0883
ical	-11.0896
▁116	-11.0907
bbc	-11.0908
ja	-11.0926
ney	-11.0927
▁pan	-11.0933
yang	-11.0979
▁studies	-11.0979
▁ibaraki	-11.0979
▁financi	-11.0979
▁willow	-11.0979
▁turk	-11.0997
▁burke	-11.0998
▁bull	-11.1002
ae	-11.1006
▁then	-11.1014
▁halle	-11.102
.043	-11.1022
▁niigata	-11.1023
▁173	-11.1029
▁shu	-11.103
▁225	-11.1032
▁158	-11.1036
▁mitchell	-11.1041
▁450	-11.1043
▁edwards	-11.1047
▁see	-11.1056
dur	-11.1062
qd	-11.1065
▁volcan	-11.1073
bi	-11.1075
▁perry	-11.1082
▁idomeneo	-11.1083
▁addition	-11.1083
▁baltimore	-11.1083
▁galicia	-11.1083
▁422	-11.1088
take	-11.1089
__	-11.1097
▁rheingold	-11.1111
ada	-11.1116
▁137	-11.1139
dn	-11.1156
san	-11.1159
▁pittsburgh	-11.1161
oka	-11.1161
lb	-11.1172
ure	-11.1172
▁aomori	-11.1176
ori	-11.1181
▁gor	-11.1182
▁clay	-11.1187
▁expectations	-11.1188
▁juarez	-11.1188
▁pyramid	-11.1188
▁singapore	-11.1188
▁peru	-11.1189
▁complete	-11.121
▁batt	-11.1214
▁1966	-11.1235
.1	-11.1238
▁baker	-11.1241
rf	-11.1243
hua	-11.1245
▁1965	-11.1249
ono	-11.1259
▁rick	-11.1264
_1	-11.1267
▁127	-11.1277
wn	-11.128
mm	-11.1281
▁person	-11.1282
▁catalonia	-11.1294
▁jalisco	-11.1294
▁television	-11.1294
▁vinci	-11.1294
▁hangzhou	-11.1294
▁shanxi	-11.1294
▁zelda	-11.1294
▁mouse	-11.1294
▁soto	-11.1295
▁ukraine	-11.1296
▁turner	-11.1296
uk	-11.1298
▁khan	-11.1305
▁1943	-11.1317
▁rondo	-11.1319
zm	-11.1319
▁over	-11.1333
▁marie	-11.1339
▁sol	-11.1345
3_	-11.1361
ok	-11.1364
▁21	-11.1368
ota	-11.1377
▁smolensk	-11.14
▁argentina	-11.1401
▁contempora	-11.1401
▁gonzalez	-11.1401
▁oaxaca	-11.1401
▁rihanna	-11.1401
▁rosario	-11.1401
▁xinjiang	-11.1401
▁finland	-11.1401
▁barbara	-11.1401
▁autonoma	-11.1401
▁marvin	-11.1402
▁lucas	-11.1402
▁dawn	-11.1402
▁wales	-11.1402
▁robin	-11.1403
▁engineering	-11.1403
▁mora	-11.1405
▁45	-11.1405
jb	-11.1408
nan	-11.1411
▁hui	-11.1418
lf	-11.1418
▁1962	-11.142
▁victor	-11.1421
▁belle	-11.1426
▁1960	-11.1442
▁133	-11.1454
▁steven	-11.1456
▁dai	-11.146
qf	-11.1464
▁496	-11.1468
▁residence	-11.1472
▁estate	-11.1473
▁grant	-11.1485
▁charlotte	-11.1486
zhou	-11.1488
ate	-11.1499
▁recitativ	-11.1499
erik	-11.1508
▁cambodia	-11.151
▁third	-11.151
▁tikhoretsk	-11.151
▁crystal	-11.151
▁norway	-11.151
fuhr	-11.151
▁seversk	-11.151
▁marsh	-11.1518
▁bi	-11.1521
▁agua	-11.1524
▁tai	-11.1543
fa	-11.1546
inner	-11.155
...	-11.155
anne	-11.1553
▁mother	-11.1556
▁109	-11.1575
ad	-11.1579
▁504	-11.1604
rp	-11.1605
.08	-11.1606
pb	-11.1614
▁pa	-11.1616
▁pere	-11.1618
▁zimmer	-11.1618
▁cooper	-11.1618
▁belgium	-11.1619
▁management	-11.1619
▁michoacan	-11.1619
▁voronezh	-11.1619
▁cortes	-11.1619
▁175	-11.1621
▁saratov	-11.1627
▁122	-11.1629
_5	-11.1635
▁dave	-11.1639
▁going	-11.1641
uma	-11.165
vy	-11.1658
▁jin	-11.1661
▁social	-11.1665
▁ri	-11.168
▁ten	-11.1683
▁etudes	-11.1687
▁salinas	-11.1688
ion	-11.1691
▁light	-11.1693
400	-11.1694
▁nile	-11.1699
▁farmer	-11.17
▁cook	-11.1703
age	-11.1703
▁landing	-11.1706
▁kai	-11.1712
rr	-11.1715
▁command	-11.1723
▁375	-11.1725
▁pearl	-11.1726
.121	-11.1728
▁chugoku	-11.173
▁google	-11.173
▁johansson	-11.173
▁adversary	-11.173
▁berlin	-11.173
▁bradley	-11.173
▁imperial	-11.173
▁bible	-11.1731
▁trumpets	-11.1736
rjy	-11.1745
▁min	-11.1755
▁55	-11.1764
▁den	-11.1766
▁cay	-11.1772
ishi	-11.1774
▁malaysia	-11.1778
_7	-11.178
sen	-11.1783
▁rei	-11.1785
▁392	-11.1801
fw	-11.1802
_9	-11.181
▁arm	-11.1816
▁249	-11.1828
ein	-11.1829
▁novo	-11.183
▁mile	-11.184
▁select	-11.1842
▁never	-11.1842
▁barbuda	-11.1842
▁minneapolis	-11.1842
▁double	-11.1842
▁teruel	-11.1842
▁electra	-11.1842
▁donald	-11.1842
▁punit	-11.1842
▁rough	-11.1843
▁autobiography	-11.1843
ara	-11.1846
burg	-11.1863
▁montes	-11.1865
mura	-11.1868
▁canon	-11.1872
▁brunswick	-11.189
▁switzerland	-11.189
▁residential	-11.1892
gv	-11.1892
▁castell	-11.1898
bp	-11.191
kd	-11.1928
▁ann	-11.193
▁129	-11.1933
dm	-11.1934
▁cor	-11.1935
▁pete	-11.194
5_	-11.1943
▁carl	-11.1946
ger	-11.1946
▁1942	-11.1947
▁var	-11.1949
▁1950	-11.1951
▁holland	-11.1952
kamchat	-11.1954
pelleas	-11.1955
soluto	-11.1955
▁calzada	-11.1955
▁necropolis	-11.1955
▁simpson	-11.1955
▁suspense	-11.1955
▁nursing	-11.1955
▁palau	-11.1956
▁speaker	-11.1956
▁airfield	-11.1957
▁desert	-11.1957
▁60	-11.1959
▁gordon	-11.196
▁miao	-11.196
ade	-11.1962
along	-11.2004
▁chang	-11.2004
▁421	-11.201
id	-11.2011
▁nava	-11.2017
ari	-11.2024
ze	-11.2026
▁90	-11.2029
.04_87	-11.2031
▁134	-11.2033
▁norman	-11.2043
_2	-11.2044
▁string	-11.2048
ome	-11.2055
▁121	-11.2069
▁musashi	-11.2069
bk	-11.2069
▁guitar	-11.207
▁apsheronsk	-11.207
▁henderson	-11.207
▁lloyd	-11.207
▁draft	-11.207
▁superior	-11.207
▁duffy	-11.2073
▁northbrook	-11.2074
▁monarchy	-11.2078
▁finale	-11.208
▁chad	-11.2086
▁front	-11.2093
▁269	-11.21
▁455	-11.2112
ache	-11.2125
487	-11.2129
▁kii	-11.2129
ard	-11.215
mp	-11.2163
▁75	-11.2164
▁romania	-11.2174
▁wan	-11.2184
100	-11.2185
▁dialog	-11.2186
▁period	-11.2186
dgfg	-11.2186
▁henares	-11.2186
▁soldier	-11.2186
quentin	-11.2186
▁ebro	-11.2186
▁tannhauser	-11.2186
▁hubei	-11.2186
▁trenton	-11.2186
▁moon	-11.219
▁hungary	-11.2191
▁448	-11.2201
▁are	-11.2203
▁caballeros	-11.2203
ner	-11.2204
▁affair	-11.2211
▁mall	-11.2212
/1	-11.2212
▁313	-11.2215
gar	-11.222
▁apartments	-11.2222
.01	-11.2228
ite	-11.2233
▁techn	-11.2241
▁ne	-11.2247
▁tomas	-11.225
fp	-11.2252
▁melisande	-11.2254
illo	-11.2255
▁113	-11.2259
zd	-11.226
▁prelude	-11.2268
hl	-11.2268
▁toro	-11.2268
▁1963	-11.227
▁pointe	-11.2276
▁284	-11.2281
▁ta	-11.2294
▁382	-11.2295
yn	-11.2297
▁cole	-11.2299
▁afghanistan	-11.2303
▁athlete	-11.2303
▁greece	-11.2303
▁griffin	-11.2303
▁hitler	-11.2303
▁banner	-11.2303
▁canyon	-11.2303
▁breton	-11.2304
▁mancha	-11.2305
▁kelly	-11.2307
▁master	-11.231
▁capitol	-11.2317
mk	-11.2328
▁sakura	-11.2332
▁palo	-11.2335
▁shores	-11.2335
▁yan	-11.2343
▁glass	-11.2345
▁petit	-11.2348
hom	-11.2359
▁tree	-11.2366
qr	-11.2373
nh	-11.2386
▁mills	-11.2389
▁primorsk	-11.2399
▁haven	-11.2399
oy	-11.2403
audi	-11.2403
▁far	-11.2408
wb	-11.2412
kx	-11.2417
▁hardin	-11.2417
▁palencia	-11.2421
▁russell	-11.2422
▁lyric	-11.2422
▁pinar	-11.2422
▁bungie	-11.2422
▁duggar	-11.2422
▁harlem	-11.2422
▁jennifer	-11.2422
▁renaissance	-11.2422
▁symbol	-11.2422
▁winnipeg	-11.2422
▁mickey	-11.2422
▁auburn	-11.2422
▁serail	-11.2422
well	-11.2423
▁molly	-11.2423
▁slave	-11.2423
▁verde	-11.2423
avon	-11.2428
▁hunt	-11.2434
▁vil	-11.2435
▁49	-11.2437
▁newton	-11.2447
zw	-11.2447
▁slavyansk	-11.2449
ellen	-11.2464
▁lebanon	-11.2473
▁207	-11.2475
▁clara	-11.2483
▁oaks	-11.2485
▁ke	-11.2491
▁russian	-11.2502
right	-11.2516
_8	-11.2518
▁record	-11.2521
▁103	-11.2527
▁palacio	-11.2528
with	-11.2531
▁helen	-11.2531
▁huesca	-11.2535
▁tate	-11.2537
gz	-11.254
▁festival	-11.2542
▁huggins	-11.2542
▁observatory	-11.2542
▁remember	-11.2542
▁evil	-11.2542
▁diaz	-11.2542
▁albania	-11.2542
▁hope	-11.2542
▁make	-11.2544
▁kingston	-11.2556
▁press	-11.2562
▁laos	-11.2563
▁sing	-11.2566
▁navas	-11.2575
▁clarinets	-11.2581
▁1939	-11.2584
▁audio	-11.2585
▁sullivan	-11.2585
▁kochi	-11.2589
▁tell	-11.259
▁production	-11.2603
▁110	-11.2607
▁cambridge	-11.2631
▁416	-11.2633
▁251	-11.2633
py	-11.2635
▁216	-11.2651
▁owen	-11.2651
▁oboe	-11.2653
▁oliva	-11.2657
labinsk	-11.2659
▁true	-11.2661
current	-11.2661
bilis	-11.2662
▁516	-11.2663
▁dragon	-11.2664
▁albacete	-11.2664
▁allegretto	-11.2664
▁czech	-11.2664
▁jumeirah	-11.2664
▁selva	-11.2664
▁villalba	-11.2664
▁yangtze	-11.2664
▁paxton	-11.2664
▁alaska	-11.2664
▁salem	-11.2664
▁80	-11.2665
▁kitts	-11.2665
▁adolf	-11.2668
▁76	-11.2671
▁reyes	-11.2671
▁perez	-11.2674
▁soria	-11.2676
▁into	-11.2678
▁fun	-11.2678
▁solo	-11.2684
▁chap	-11.269
▁only	-11.2694
gan	-11.2697
▁hardy	-11.2699
▁asahi	-11.2699
▁eric	-11.2703
▁609	-11.2705
▁bulgaria	-11.2716
▁concert	-11.2722
jh	-11.2724
▁160	-11.2731
ona	-11.2732
▁hollywood	-11.2735
ick	-11.2737
▁mo	-11.2739
▁judges	-11.2743
skoye	-11.2746
shita	-11.2749
▁dated	-11.2764
▁1961	-11.2766
.059	-11.2771
▁wah	-11.2775
nova	-11.2785
▁vila	-11.2785
▁monterrey	-11.2787
▁vladimir	-11.2787
▁waterloo	-11.2787
▁nevis	-11.2787
▁dakar	-11.2787
▁sherman	-11.2787
▁small	-11.2788
▁flight	-11.2788
sequel	-11.2789
▁holding	-11.2789
▁when	-11.279
▁also	-11.279
▁epis	-11.2791
ow	-11.2792
zc	-11.2793
▁528	-11.2794
▁gary	-11.2797
▁luke	-11.2797
iki	-11.281
deest	-11.281
▁bur	-11.2815
▁troy	-11.282
▁isla	-11.2822
▁20	-11.2825
▁200	-11.2827
jtg	-11.2841
▁jenkins	-11.2849
▁360	-11.2851
▁157	-11.2852
ee	-11.2862
jc	-11.2882
▁mun	-11.2884
vi	-11.2887
▁72	-11.2888
▁701	-11.2895
▁teacher	-11.2907
currenc	-11.2911
▁diamond	-11.2911
▁heritage	-11.2911
▁sikasso	-11.2911
▁nepal	-11.2911
▁upper	-11.2912
▁hanover	-11.2912
▁springfield	-11.2912
▁commerce	-11.2914
▁orlando	-11.2918
▁corey	-11.2918
▁am	-11.2923
brook	-11.2933
▁blood	-11.2947
▁105	-11.2952
▁bin	-11.2956
▁phil	-11.2957
060	-11.2963
▁croatia	-11.2965
▁1953	-11.2966
▁383	-11.2967
gp	-11.2968
rx	-11.2973
▁247	-11.2985
_0	-11.2992
▁line	-11.2995
▁543	-11.2995
yz	-11.2999
▁hor	-11.3005
gaoka	-11.3006
wm	-11.301
▁right	-11.3013
▁shawnee	-11.3014
▁shi	-11.3016
▁op	-11.3018
xw	-11.3022
▁hart	-11.3023
rz	-11.3033
atherine	-11.3034
ami	-11.3036
▁irving	-11.3037
▁hollow	-11.3037
▁novokubansk	-11.3037
▁presbyterianism	-11.3037
▁subprefecture	-11.3037
▁venice	-11.3037
▁strait	-11.3037
▁montenegro	-11.3037
▁gerard	-11.3038
▁syria	-11.3038
▁525	-11.3038
▁andorra	-11.3038
zy	-11.3052
gli	-11.3054
▁tama	-11.3055
▁marcos	-11.3055
▁340	-11.3061
hf	-11.3062
bq	-11.3064
aga	-11.3067
▁ge	-11.3071
mv	-11.308
▁residences	-11.3082
copal	-11.3083
▁wild	-11.3088
.122	-11.3093
▁hot	-11.3109
ima	-11.3125
dera	-11.3133
▁32	-11.3133
feng	-11.314
classic	-11.3142
▁par	-11.3148
▁evans	-11.3148
▁cha	-11.3149
▁498	-11.3153
zk	-11.3161
▁compani	-11.3164
dependenci	-11.3165
▁universal	-11.3165
▁hennepin	-11.3165
▁swayze	-11.3165
▁tormes	-11.3165
▁kagoshima	-11.3165
▁botanic	-11.3165
▁paradise	-11.3165
▁terminal	-11.3166
▁kosovo	-11.3166
▁lone	-11.3169
▁spike	-11.3172
gn	-11.3177
lc	-11.3184
per	-11.3195
▁get	-11.3198
▁masters	-11.3198
ire	-11.3205
▁berry	-11.3224
lon	-11.3226
▁570	-11.3228
▁natali	-11.3243
dg	-11.3244
▁119	-11.3248
▁40	-11.3253
numa	-11.3272
▁via	-11.3282
ii	-11.3286
▁say	-11.329
▁parliament	-11.3295
▁lithuania	-11.3295
▁screenwriter	-11.3295
▁shakespeare	-11.3295
▁channing	-11.3295
▁maritime	-11.3295
▁zero	-11.3296
▁marti	-11.33
▁arc	-11.3302
▁marine	-11.3317
sato	-11.3318
▁1958	-11.3323
▁469	-11.3328
star	-11.3331
▁ash	-11.3347
rn	-11.3349
▁flutes	-11.3363
▁simon	-11.3363
▁now	-11.3366
▁abu	-11.3375
▁styles	-11.3376
dh	-11.338
▁sad	-11.3386
▁vegas	-11.3387
▁short	-11.3391
▁31	-11.3396
pd	-11.3397
▁168	-11.3403
▁23	-11.3404
bx	-11.342
akhtarsk	-11.3426
▁belarus	-11.3426
▁bieber	-11.3426
▁myanmar	-11.3426
▁orange	-11.3426
▁baldwin	-11.3426
▁morton	-11.3426
▁sketches	-11.3426
▁morelos	-11.3426
▁coloma	-11.3426
▁ballet	-11.3426
▁block	-11.3427
ogo	-11.3427
▁506	-11.3428
▁agustin	-11.3428
▁fisher	-11.343
▁izumi	-11.3432
qj	-11.3436
uane	-11.3438
▁fine	-11.3438
one	-11.3445
naga	-11.3446
▁386	-11.3447
eau	-11.3459
▁161	-11.3461
dq	-11.3473
ping	-11.3477
▁guard	-11.3481
▁raymond	-11.3482
▁97	-11.3486
▁318	-11.3492
▁ver	-11.3493
yq	-11.3504
▁466	-11.3509
yu	-11.351
▁ad	-11.3512
▁363	-11.3517
▁tver	-11.3524
nf	-11.3527
▁tho	-11.3528
▁585	-11.3531
▁naval	-11.3531
▁holidays	-11.3539
▁mid	-11.3542
▁portman	-11.3542
▁486	-11.3545
▁jon	-11.3549
▁139	-11.3551
▁refuge	-11.3556
▁heath	-11.3556
▁liberty	-11.3558
▁fauntleroy	-11.3559
▁montserrat	-11.3559
▁rhapsody	-11.3559
▁beauty	-11.3559
▁gallery	-11.3559
▁association	-11.3559
▁export	-11.3559
▁tyler	-11.3559
▁cameron	-11.356
▁elgin	-11.3561
▁buddhism	-11.3561
▁again	-11.3562
▁warner	-11.3563
▁695	-11.3564
▁nex	-11.3565
▁397	-11.3565
▁krasnoarmeysky	-11.3566
nai	-11.3567
▁break	-11.3569
▁terry	-11.3573
▁marino	-11.3577
▁auf	-11.3582
inskiy	-11.3588
▁412	-11.3588
▁mesa	-11.3592
▁sand	-11.3621
▁141	-11.3624
▁cast	-11.3626
▁kind	-11.3627
cd	-11.3627
vq	-11.3634
▁437	-11.3636
▁425	-11.3647
play	-11.3649
fu	-11.3649
▁homes	-11.3654
.045	-11.3655
▁sc	-11.3669
▁342	-11.3669
hill	-11.3672
nv	-11.3677
▁shizuoka	-11.3679
.049	-11.3683
df	-11.3684
▁oratori	-11.3692
▁gibson	-11.3693
▁screen	-11.3693
▁timashyovsk	-11.3693
▁martinez	-11.3693
▁pocket	-11.3694
▁graham	-11.3694
▁norte	-11.3694
▁menuetto	-11.3694
▁foster	-11.3694
▁discovery	-11.3694
▁retir	-11.3696
▁sri	-11.3697
▁kid	-11.3699
rv	-11.3705
▁ghost	-11.3708
▁alan	-11.371
▁cold	-11.3711
▁iron	-11.3714
ksv	-11.3717
▁414	-11.3723
mb	-11.3729
▁1952	-11.3739
▁471	-11.3741
works	-11.3741
▁julian	-11.3745
▁371	-11.3746
▁1951	-11.3751
▁tottori	-11.3752
▁1948	-11.3753
▁586	-11.3764
▁paz	-11.3768
▁professional	-11.3778
▁427	-11.3785
fz	-11.379
port	-11.3804
▁tony	-11.3811
vf	-11.3814
▁cuevas	-11.3821
603	-11.3821
▁1940	-11.3825
saka	-11.3826
▁feli	-11.3826
▁yellow	-11.383
▁chester	-11.383
▁condado	-11.383
▁election	-11.383
▁slovakia	-11.383
▁father	-11.383
▁ivanovo	-11.383
▁prospect	-11.383
▁estonia	-11.3831
▁568	-11.3833
▁su	-11.3833
▁flores	-11.3836
palos	-11.3838
▁106	-11.3838
▁playa	-11.3839
▁arabia	-11.3839
qw	-11.3842
evolutionary	-11.3843
des	-11.3847
▁matthew	-11.385
▁holiday	-11.3851
▁ex	-11.3852
▁94	-11.3855
▁164	-11.3855
urin	-11.3856
ushi	-11.3856
▁526	-11.3863
▁inter	-11.3863
▁soul	-11.3864
ym	-11.3868
chen	-11.387
▁760	-11.3871
dr	-11.3877
▁moto	-11.3879
▁roda	-11.3883
▁mix	-11.3884
los	-11.3888
▁475	-11.3893
▁riviere	-11.3896
▁453	-11.39
▁easy	-11.3901
▁grace	-11.3901
mr	-11.3904
▁awa	-11.3909
hana	-11.391
▁128	-11.3913
lv	-11.3924
▁nixon	-11.3932
yuan	-11.3937
laurent	-11.3938
▁giants	-11.3944
▁454	-11.3951
▁sud	-11.3958
▁hu	-11.3965
▁azerbaijan	-11.3968
▁cerrato	-11.3968
▁contredanse	-11.3968
▁macedonia	-11.3968
▁tarantino	-11.3968
▁sterling	-11.3968
▁guangxi	-11.3968
▁paramo	-11.3968
▁peach	-11.3969
▁polytechnic	-11.3969
▁tajo	-11.3969
▁rice	-11.397
▁kanagawa	-11.397
fy	-11.3971
▁yeysk	-11.3971
▁holy	-11.3972
▁hunter	-11.3974
▁petite	-11.3978
▁404	-11.3983
bl	-11.3985
▁409	-11.3988
▁selection	-11.3992
▁giant	-11.3994
▁gate	-11.3997
▁202	-11.4
▁lorenzo	-11.4006
kj	-11.402
▁147	-11.4024
dz	-11.4032
▁377	-11.4033
▁410	-11.4039
uchi	-11.4039
rlock	-11.4042
head	-11.4042
▁sal	-11.4064
▁151	-11.4072
▁cabo	-11.4077
ach	-11.408
▁423	-11.4085
quan	-11.4085
▁isabel	-11.4088
umi	-11.4089
▁kat	-11.4099
▁plata	-11.4108
▁bombing	-11.4109
▁luxembourg	-11.4109
▁professor	-11.4109
▁miyazaki	-11.4109
▁essex	-11.4109
▁wakayama	-11.4109
vocation	-11.4109
fl	-11.411
▁palmer	-11.411
▁quarter	-11.4111
▁550	-11.4118
▁522	-11.412
insky	-11.4128
▁1955	-11.4131
▁ball	-11.4148
▁41	-11.4154
▁pavlovsk	-11.4159
▁279	-11.4159
▁dar	-11.416
▁700	-11.416
▁fukui	-11.4162
zawa	-11.4163
▁1949	-11.4173
qg	-11.4179
rq	-11.418
oe	-11.4183
pq	-11.4186
▁oh	-11.419
▁au	-11.4191
european	-11.4195
view	-11.4196
▁roll	-11.4198
▁1954	-11.4198
elle	-11.4209
▁212	-11.4214
▁541	-11.4221
▁467	-11.4222
▁420	-11.4242
ellie	-11.4245
eign	-11.425
▁archipelago	-11.4251
▁hudson	-11.4251
▁investigates	-11.4251
▁branch	-11.4251
▁schul	-11.4251
▁aufzug	-11.4251
▁cameros	-11.4251
▁fugue	-11.4251
▁hilton	-11.4251
▁ashley	-11.4252
▁lanka	-11.4252
▁uber	-11.4254
▁golf	-11.4257
▁373	-11.4259
▁todd	-11.426
▁458	-11.4261
.099	-11.4262
qh	-11.4264
▁coral	-11.4269
nb	-11.4276
▁1956	-11.4282
tany	-11.4283
more	-11.4285
▁509	-11.4287
dk	-11.4288
▁columbus	-11.429
▁lion	-11.4294
▁112	-11.4298
▁361	-11.4306
▁hand	-11.4316
▁185	-11.4318
▁yao	-11.4319
▁walk	-11.4323
▁312	-11.4324
▁mori	-11.4339
czq	-11.4339
▁hollander	-11.434
▁bas	-11.4343
▁53	-11.4353
▁118	-11.4361
▁livingston	-11.4366
▁top	-11.4381
nl	-11.4381
▁melodie	-11.4393
▁mosque	-11.4395
▁living	-11.4395
▁2011-01-03	-11.4395
▁eugene	-11.4395
▁innocent	-11.4395
▁javier	-11.4395
▁ourense	-11.4395
▁welfare	-11.4395
▁tatum	-11.4395
▁yemen	-11.4396
▁silence	-11.4396
▁felipe	-11.4396
▁voix	-11.4396
▁241	-11.4396
▁571	-11.4397
baum	-11.4397
ver	-11.4397
▁half	-11.4398
▁duke	-11.4398
-20	-11.44
▁akita	-11.44
▁bishop	-11.4402
▁crest	-11.4403
▁litani	-11.4404
▁electric	-11.4417
▁grey	-11.4419
▁crow	-11.4426
▁500	-11.4427
zq	-11.4428
risten	-11.4434
▁brand	-11.4446
ero	-11.4449
ito	-11.445
iwa	-11.4452
▁liverpool	-11.4458
ste	-11.446
▁santos	-11.4466
lu	-11.4467
▁1938	-11.447
▁3.	-11.448
hd	-11.4481
▁402	-11.4483
▁chiba	-11.4484
▁bon	-11.4488
▁1922	-11.4495
▁eden	-11.4498
zv	-11.4499
rj	-11.45
▁183	-11.45
bz	-11.4506
▁143	-11.4508
▁comes	-11.4516
▁442	-11.4519
▁24	-11.4522
▁324	-11.4532
▁crook	-11.4542
▁anglicanism	-11.4542
▁council	-11.4542
▁crater	-11.4542
▁dawson	-11.4542
▁fountain	-11.4542
▁ringwald	-11.4542
▁fliege	-11.4542
▁monaco	-11.4542
▁sabana	-11.4542
▁solomon	-11.4542
▁cannon	-11.4542
em	-11.4543
▁barco	-11.4544
▁benton	-11.4545
▁blanca	-11.4546
▁princeton	-11.4546
▁market	-11.4549
▁wacker	-11.4549
▁director	-11.455
back	-11.4551
▁531	-11.4556
▁kin	-11.4564
▁gray	-11.4565
iles	-11.457
iva	-11.4574
▁mikawa	-11.4577
▁mei	-11.4581
tain	-11.4583
wei	-11.459
▁488	-11.4591
kg	-11.4593
▁buck	-11.4596
▁holes	-11.4607
ice	-11.4609
yb	-11.4612
▁545	-11.4613
▁536	-11.4616
▁120	-11.4629
▁551	-11.4632
etsky	-11.4644
vv	-11.4651
ci	-11.4655
▁earl	-11.466
ov	-11.4661
▁294	-11.4661
rancho	-11.4661
▁144	-11.4662
lp	-11.4669
▁bow	-11.4673
▁religio	-11.4675
vz	-11.4687
▁doctor	-11.4688
▁birch	-11.469
▁accommodation	-11.4691
▁cyprus	-11.4691
▁durango	-11.4691
▁kazakhstan	-11.4691
▁mediterranean	-11.4691
▁senegal	-11.4691
▁twilight	-11.4691
▁millennium	-11.4691
▁construction	-11.4691
▁chapel	-11.4691
▁portrait	-11.4692
▁christianity	-11.4692
▁secretary	-11.4692
▁romance	-11.4696
▁prat	-11.47
dc	-11.47
▁573	-11.4705
jbr	-11.4706
▁cypress	-11.4707
cl	-11.4707
▁full	-11.4709
minami	-11.4711
▁ca	-11.4713
▁gre	-11.4717
▁65	-11.472
zl	-11.4732
xj	-11.4733
▁konig	-11.4737
▁529	-11.4741
▁kanazawa	-11.4745
ces	-11.4748
▁tales	-11.475
▁388	-11.4754
▁calumet	-11.4755
end	-11.4757
▁bond	-11.4758
▁ba	-11.476
kou	-11.476
▁459	-11.4765
▁mario	-11.4772
nishi	-11.4776
▁gra	-11.4776
▁48	-11.4788
▁505	-11.4805
▁540	-11.4806
▁kiss	-11.481
▁115	-11.4811
▁shinjuku	-11.4815
▁gregor	-11.4816
una	-11.482
▁kar	-11.4822
vr	-11.4827
▁clouds	-11.4828
▁mason	-11.4829
▁378	-11.4829
kn	-11.4831
hm	-11.4835
▁bach	-11.4837
▁rincon	-11.4841
▁armstrong	-11.4842
▁fantasia	-11.4842
▁hazel	-11.4842
▁krasnoyarsk	-11.4842
▁magyar	-11.4842
▁herrera	-11.4842
▁trinity	-11.4842
▁twenty	-11.4842
▁relationship	-11.4842
▁havana	-11.4842
▁frankfort	-11.4842
▁liberata	-11.4842
▁dutch	-11.4842
▁indo	-11.4842
▁heaven	-11.4843
▁castile	-11.4843
▁155	-11.4844
▁minuetto	-11.4845
▁harmonie	-11.4847
▁kirk	-11.4849
▁walton	-11.4853
▁wen	-11.4854
▁mitsu	-11.4855
▁came	-11.4861
▁213	-11.4862
600	-11.4863
▁253	-11.4866
▁91	-11.4869
verage	-11.4872
▁229	-11.4873
▁bol	-11.4876
▁181	-11.4884
▁464	-11.4887
▁eagle	-11.4889
▁hua	-11.4891
burn	-11.4903
xwl	-11.4904
▁wallace	-11.4907
▁iyo	-11.4909
im	-11.4909
▁70	-11.4911
bara	-11.4915
▁cumberland	-11.492
▁tres	-11.493
▁alys	-11.493
hps	-11.4932
▁kati	-11.4933
.04_88	-11.4933
elena	-11.4935
▁bang	-11.4936
▁brad	-11.4938
rh	-11.4941
▁84	-11.4949
betsu	-11.4953
▁413	-11.4959
ster	-11.4971
vn	-11.4975
otsu	-11.4978
▁luther	-11.4992
▁lynn	-11.4995
▁apollo	-11.4995
▁bhutan	-11.4995
▁catolica	-11.4995
▁conrad	-11.4995
▁irkutsk	-11.4995
▁moldova	-11.4995
▁roosevelt	-11.4995
▁qatar	-11.4995
▁jasper	-11.4995
▁cangas	-11.4995
▁prado	-11.4995
▁around	-11.4996
▁alice	-11.4997
▁keller	-11.4998
mei	-11.4998
▁scu	-11.4998
▁oriental	-11.4999
▁marta	-11.4999
▁suzhou	-11.4999
▁oceania	-11.5
▁fantastic	-11.5001
▁576	-11.5002
▁356	-11.5003
jimmy	-11.5003
▁96	-11.5004
zn	-11.5005
▁koro	-11.5005
▁bryant	-11.5008
▁zoe	-11.5008
ata	-11.5008
▁239	-11.5009
vg	-11.5009
▁lakers	-11.5009
ement	-11.5013
usand	-11.5025
▁mostovsk	-11.5027
▁513	-11.5027
▁390	-11.5031
zu	-11.5034
kai	-11.5036
▁dos	-11.5037
▁queens	-11.5038
▁ob	-11.5041
▁117	-11.5048
▁greene	-11.5048
▁friend	-11.5049
▁590	-11.5054
part	-11.5058
ria	-11.5058
▁563	-11.5066
▁451	-11.507
▁colon	-11.5079
ovsky	-11.5084
▁368	-11.5086
▁miles	-11.5086
▁380	-11.5091
cj	-11.5097
▁side	-11.5103
fb	-11.5105
▁174	-11.5109
▁alton	-11.5115
▁1923	-11.5116
▁sir	-11.5119
▁kirov	-11.5127
gen	-11.513
▁dean	-11.5136
vp	-11.5139
▁468	-11.5139
▁grange	-11.5145
ward	-11.5146
xz	-11.5147
▁bahrain	-11.515
▁fernandez	-11.515
▁guadalupe	-11.515
▁ignacio	-11.515
▁monroe	-11.515
▁novorossiysk	-11.515
▁reynolds	-11.515
▁vorspiel	-11.515
▁latvia	-11.5151
▁bureba	-11.5151
▁viejo	-11.5151
▁twist	-11.5151
▁obama	-11.5151
▁ferry	-11.5151
▁future	-11.5152
▁llc	-11.5157
▁serbia	-11.5164
▁elk	-11.517
▁407	-11.5172
▁268	-11.5172
▁oman	-11.5173
pn	-11.5177
▁preludes	-11.5181
757	-11.5182
▁cass	-11.5188
▁537	-11.5191
▁285	-11.5195
▁599	-11.5198
▁1957	-11.5199
822	-11.52
rc	-11.5203
▁girls	-11.5206
▁ce	-11.5208
▁etude	-11.5212
rg	-11.5212
▁vision	-11.5218
▁1908	-11.5219
day	-11.522
cross	-11.5221
▁445	-11.5229
▁1927	-11.5231
▁289	-11.5232
▁219	-11.5235
▁andantino	-11.5242
▁aguilar	-11.5243
▁449	-11.5245
ong	-11.5252
▁400	-11.5252
▁426	-11.5256
▁sr	-11.5257
▁pena	-11.526
ep	-11.5261
▁bou	-11.5268
▁bra	-11.527
8_	-11.5278
war	-11.5278
zj	-11.5279
▁kids	-11.5291
lq	-11.5291
200	-11.5295
▁dome	-11.5297
▁taken	-11.5299
sburg	-11.53
▁446	-11.5304
rin	-11.5306
▁xii	-11.5307
▁rikuzen	-11.5309
▁cadiz	-11.5309
▁dwight	-11.5309
▁inventor	-11.5309
▁segou	-11.5309
▁tajikistan	-11.5309
▁hyogo	-11.5309
▁saldana	-11.5309
▁slovenia	-11.5309
▁cristina	-11.5309
▁alexandria	-11.5309
▁cruci	-11.5309
▁92	-11.5311
▁stanford	-11.5312
▁portland	-11.5314
evskoy	-11.5314
legio	-11.5314
▁zaide	-11.5314
saki	-11.5322
▁omar	-11.5323
nz	-11.5325
▁pas	-11.5333
▁452	-11.5337
nbz	-11.5338
▁577	-11.5342
▁roberts	-11.5343
▁luck	-11.5346
▁hell	-11.5347
▁405	-11.5349
▁275	-11.535
▁564	-11.5358
▁152	-11.536
▁56	-11.5362
▁space	-11.5369
▁pen	-11.5371
▁knight	-11.5371
▁kung	-11.5375
▁bis	-11.5381
▁1929	-11.5383
randy	-11.5386
▁381	-11.5387
▁903	-11.5392
▁fortune	-11.5402
nar	-11.5406
▁182	-11.5408
▁440	-11.5409
▁phillips	-11.5412
audio	-11.5413
▁508	-11.5416
hb	-11.5417
hj	-11.5418
vin	-11.542
▁ise	-11.5421
▁marin	-11.543
▁456	-11.5439
bridge	-11.5441
▁215	-11.5441
kyu	-11.5443
▁yamagata	-11.5452
▁monument	-11.5456
▁pale	-11.5458
▁259	-11.5459
▁carroll	-11.5469
▁associat	-11.5469
▁transport	-11.5469
▁bangladesh	-11.5469
▁brunei	-11.5469
▁liechtenstein	-11.5469
▁pontiac	-11.5469
▁congress	-11.5469
▁judaism	-11.5469
▁oscar	-11.5469
▁harvey	-11.5469
▁cedar	-11.5469
lh	-11.547
▁nanchang	-11.547
▁local	-11.547
▁merida	-11.547
▁gunma	-11.547
▁deux	-11.5471
▁jesse	-11.5471
▁methodism	-11.5471
▁sanders	-11.5471
▁503	-11.5481
▁86	-11.5483
▁krasnyy	-11.5487
gd	-11.5488
▁dayton	-11.5492
▁set	-11.5493
▁anse	-11.5504
▁too	-11.5508
yv	-11.5511
▁1936	-11.5511
ran	-11.5513
▁trek	-11.5513
▁burton	-11.5517
▁row	-11.5524
renee	-11.5528
▁297	-11.5529
car	-11.5529
▁buena	-11.5534
▁389	-11.5536
▁401	-11.5538
jj	-11.5541
hvy	-11.555
xk	-11.555
▁vale	-11.5554
▁434	-11.5565
▁370	-11.5575
2_	-11.5588
chuan	-11.5593
▁230	-11.5594
▁562	-11.5595
▁523	-11.5605
▁marc	-11.5608
▁dir	-11.5611
▁nation	-11.5612
▁465	-11.5612
▁know	-11.5617
▁alex	-11.5617
▁kun	-11.5624
▁butte	-11.5626
▁gene	-11.5629
aki	-11.5629
▁develop	-11.5631
guaynabo	-11.5633
▁chelyabinsk	-11.5633
▁gettysburg	-11.5633
▁kendrick	-11.5633
▁koutiala	-11.5633
▁lodge	-11.5633
▁maldives	-11.5633
▁passenger	-11.5633
▁sinaloa	-11.5633
▁temryuk	-11.5633
▁yamato	-11.5633
▁sverdlovsk	-11.5633
▁justice	-11.5633
▁castilla	-11.5633
▁banos	-11.5633
▁glendale	-11.5633
▁honey	-11.5633
ctic	-11.5633
▁canaria	-11.5633
▁watson	-11.5634
▁britain	-11.5635
▁milton	-11.5636
▁chase	-11.5637
▁teachers	-11.5638
▁musician	-11.5638
upon	-11.5638
▁272	-11.5639
▁431	-11.5648
▁170	-11.5649
282	-11.5649
aba	-11.565
▁411	-11.565
▁wu	-11.5652
558	-11.5652
▁142	-11.5655
nq	-11.5656
▁490	-11.5657
▁sergi	-11.5657
▁blanco	-11.5658
pm	-11.5669
▁lil	-11.5676
▁beagle	-11.5677
▁wing	-11.5684
▁bud	-11.5685
▁138	-11.5686
md	-11.5686
▁mit	-11.5687
▁greg	-11.5688
▁bennett	-11.5696
▁lieb	-11.5702
▁munoz	-11.5706
▁372	-11.5707
▁pastore	-11.5707
▁terra	-11.5725
kha	-11.5737
▁245	-11.5745
▁notes	-11.5746
▁julia	-11.5757
▁608	-11.576
pj	-11.5764
▁480	-11.5768
moto	-11.5783
▁66	-11.5792
▁opera	-11.5792
▁ethics	-11.5798
▁flood	-11.5798
▁gipuzkoa	-11.5798
▁huelva	-11.5798
▁marathon	-11.5798
▁religieuses	-11.5798
▁uzbekistan	-11.5798
▁niagara	-11.5799
▁chief	-11.5799
▁jabal	-11.5799
▁cherry	-11.5799
▁tolls	-11.5799
▁dixon	-11.5799
▁romantic	-11.5799
yukhov	-11.5801
▁alhama	-11.5802
▁arabic	-11.5803
▁reading	-11.5804
▁diana	-11.5805
▁hughes	-11.5806
▁poeti	-11.5808
▁copy	-11.5809
229/4	-11.581
▁inlet	-11.5811
▁211	-11.5812
▁door	-11.5816
▁palacios	-11.5818
▁guy	-11.5818
comp	-11.5825
▁naga	-11.5826
▁perm	-11.5826
▁398	-11.5826
▁est	-11.5827
▁511	-11.5827
▁424	-11.5827
▁252	-11.5828
▁valse	-11.583
▁roo	-11.5831
oso	-11.5837
▁notre	-11.5842
dgff	-11.5848
ile	-11.5853
▁qu	-11.5854
cena	-11.5856
▁nun	-11.5862
▁258	-11.5863
▁haim	-11.587
▁201	-11.5871
af	-11.5874
▁ever	-11.5874
anse	-11.5875
scd	-11.5878
▁ol	-11.5881
dw	-11.5888
▁lugo	-11.5889
▁584	-11.5891
oma	-11.5892
nk	-11.5895
▁universite	-11.5897
▁512	-11.59
▁580	-11.5906
▁rush	-11.5919
▁quest	-11.593
▁179	-11.5942
hpp	-11.5944
▁tour	-11.5952
▁meadow	-11.5955
▁organ	-11.5959
▁glob	-11.5962
▁190	-11.5964
▁spirit	-11.5964
▁246	-11.5966
▁bilbao	-11.5967
▁industrial	-11.5967
▁kyrgyzstan	-11.5967
▁litchfield	-11.5967
▁novosibirsk	-11.5967
▁turkmenistan	-11.5967
▁thomson	-11.5967
▁cervera	-11.5967
▁vicenc	-11.5967
▁chuck	-11.5968
amanti	-11.5968
▁moline	-11.5968
▁betty	-11.5968
▁esgueva	-11.5968
▁hugo	-11.5968
▁grum	-11.5968
▁zion	-11.597
▁bartlett	-11.5971
▁felix	-11.5971
▁coal	-11.5978
▁542	-11.5979
▁rivera	-11.5986
▁majorca	-11.5987
▁27	-11.599
louis	-11.5993
▁1947	-11.6
nueva	-11.6002
caguas	-11.6003
▁kei	-11.6012
▁71	-11.6014
▁korenovsk	-11.6015
nou	-11.602
tive	-11.6022
▁bobby	-11.6027
▁sandy	-11.6032
▁1946	-11.6037
yx	-11.6047
▁jara	-11.6056
▁597	-11.6064
▁367	-11.6066
where	-11.6066
▁rural	-11.6067
▁484	-11.6078
▁hands	-11.6081
▁237	-11.6086
▁220	-11.6086
▁347	-11.6087
▁mur	-11.609
qu	-11.6103
▁321	-11.6104
▁58	-11.6108
pur	-11.6109
apa	-11.6112
old	-11.6113
.12	-11.6116
▁roy	-11.6121
▁polo	-11.6129
▁bella	-11.6133
▁jump	-11.6136
▁address	-11.6137
alternate	-11.6139
▁aquarium	-11.6139
▁montpelier	-11.6139
▁pinnacle	-11.6139
▁pixar	-11.6139
▁riviera	-11.6139
▁kaliningrad	-11.6139
▁belgorod	-11.6139
▁velez	-11.6139
▁zacatecas	-11.6139
▁wellington	-11.6139
▁serra	-11.6139
▁quincy	-11.6139
▁nicom	-11.6139
▁pierce	-11.6139
▁farmington	-11.6139
▁molto	-11.6139
▁atto	-11.614
charge	-11.614
▁maya	-11.614
827	-11.614
▁pozuelo	-11.614
sville	-11.6141
▁count	-11.6143
▁willis	-11.6143
▁barr	-11.6144
▁600	-11.6145
ula	-11.6147
▁basilica	-11.6147
▁marche	-11.6158
aro	-11.6158
oki	-11.616
▁hai	-11.6163
▁460	-11.6165
▁tung	-11.6169
▁mon	-11.6171
287	-11.6174
▁marion	-11.6179
▁148	-11.618
▁218	-11.618
px	-11.6184
▁435	-11.6184
▁tan	-11.6189
nord	-11.6191
896	-11.6198
▁dale	-11.6201
▁kawasaki	-11.6202
▁596	-11.6202
▁474	-11.6204
▁333	-11.6205
xl	-11.6209
▁mi	-11.6212
▁guyana	-11.6214
▁fur	-11.6214
▁trans	-11.6215
▁bei	-11.6215
▁rocky	-11.6218
sie	-11.6218
▁567	-11.622
rw	-11.6224
kb	-11.6228
▁mound	-11.6231
▁hay	-11.6236
▁ellis	-11.6241
▁295	-11.6241
▁1925	-11.6244
▁jing	-11.6251
other	-11.6257
▁grandes	-11.6259
xb	-11.6263
fj	-11.6268
▁149	-11.6269
wf	-11.627
▁case	-11.6271
xn	-11.6273
▁546	-11.628
▁sin	-11.628
eu	-11.6289
▁187	-11.6295
▁jiang	-11.6295
▁227	-11.6299
▁1000	-11.631
▁biscay	-11.6314
▁sidney	-11.6314
▁stratovolcano	-11.6314
▁stuart	-11.6314
▁universitario	-11.6314
▁volgograd	-11.6314
▁winchester	-11.6314
▁caicos	-11.6314
▁collado	-11.6314
▁tramp	-11.6314
▁yukon	-11.6314
▁fairview	-11.6314
▁castellar	-11.6314
▁burr	-11.6315
▁jackie	-11.6316
▁painting	-11.6316
▁trust	-11.6319
▁spec	-11.6319
gata	-11.6327
▁ave	-11.6329
hqf	-11.6331
▁jacksonville	-11.6333
▁allan	-11.6336
▁146	-11.6343
▁baptists	-11.6348
▁col	-11.6351
▁being	-11.6364
▁pu	-11.6372
▁1920	-11.6375
ray	-11.6377
bels	-11.6384
▁kursk	-11.6384
▁zum	-11.6386
▁jerez	-11.6389
▁477	-11.639
ovskiy	-11.6392
▁557	-11.6393
▁bale	-11.6394
ramona	-11.6394
▁457	-11.6395
▁shan	-11.6396
▁255	-11.6398
▁kamo	-11.6398
.120	-11.6399
▁inside	-11.6401
▁tre	-11.6404
▁fields	-11.6404
▁349	-11.6408
▁yamaguchi	-11.6409
759	-11.6412
▁169	-11.6415
▁311	-11.6419
dx	-11.6421
▁spark	-11.6424
ridge	-11.6431
▁toyo	-11.6432
ien	-11.6435
jd	-11.6436
nce	-11.6438
▁army	-11.6441
kin	-11.6444
nw	-11.6446
▁leader	-11.6448
▁520	-11.645
▁346	-11.6457
▁1924	-11.6461
dl	-11.6464
▁369	-11.647
▁57	-11.6473
mia	-11.6483
▁pool	-11.6484
▁plum	-11.6487
xfn	-11.649
▁walsh	-11.649
▁gabriel	-11.6491
▁jorge	-11.6491
▁queretaro	-11.6491
▁wabash	-11.6491
▁rochester	-11.6491
▁alameda	-11.6491
▁drew	-11.6491
▁machiavelli	-11.6491
▁alcor	-11.6491
▁jeremiah	-11.6491
▁romney	-11.6491
▁devil	-11.6492
▁josi	-11.6492
▁mateo	-11.6492
▁litera	-11.6492
▁pozo	-11.6492
vw	-11.6493
▁cayman	-11.6493
▁highway	-11.6493
▁morales	-11.6493
▁morrison	-11.6494
▁maykopsk	-11.6495
xm	-11.6496
▁gone	-11.6499
▁kerry	-11.6503
▁tigers	-11.6503
▁face	-11.6504
▁han	-11.6505
▁393	-11.6507
▁salas	-11.6509
▁fish	-11.6509
▁533	-11.6509
hammad	-11.6509
▁helena	-11.6511
▁240	-11.6517
▁470	-11.6522
▁edgar	-11.6523
▁mind	-11.6529
ough	-11.6532
▁texts	-11.6536
▁these	-11.6542
▁1959	-11.6546
▁575	-11.6549
hase	-11.655
oca	-11.655
▁elephants	-11.6551
▁692	-11.6552
qv	-11.656
▁262	-11.6564
▁julie	-11.6565
▁basket	-11.6568
▁exchange	-11.6568
wan	-11.6569
▁northeast	-11.657
hpy	-11.6577
▁emma	-11.658
▁447	-11.6584
▁394	-11.6589
▁gi	-11.6589
▁jan	-11.659
▁kur	-11.6593
▁toyama	-11.6594
▁581	-11.6598
▁493	-11.6598
poirot	-11.6601
▁reader	-11.6601
▁banks	-11.6615
▁214	-11.6617
water	-11.6621
▁298	-11.6623
▁sign	-11.6623
▁mac	-11.6644
▁290	-11.6649
▁153	-11.6653
▁llanos	-11.6656
▁muro	-11.6656
rsten	-11.6657
▁klyuch	-11.6661
▁535	-11.6663
▁sub	-11.6666
▁dollar	-11.6666
▁150	-11.6667
▁alphabet	-11.6672
▁cantabria	-11.6672
▁kuwait	-11.6672
▁oasis	-11.6672
▁quintanilla	-11.6672
▁redpost	-11.6672
▁villaverde	-11.6672
▁storm	-11.6672
▁zarza	-11.6673
▁iwaki	-11.6673
▁keith	-11.6673
▁sunset	-11.6673
▁perth	-11.6673
▁shimane	-11.6674
▁per	-11.6678
▁fate	-11.6679
▁comple	-11.668
▁hole	-11.6681
all	-11.6681
chor	-11.6683
▁preston	-11.6684
uch	-11.6686
▁rollin	-11.6691
jf	-11.6693
▁278	-11.6697
▁antoni	-11.6698
▁martyr	-11.6702
▁184	-11.6702
bury	-11.6703
▁copan	-11.6703
▁arche	-11.6704
▁leningradsk	-11.6711
▁521	-11.6718
▁parsifal	-11.6722
▁145	-11.6723
▁later	-11.6726
▁touch	-11.6728
▁rus	-11.6734
▁coro	-11.6735
▁602	-11.6735
▁bla	-11.6741
▁amy	-11.6744
-23	-11.6745
▁1937	-11.6748
▁scarborough	-11.6751
▁566	-11.6753
aire	-11.6755
▁fast	-11.6756
▁arie	-11.6757
▁578	-11.6761
▁548	-11.6766
hata	-11.677
silla	-11.6772
wards	-11.6772
▁379	-11.6773
▁223	-11.6777
▁pont	-11.6777
▁harvard	-11.678
▁dirty	-11.6781
▁baie	-11.6784
▁curtis	-11.6785
▁gallego	-11.6785
▁fi	-11.6787
▁variation	-11.6787
leon	-11.6788
▁mas	-11.6792
dong	-11.6798
▁195	-11.6799
▁165	-11.6805
oi	-11.6806
▁478	-11.6811
pro	-11.6813
▁joy	-11.6813
▁boys	-11.6817
pan	-11.6818
▁428	-11.6822
▁254	-11.6822
-19	-11.6825
new	-11.6825
▁583	-11.6832
▁sagra	-11.6842
▁leonard	-11.6848
▁frankfurt	-11.6853
▁bun	-11.6854
▁dennis	-11.6855
▁532	-11.6856
sebastien	-11.6857
▁coahuila	-11.6857
▁doherty	-11.6857
▁ecuador	-11.6857
▁kemerovo	-11.6857
▁linares	-11.6857
▁mesopotamia	-11.6857
▁okrug	-11.6857
▁scotland	-11.6857
▁shiloh	-11.6857
▁society	-11.6857
▁zellweger	-11.6857
▁uspensk	-11.6857
▁bunkyo	-11.6857
▁cultura	-11.6857
▁price	-11.6857
▁maiden	-11.6857
▁santibanez	-11.6858
▁benito	-11.6858
▁jarama	-11.6858
▁kyle	-11.6858
▁goryach	-11.6859
▁gates	-11.6859
amanda	-11.6859
yc	-11.686
▁turn	-11.6861
▁foundation	-11.6868
▁orland	-11.6868
▁593	-11.6869
▁594	-11.6871
▁wo	-11.6871
▁cassa	-11.6874
▁mich	-11.6875
▁personal	-11.6878
▁give	-11.688
▁brooks	-11.6881
▁36	-11.6881
vl	-11.6894
▁cano	-11.6894
▁oro	-11.6901
▁kurganinsk	-11.6901
▁webster	-11.6903
▁cox	-11.6907
▁317	-11.6909
▁want	-11.691
▁359	-11.6917
.50	-11.6918
gate	-11.6921
hvz	-11.6925
hpc	-11.6928
ovka	-11.693
▁altai	-11.693
▁tochigi	-11.6937
▁yamanashi	-11.6937
br	-11.6938
▁chansons	-11.6939
kns	-11.6939
▁sex	-11.6944
▁292	-11.6951
▁1935	-11.6952
▁dies	-11.6962
▁him	-11.6966
shim	-11.6969
▁cen	-11.6975
▁friends	-11.6976
xi	-11.698
▁religions	-11.6984
956	-11.6988
rise	-11.6988
▁538	-11.6989
▁crown	-11.6994
▁235	-11.7004
▁436	-11.7016
▁carbon	-11.7021
▁ter	-11.7025
yw	-11.7029
marie	-11.7031
iba	-11.7033
ale	-11.7035
house	-11.7037
▁flag	-11.7038
▁499	-11.7042
▁ryazan	-11.7044
croft	-11.7044
▁tera	-11.7044
▁alcantara	-11.7045
▁elevator	-11.7045
▁extremadura	-11.7045
▁guernsey	-11.7045
▁hacienda	-11.7045
▁henshaw	-11.7045
▁hinojosa	-11.7045
▁manzanares	-11.7045
▁marriott	-11.7045
▁niccol	-11.7045
▁pharmaceutical	-11.7045
▁physician	-11.7045
▁rugby	-11.7045
▁syracuse	-11.7045
▁timothy	-11.7045
▁celebrity	-11.7045
▁evergreen	-11.7045
▁penedes	-11.7045
▁sevilla	-11.7045
▁andalusia	-11.7045
▁irish	-11.7045
▁illustrated	-11.7045
▁melville	-11.7045
▁samara	-11.7046
▁shinano	-11.7047
▁396	-11.7048
▁miranda	-11.7048
▁nate	-11.705
▁molina	-11.7052
▁47	-11.7053
yi	-11.7053
maki	-11.7053
▁some	-11.7059
▁kalininsk	-11.706
ik	-11.706
terre	-11.7064
▁tucker	-11.7065
▁susan	-11.7068
▁pest	-11.7072
▁grave	-11.7072
▁376	-11.7077
▁rogers	-11.7078
op	-11.7079
▁177	-11.7084
▁hank	-11.7087
▁329	-11.7095
▁601	-11.71
mq	-11.71
ist	-11.7101
wer	-11.7102
▁303	-11.7103
▁southwest	-11.7105
▁560	-11.7106
▁ungarische	-11.7122
rfl	-11.7124
▁tierra	-11.7126
▁tong	-11.7135
▁kara	-11.7137
▁482	-11.7137
▁link	-11.7144
long	-11.7148
kan	-11.717
▁sister	-11.7172
▁brave	-11.7173
▁brother	-11.7173
▁1926	-11.7173
▁force	-11.7174
▁315	-11.7181
▁631	-11.7181
▁clarinet	-11.7182
775	-11.7182
kw	-11.7185
▁gun	-11.7194
▁mos	-11.7198
▁430	-11.7202
▁animals	-11.7214
ken	-11.7214
▁544	-11.7219
▁kawa	-11.7228
rio	-11.7233
▁henri	-11.7236
▁constitution	-11.7236
▁ackroyd	-11.7236
▁colmenar	-11.7236
▁echizen	-11.7236
▁eduard	-11.7236
▁fitzgerald	-11.7236
▁florence	-11.7236
▁hutchersonm	-11.7236
▁managua	-11.7236
▁nemesis	-11.7236
▁pisuerga	-11.7236
▁shaanxi	-11.7236
▁unknown	-11.7236
▁lasalle	-11.7236
▁scipione	-11.7236
▁torrejon	-11.7236
▁democratic	-11.7236
▁novopokrovskiy	-11.7236
▁curtain	-11.7236
▁tears	-11.7236
▁harold	-11.7236
▁tight	-11.7236
▁copperfield	-11.7236
suzanne	-11.7236
among	-11.7236
▁kayes	-11.7238
uncle	-11.7238
ido	-11.7239
▁rockford	-11.7239
▁kenya	-11.7242
▁210	-11.7243
▁peterson	-11.7244
▁485	-11.7245
▁detective	-11.7246
chuo	-11.7248
▁rivas	-11.7248
▁632	-11.7251
▁inventions	-11.7255
▁348	-11.7256
550	-11.726
▁659	-11.7262
ud	-11.7266
rk	-11.7268
▁cabin	-11.727
lk	-11.7288
▁494	-11.7288
ise	-11.7293
▁319	-11.7297
▁192	-11.7297
ogno	-11.7301
▁438	-11.7306
▁introduc	-11.7307
ista	-11.7308
▁1928	-11.7325
▁canar	-11.7326
▁kama	-11.7336
▁228	-11.7339
▁574	-11.7339
▁deest	-11.7342
▁592	-11.7346
▁sidewa	-11.7349
uni	-11.7351
▁apple	-11.7351
▁hid	-11.7354
▁265	-11.7355
omiya	-11.7358
xh	-11.7362
▁kurgan	-11.7364
▁472	-11.7365
jp	-11.7368
▁ap	-11.7371
vk	-11.7379
▁429	-11.738
lz	-11.7386
cm	-11.7387
▁395	-11.7392
ene	-11.7396
cc	-11.7399
▁ueno	-11.7403
▁243	-11.7405
▁oktyabr	-11.7409
▁565	-11.741
▁large	-11.7412
classics	-11.7414
tree	-11.7415
wd	-11.7418
▁cabezas	-11.7419
▁481	-11.7421
▁719	-11.7422
▁jerem	-11.7431
▁bolivia	-11.7431
▁cordillera	-11.7431
▁hampton	-11.7431
▁koulikoro	-11.7431
▁pavilion	-11.7431
▁walnut	-11.7431
▁conservatory	-11.7431
▁weihnachts	-11.7431
▁zhengzhou	-11.7431
▁christchurch	-11.7431
uzen	-11.7431
apres	-11.7431
▁waterfront	-11.7431
▁madre	-11.7432
▁hyatt	-11.7433
▁stage	-11.7435
▁greatest	-11.7436
.075	-11.7437
▁kwon	-11.7437
ricke	-11.744
▁xin	-11.7442
▁507	-11.7442
▁pino	-11.7448
▁adrian	-11.7451
oyama	-11.7455
▁kashima	-11.7458
▁duo	-11.7461
ichor	-11.7465
▁703	-11.7466
▁559	-11.7467
▁270	-11.7471
▁330	-11.7472
ante	-11.7473
▁parkland	-11.7475
▁tosa	-11.7476
▁680	-11.7481
mz	-11.7487
ojo	-11.749
holm	-11.7491
yg	-11.7496
▁muse	-11.7505
▁579	-11.7523
976	-11.7525
yf	-11.7526
▁gil	-11.7526
▁286	-11.753
▁419	-11.7531
▁lawn	-11.7531
pk	-11.7533
737	-11.7537
▁233	-11.7538
▁barrios	-11.7539
▁lower	-11.754
▁ward	-11.7541
▁aguadilla	-11.7547
▁artes	-11.7549
▁vys	-11.7552
gc	-11.7559
naya	-11.756
▁plain	-11.7563
ww	-11.7566
zan	-11.757
▁649	-11.7573
▁athletic	-11.7573
▁woodland	-11.7574
▁campillo	-11.7574
▁707	-11.7576
xd	-11.7586
▁bend	-11.7588
▁enrique	-11.7599
▁harper	-11.76
ike	-11.7603
▁770	-11.7611
fd	-11.7612
▁font	-11.7613
▁castrillo	-11.7614
▁highlands	-11.7616
dani	-11.7616
cas	-11.7619
▁ronald	-11.762
iya	-11.7621
▁hugh	-11.7622
▁tavern	-11.763
▁bahia	-11.763
▁circle	-11.763
▁focus	-11.763
▁inverness	-11.763
▁pioneer	-11.763
▁terminus	-11.763
▁unexpected	-11.763
▁yucatan	-11.763
▁churchill	-11.763
▁kunming	-11.763
▁channel	-11.763
▁trouble	-11.763
▁spider	-11.763
▁ncis	-11.763
▁jilin	-11.763
▁stockton	-11.763
▁something	-11.763
▁cyrus	-11.7631
▁feast	-11.7631
▁johnston	-11.7631
▁sweet	-11.7631
▁bailey	-11.7631
▁fuzhou	-11.7631
▁cocle	-11.7631
▁greenwood	-11.7634
▁510	-11.7635
asa	-11.7639
▁226	-11.7644
▁clement	-11.7644
▁461	-11.7649
sur	-11.7651
▁nationalities	-11.7654
▁628	-11.766
hime	-11.7661
▁217	-11.7662
▁648	-11.7665
▁kate	-11.7672
ole	-11.7673
.04_74	-11.7673
nfm	-11.7674
▁323	-11.7685
▁539	-11.7686
▁238	-11.7696
.0110	-11.77
▁altar	-11.7702
group	-11.7708
min	-11.7716
▁harps	-11.772
ges	-11.7722
dougou	-11.7723
-18	-11.7724
▁607	-11.7726
cb	-11.7729
959	-11.7733
yd	-11.7735
com	-11.7739
▁697	-11.774
▁616	-11.7741
▁524	-11.7744
▁433	-11.7747
▁591	-11.7749
▁mein	-11.775
▁1932	-11.7751
▁316	-11.7751
.063	-11.7763
zuka	-11.7763
▁613	-11.7766
▁403	-11.7766
▁1903	-11.7767
hiro	-11.7768
▁690	-11.7768
▁gora	-11.7774
▁ban	-11.7779
▁edmund	-11.778
worth	-11.7783
▁lyon	-11.7785
▁415	-11.7788
▁boll	-11.7792
▁color	-11.7795
▁gas	-11.7797
▁408	-11.7797
▁andy	-11.7801
rjx	-11.7808
zp	-11.7814
▁toyota	-11.7816
▁chandler	-11.7832
▁arousa	-11.7833
▁balloon	-11.7833
▁freedom	-11.7833
▁hurricane	-11.7833
▁maadi	-11.7833
▁paterna	-11.7833
▁villaviciosa	-11.7833
▁tuvalu	-11.7833
▁tokushima	-11.7833
▁hitachi	-11.7833
▁convention	-11.7833
▁pilot	-11.7833
▁landmark	-11.7833
▁qinghai	-11.7833
▁twits	-11.7833
▁poplar	-11.7833
uefa	-11.7833
▁iwate	-11.7834
▁shiga	-11.7834
▁zurich	-11.7834
▁camino	-11.7835
▁endless	-11.7836
▁ste	-11.7836
▁step	-11.7836
▁lucy	-11.7836
▁june	-11.7838
▁nine	-11.7844
▁quinn	-11.7845
▁oita	-11.7849
jm	-11.7851
non	-11.7852
uary	-11.7853
▁arcos	-11.7854
-2	-11.7854
▁bala	-11.7859
▁tula	-11.7863
hq	-11.7865
▁pick	-11.7867
▁338	-11.7867
▁rises	-11.7871
▁687	-11.7872
▁tsu	-11.7875
ui	-11.7878
▁dame	-11.7882
▁kane	-11.7883
▁sai	-11.7884
canoe	-11.7895
▁tian	-11.7896
kkm	-11.7899
▁stephan	-11.79
954	-11.79
▁364	-11.7903
▁ein	-11.7917
▁tor	-11.7918
▁antoine	-11.7921
mh	-11.7925
▁1934	-11.7928
wr	-11.793
▁1919	-11.7937
▁622	-11.7938
▁502	-11.7944
yne	-11.7944
ammy	-11.7945
stadium	-11.7945
london	-11.7945
cx	-11.7947
▁280	-11.7951
▁665	-11.7954
uda	-11.7962
798	-11.7976
▁guia	-11.798
kei	-11.7984
gang	-11.7987
▁417	-11.7987
▁dun	-11.7988
▁ground	-11.7993
▁lions	-11.7993
ive	-11.7998
▁266	-11.7999
▁arms	-11.8004
▁497	-11.8007
rou	-11.8012
▁milan	-11.8012
▁bird	-11.8014
▁mie	-11.8014
▁491	-11.8027
▁tri	-11.8028
▁664	-11.8034
▁puig	-11.8036
▁think	-11.8036
▁bel	-11.8038
▁moron	-11.8039
▁peril	-11.8039
▁666	-11.8039
▁pervomaysk	-11.804
hospitalet	-11.804
▁bilitis	-11.804
▁castejon	-11.804
▁celebrities	-11.804
▁collegiate	-11.804
▁december	-11.804
▁plasencia	-11.804
▁hastings	-11.804
▁mizuho	-11.804
▁rodrigo	-11.804
▁tragedy	-11.804
▁pryor	-11.804
▁jungle	-11.804
▁distribution	-11.804
▁leone	-11.804
▁blair	-11.8041
▁changsha	-11.8041
▁midway	-11.8041
▁import	-11.8041
▁beyon	-11.8041
▁steelers	-11.8041
haydn	-11.8041
▁own	-11.8042
▁sequenz	-11.8044
▁37	-11.8046
mea	-11.8054
▁text	-11.8057
▁sarah	-11.8058
tom	-11.806
▁shann	-11.8063
862	-11.8068
ouze	-11.8071
▁334	-11.8071
▁betul	-11.8073
▁1930	-11.8074
▁305	-11.8075
▁piedras	-11.8077
▁primorsky	-11.808
▁collect	-11.8081
610	-11.8084
▁328	-11.8086
▁gilbert	-11.8089
▁sada	-11.8091
▁203	-11.8093
olo	-11.8096
qb	-11.8096
oo	-11.8099
▁doug	-11.81
▁191	-11.8101
▁aux	-11.8105
▁mul	-11.8105
▁brothers	-11.811
▁489	-11.8112
vm	-11.8112
▁180	-11.8115
▁751	-11.8117
pin	-11.8118
250	-11.812
▁611	-11.812
▁724	-11.8121
▁296	-11.8122
▁violas	-11.8129
▁evolution	-11.813
▁651	-11.8133
▁ag	-11.8133
▁jenn	-11.8137
▁629	-11.8138
▁kuban	-11.8141
▁209	-11.8142
len	-11.8143
▁314	-11.8151
▁cabanas	-11.8155
xa	-11.8156
▁hercules	-11.8156
▁2)	-11.8156
-1	-11.8158
lison	-11.8159
anshan	-11.816
cp	-11.8163
▁tokai	-11.8167
▁617	-11.8168
kata	-11.818
▁310	-11.8186
ash	-11.8187
▁694	-11.8191
▁645	-11.8199
▁479	-11.8206
light	-11.8208
▁569	-11.821
▁canta	-11.8211
▁679	-11.8212
▁kill	-11.8218
▁novel	-11.8219
lx	-11.8221
ches	-11.8223
343	-11.8226
our	-11.8229
▁670	-11.8232
▁nihon	-11.8234
▁cam	-11.8235
▁boi	-11.8238
▁wheel	-11.8241
653	-11.8243
ulati	-11.8244
▁pekin	-11.8246
▁786	-11.8246
sharp	-11.8252
▁algonquin	-11.8252
▁bangkok	-11.8252
▁cartagena	-11.8252
▁funeral	-11.8252
▁hopkins	-11.8252
▁humacao	-11.8252
▁kardashian	-11.8252
▁mcdonald	-11.8252
▁midfielder	-11.8252
▁moraleja	-11.8252
▁murmansk	-11.8252
▁pickwick	-11.8252
▁tajuna	-11.8252
▁territory	-11.8252
▁trujillo	-11.8252
▁beautiful	-11.8252
▁quasi	-11.8252
▁morazan	-11.8252
▁mansfield	-11.8252
▁wesley	-11.8252
kkqx	-11.8253
▁sarria	-11.8253
▁began	-11.8253
▁money	-11.8253
▁linda	-11.8263
▁530	-11.8265
▁steel	-11.8269
▁baptist	-11.8274
hpr	-11.8274
▁365	-11.8275
ule	-11.8278
997	-11.8284
▁carr	-11.8287
855	-11.8289
▁339	-11.8292
▁sakai	-11.8296
▁1911	-11.8305
▁ru	-11.831
▁dangerous	-11.8311
▁ishikawa	-11.8311
▁dans	-11.8313
▁wells	-11.8316
▁richardson	-11.8317
-17	-11.8321
▁secrets	-11.8322
▁links	-11.8324
▁534	-11.8325
▁ding	-11.8332
▁alamo	-11.8337
▁vieja	-11.8338
▁693	-11.8341
▁hurley	-11.8349
▁605	-11.835
mont	-11.8361
▁ballad	-11.8361
yh	-11.8363
▁barros	-11.8364
omo	-11.8369
elkovsk	-11.8369
▁646	-11.8375
ica	-11.8384
las	-11.8394
▁476	-11.8395
xq	-11.8397
▁501	-11.8401
▁stevens	-11.8413
iye	-11.8416
▁684	-11.8422
▁tin	-11.8425
▁piedra	-11.8431
gakuin	-11.8434
collection	-11.8435
▁221	-11.8435
france	-11.8436
▁partners	-11.8437
raul	-11.844
xx	-11.8441
▁463	-11.8445
▁blowin	-11.8446
▁servi	-11.8452
▁xiii	-11.8452
▁671	-11.8455
nen	-11.8456
toku	-11.8456
▁urban	-11.8457
▁762	-11.8462
▁441	-11.8462
▁cu	-11.8464
▁shelby	-11.8467
sverbot	-11.8468
▁bejar	-11.8468
▁cicero	-11.8468
▁efron	-11.8468
▁memphis	-11.8468
▁quimby	-11.8468
▁seyfried	-11.8468
▁tamaulipas	-11.8468
▁torrecilla	-11.8468
▁villarejo	-11.8468
▁westmoreland	-11.8468
▁arkhangelsk	-11.8468
▁candelaria	-11.8468
▁grozny	-11.8468
▁indianapolis	-11.8468
▁xvi	-11.8468
▁pirates	-11.8468
▁aaron	-11.8468
▁gosling	-11.8468
▁soubre	-11.8468
▁harbin	-11.8468
▁ningbo	-11.8468
▁elmwood	-11.8469
▁hyde	-11.8469
▁nancy	-11.8469
▁evanston	-11.8469
▁lisa	-11.847
▁shannon	-11.847
▁coco	-11.8471
▁gap	-11.8472
▁hillside	-11.8474
▁amus	-11.8475
▁carmel	-11.8475
▁604	-11.8476
▁seth	-11.8482
time	-11.8482
▁pola	-11.8483
▁ural	-11.8484
▁515	-11.8486
▁hub	-11.8486
▁598	-11.849
▁735	-11.849
984	-11.8491
▁got	-11.8493
▁casey	-11.8496
shui	-11.8496
▁albalat	-11.8497
▁945	-11.8498
▁soir	-11.8503
signet	-11.8504
▁voices	-11.8505
nomiya	-11.8506
cel	-11.8507
▁balti	-11.8509
maru	-11.851
nmx	-11.851
ware	-11.8511
▁com	-11.8511
▁vic	-11.8516
oli	-11.8522
▁boyd	-11.8527
▁kent	-11.8532
▁677	-11.8535
ful	-11.8535
marsch	-11.8535
▁pierre	-11.8538
885	-11.854
▁683	-11.8546
▁273	-11.8547
▁358	-11.8548
rus	-11.8551
▁193	-11.8553
▁722	-11.8557
▁cards	-11.8572
cq	-11.8573
▁194	-11.8574
▁1931	-11.8574
▁moro	-11.8575
cer	-11.8577
▁key	-11.8581
miley	-11.8581
▁1906	-11.8589
bil	-11.8593
▁johann	-11.8594
hang	-11.8595
▁357	-11.8605
rae	-11.861
▁locke	-11.8618
wx	-11.862
▁668	-11.8624
ju	-11.8625
▁618	-11.8625
▁615	-11.8637
▁yankees	-11.8652
▁1917	-11.8655
▁wizard	-11.8655
▁letter	-11.8658
qui	-11.866
▁332	-11.8666
▁twelve	-11.8666
▁motor	-11.8668
▁341	-11.8673
▁grade	-11.8678
qq	-11.8681
▁belmont	-11.8681
▁518	-11.8685
jk	-11.8687
▁je	-11.8688
▁menuet	-11.8689
board	-11.8689
▁aerodrome	-11.8689
▁casualt	-11.8689
▁lethbridge	-11.8689
▁puerta	-11.8689
▁motorcycle	-11.8689
▁shijiazhuang	-11.8689
▁broadview	-11.8689
▁hoffman	-11.8689
▁margaret	-11.8689
▁wedding	-11.8689
▁video	-11.8689
▁gansu	-11.8689
▁kintetsu	-11.8689
▁ferguson	-11.8689
▁amazon	-11.869
▁geneva	-11.869
▁kendal	-11.869
▁wartburg	-11.869
▁devon	-11.869
▁innocence	-11.869
monfort	-11.869
▁sparta	-11.869
▁sedona	-11.869
▁treat	-11.8691
▁tomorrow	-11.8691
▁augustus	-11.8692
otsuka	-11.8695
▁650	-11.8697
▁goose	-11.8701
▁406	-11.8709
▁move	-11.871
▁eighty	-11.8712
aku	-11.8714
▁burj	-11.8721
▁399	-11.8722
▁activis	-11.8724
▁athens	-11.873
▁shop	-11.8734
▁sen	-11.8735
ini	-11.8739
▁688	-11.8747
▁612	-11.8747
ities	-11.8748
▁637	-11.875
kam	-11.8751
▁595	-11.8751
▁840	-11.8752
▁champions	-11.8754
▁706	-11.8754
▁oshima	-11.8764
▁188	-11.8765
▁lesse	-11.8766
▁362	-11.877
▁79	-11.877
▁staff	-11.877
▁marco	-11.8778
▁tar	-11.8789
764	-11.8797
▁rangers	-11.88
▁shaw	-11.8812
▁644	-11.8819
▁bor	-11.882
▁418	-11.882
▁kavkazsk	-11.8821
fk	-11.8823
▁xiv	-11.8828
ide	-11.8829
▁read	-11.8842
▁jud	-11.8845
berg	-11.8848
xp	-11.8854
▁witches	-11.8857
▁514	-11.886
▁kay	-11.8861
aia	-11.8861
▁234	-11.8864
▁276	-11.8871
▁joliet	-11.8871
▁sil	-11.8873
▁823	-11.8883
qk	-11.8883
krw	-11.8885
▁ju	-11.8886
▁mirny	-11.8888
heng	-11.8889
▁herbert	-11.8891
▁sch	-11.8891
▁639	-11.8893
rb	-11.8894
nel	-11.8896
ogood	-11.8897
▁porter	-11.8899
▁eine	-11.8902
▁minas	-11.8909
juku	-11.891
▁cliff	-11.8911
cola	-11.8912
▁calde	-11.8912
▁clarendon	-11.8915
▁disease	-11.8915
▁information	-11.8915
▁montalban	-11.8915
▁october	-11.8915
▁offertorium	-11.8915
▁mccormick	-11.8915
▁chargers	-11.8915
▁witness	-11.8915
▁bloomfield	-11.8915
▁garfield	-11.8915
▁winston	-11.8915
▁race	-11.8916
▁giaginsk	-11.8916
lucar	-11.8916
▁marquis	-11.8916
▁brookfield	-11.8916
▁spencer	-11.8916
▁jalon	-11.8916
▁sinai	-11.8916
gxbd	-11.8917
▁utc	-11.8917
vh	-11.8918
▁marques	-11.8918
▁coria	-11.8921
▁showa	-11.8925
▁hanna	-11.8927
▁sally	-11.8933
▁267	-11.8933
▁696	-11.8949
▁jonas	-11.8951
▁652	-11.8956
▁xing	-11.8957
▁himeji	-11.896
280	-11.8971
▁lakewood	-11.8976
▁culture	-11.8981
▁nippo	-11.8983
▁spy	-11.8984
▁676	-11.8986
▁rich	-11.8991
bert	-11.8992
▁barber	-11.8993
▁chain	-11.8997
▁leg	-11.8999
use	-11.9001
oh	-11.9001
▁homer	-11.9003
▁rod	-11.9005
▁gao	-11.9016
assar	-11.9016
cfb	-11.9019
▁288	-11.9023
▁443	-11.9028
▁villas	-11.9029
▁mann	-11.9032
▁izu	-11.9038
▁jar	-11.9046
▁eight	-11.9054
▁1914	-11.9054
▁joey	-11.9058
▁660	-11.9064
abe	-11.9066
▁minato	-11.9067
881	-11.9069
▁senor	-11.9069
▁1915	-11.9076
▁444	-11.9078
▁283	-11.908
kusa	-11.9081
▁sau	-11.909
hamo	-11.909
▁352	-11.9091
▁807	-11.9094
▁231	-11.9099
▁669	-11.91
▁681	-11.91
elo	-11.9107
▁katy	-11.9108
▁bayamon	-11.9109
▁media	-11.9111
▁736	-11.9112
zr	-11.9115
▁casar	-11.9116
▁641	-11.9116
▁riba	-11.9125
▁495	-11.9126
▁yoro	-11.9133
▁archer	-11.9134
▁572	-11.9141
▁lombard	-11.9142
▁guzman	-11.9144
mathias	-11.9146
▁baghdad	-11.9146
▁calhoun	-11.9146
▁civic	-11.9146
▁comayagua	-11.9146
▁decatur	-11.9146
▁escorial	-11.9146
▁ramirez	-11.9146
▁research	-11.9146
▁umbro	-11.9146
▁xavier	-11.9146
▁chatham	-11.9146
▁kenora	-11.9146
▁milford	-11.9146
▁nogales	-11.9146
▁vermilion	-11.9146
▁kaluga	-11.9146
▁bristol	-11.9147
▁cuesta	-11.9147
▁reef	-11.9147
▁mision	-11.9147
▁lighthouse	-11.9147
▁libya	-11.9147
▁camargo	-11.9147
▁crete	-11.9147
▁hull	-11.9147
▁velik	-11.9147
▁human	-11.9148
ueca	-11.9149
▁tomsk	-11.915
areny	-11.9151
▁rockies	-11.9151
▁camel	-11.9151
▁konan	-11.9155
▁villares	-11.9157
▁dante	-11.9157
▁reid	-11.9162
dxv	-11.9165
▁bal	-11.9166
▁deep	-11.9166
▁yong	-11.9169
828	-11.9173
uri	-11.9173
▁587	-11.9177
▁553	-11.9179
bj	-11.9182
▁178	-11.9186
noye	-11.9189
xc	-11.9191
▁483	-11.9192
ovskoye	-11.9197
ette	-11.9197
▁gore	-11.9198
▁720	-11.9205
▁642	-11.9206
▁1025	-11.9207
▁647	-11.9207
▁alberto	-11.9212
▁552	-11.9212
▁plains	-11.9213
▁delta	-11.9217
np	-11.9218
garcia	-11.922
region	-11.9223
▁260	-11.9227
▁473	-11.9229
▁roa	-11.9232
ova	-11.9242
▁229/	-11.9246
▁sheffield	-11.9247
▁luna	-11.9265
afo	-11.927
▁eli	-11.9275
bei	-11.9276
xing	-11.9278
▁699	-11.928
fh	-11.928
▁726	-11.9288
314	-11.9291
▁1787	-11.9296
▁pina	-11.9297
▁away	-11.9299
▁780	-11.9304
138	-11.9307
▁1910	-11.9311
▁256	-11.9316
▁lin	-11.9322
▁bat	-11.9324
▁673	-11.9325
▁556	-11.9325
▁past	-11.9326
▁mrs	-11.9326
eva	-11.9327
eleg	-11.9327
▁1012	-11.9328
▁206	-11.9331
arima	-11.9333
▁play	-11.9335
▁674	-11.9345
▁1075	-11.9346
seca	-11.9348
▁1027	-11.935
▁861	-11.9353
▁702	-11.9354
▁fift	-11.936
▁shera	-11.9361
▁temp	-11.9361
▁trot	-11.9365
▁224	-11.9365
▁favorite	-11.9366
▁page	-11.9367
▁olympia	-11.9368
▁tiger	-11.9369
▁patrici	-11.9373
shiki	-11.9376
dou	-11.9376
mn	-11.9379
igkeit	-11.9383
▁experiment	-11.9383
-05:00	-11.9383
▁ensemble	-11.9383
▁eulalia	-11.9383
▁hemsworth	-11.9383
▁lounge	-11.9383
▁matamoros	-11.9383
▁orchard	-11.9383
▁shepard	-11.9383
▁sheridan	-11.9383
▁stonewall	-11.9383
▁oviedo	-11.9383
sheikh	-11.9383
▁learning	-11.9383
▁edison	-11.9383
▁paddington	-11.9383
▁gutierrez	-11.9384
▁bride	-11.9384
▁study	-11.9384
▁tam	-11.9385
▁clayton	-11.9385
▁edific	-11.9385
ington	-11.9385
▁ahm	-11.9385
▁speeches	-11.9385
▁kazan	-11.9387
▁lutheran	-11.9388
▁hat	-11.9388
▁tenor	-11.9389
▁remix	-11.9389
▁left	-11.939
ncd	-11.9391
▁vigo	-11.9392
▁cable	-11.9393
.062	-11.9393
▁babe	-11.9397
▁ass	-11.9399
▁littleton	-11.94
zg	-11.9405
▁326	-11.9406
ram	-11.9411
uka	-11.9412
▁manny	-11.9412
▁mai	-11.9413
lake	-11.9415
▁charleston	-11.9423
▁640	-11.943
▁851	-11.9432
▁job	-11.9432
▁tambov	-11.9434
kovo	-11.9441
kov	-11.9452
.030	-11.9454
▁hume	-11.9458
▁miss	-11.9459
▁krasn	-11.946
▁dona	-11.9463
▁saw	-11.9464
▁pigeons	-11.9464
▁1921	-11.9465
qiao	-11.947
857	-11.947
▁weeks	-11.9474
▁downtown	-11.9481
▁624	-11.9486
▁mayaguez	-11.9486
▁teen	-11.9488
▁fest	-11.9492
▁sint	-11.9492
children	-11.9496
▁663	-11.9499
▁words	-11.9504
▁francois	-11.9506
nm	-11.9507
▁619	-11.9508
▁715	-11.9509
moor	-11.9509
wi	-11.9513
▁636	-11.9516
▁donna	-11.9517
▁769	-11.9518
906	-11.9519
▁hino	-11.952
▁guarda	-11.9522
▁pla	-11.9529
sual	-11.9534
▁nations	-11.9536
▁pol	-11.954
▁787	-11.9546
cz	-11.955
▁710	-11.955
▁ouest	-11.9552
▁549	-11.9552
ln	-11.9554
▁angels	-11.9556
.04_84	-11.9557
inder	-11.9566
▁shun	-11.9567
ava	-11.9572
gue	-11.9573
▁iso	-11.9577
▁302	-11.9585
▁orde	-11.9587
▁clair	-11.9588
▁marcus	-11.9588
▁matthews	-11.959
▁cal	-11.9611
mber	-11.9613
▁682	-11.9616
con	-11.9617
arr	-11.9619
▁cala	-11.9623
▁fraser	-11.9625
madeleine	-11.9626
▁appointment	-11.9626
▁arnold	-11.9626
▁beezus	-11.9626
▁combatant	-11.9626
▁dolores	-11.9626
▁emperor	-11.9626
▁farewell	-11.9626
▁follow	-11.9626
▁griffith	-11.9626
▁kostroma	-11.9626
▁lexington	-11.9626
▁maarten	-11.9626
▁mirrors	-11.9626
▁pamplona	-11.9626
▁saskatoon	-11.9626
▁stavropol	-11.9626
▁suarez	-11.9626
▁thirteen	-11.9626
▁usulutan	-11.9626
▁cafe	-11.9626
▁woodstock	-11.9626
▁clearwater	-11.9626
▁finger	-11.9626
▁casino	-11.9626
▁transportation	-11.9626
▁villamayor	-11.9626
▁misato	-11.9626
▁salle	-11.9626
smond	-11.9626
▁solana	-11.9627
▁riley	-11.9627
▁portage	-11.9627
▁basque	-11.9628
▁otter	-11.9628
viou	-11.9629
▁markham	-11.9629
▁nature	-11.9631
▁fuller	-11.9631
▁elias	-11.9632
▁karl	-11.9633
▁bernardo	-11.9635
▁gal	-11.9636
766	-11.9638
▁930	-11.9638
▁labor	-11.9639
shinjo	-11.9639
lou	-11.964
▁661	-11.964
297	-11.9641
▁713	-11.9646
▁761	-11.9646
▁308	-11.965
▁dich	-11.9651
821	-11.9652
▁starom	-11.9661
▁swan	-11.9672
▁rail	-11.9673
yl	-11.9684
▁sehr	-11.9685
▁ponte	-11.9687
▁claire	-11.9691
▁edge	-11.9692
rie	-11.9697
das	-11.9706
▁555	-11.971
▁wit	-11.9713
▁1890	-11.9713
▁oz	-11.9729
063	-11.973
yk	-11.9732
▁625	-11.9735
▁ye	-11.9736
▁eyes	-11.9736
▁buckle	-11.974
▁omi	-11.974
▁462	-11.9742
▁vice	-11.9744
utu	-11.9754
▁768	-11.9756
▁833	-11.9759
▁oku	-11.9761
barnes	-11.9764
▁shoe	-11.9765
▁conde	-11.9765
▁alma	-11.9766
▁750	-11.9768
▁678	-11.9769
▁adult	-11.9771
▁845	-11.9773
chicago	-11.978
japan	-11.9782
▁tsuru	-11.9787
she	-11.9792
some	-11.9797
▁1812	-11.98
naka	-11.9801
▁756	-11.9803
▁353	-11.9807
▁otto	-11.9808
▁1916	-11.9811
▁cut	-11.9812
▁huang	-11.9819
▁mito	-11.982
xr	-11.9822
▁wake	-11.9825
▁517	-11.9826
▁winn	-11.9833
292	-11.9833
dp	-11.9839
nagi	-11.984
▁einstein	-11.9847
▁291	-11.9848
▁mackenzie	-11.9848
rong	-11.9852
shuku	-11.9852
eni	-11.9854
agn	-11.9857
▁lena	-11.9868
▁perform	-11.987
▁tak	-11.9871
▁wheat	-11.9872
▁bastien	-11.9873
urgell	-11.9874
▁691	-11.9874
reconstruction	-11.9874
▁aguascalientes	-11.9874
▁almodovar	-11.9874
▁boulevard	-11.9874
▁chiriqui	-11.9874
▁circuit	-11.9874
▁cortez	-11.9874
▁cyanide	-11.9874
▁gebots	-11.9874
▁guanajuato	-11.9874
▁hubbard	-11.9874
▁humphrey	-11.9874
▁paganini	-11.9874
▁pattinson	-11.9874
▁raspeig	-11.9874
▁runaway	-11.9874
▁venerabili	-11.9874
▁greek	-11.9874
▁mairena	-11.9874
▁claimant	-11.9874
▁gardner	-11.9874
▁venus	-11.9874
▁espinosa	-11.9874
▁epps	-11.9874
▁taiwan	-11.9874
▁percy	-11.9874
▁jazz	-11.9874
▁ibiza	-11.9874
▁hyacinthus	-11.9875
▁mercedes	-11.9875
▁granite	-11.9875
▁genil	-11.9875
llorenc	-11.9875
▁talavera	-11.9875
ariette	-11.9876
▁prick	-11.9876
development	-11.9876
▁coleman	-11.9876
.045_	-11.9877
▁pineda	-11.9878
▁wheeler	-11.9879
▁sitta	-11.9881
▁rubi	-11.9882
▁pelly	-11.9882
▁ricard	-11.9882
city	-11.9884
▁718	-11.9884
fer	-11.9886
ayo	-11.989
▁mavericks	-11.9892
▁dial	-11.9893
▁jam	-11.9896
▁qi	-11.9897
iri	-11.9898
▁829	-11.9899
▁nothing	-11.99
▁ride	-11.9902
▁mariana	-11.9903
▁hondo	-11.9905
▁presto	-11.991
▁ger	-11.9911
downs	-11.9911
▁byron	-11.9917
rfk	-11.9919
▁countryside	-11.9921
▁mel	-11.9924
▁august	-11.9926
▁koto	-11.9934
▁eddie	-11.9935
▁tomb	-11.9943
▁apennine	-11.9943
▁chronicles	-11.9945
hen	-11.9947
▁204	-11.9947
▁pinos	-11.9956
▁cid	-11.9956
▁777	-11.996
▁1905	-11.9968
▁bernard	-11.9972
▁chan	-11.9979
▁643	-11.9983
▁1013	-11.9984
nguin	-11.9984
guan	-11.999
360	-12
▁264	-12.0006
▁bao	-12.0007
▁andrews	-12.0007
▁lea	-12.001
lim	-12.0016
estra	-12.0017
bfmm	-12.0017
▁cardinals	-12.0019
▁well	-12.0025
oke	-12.004
▁fc	-12.0042
▁prima	-12.005
▁739	-12.0052
ele	-12.0058
▁350	-12.0061
▁dur	-12.0062
webster	-12.0066
▁754	-12.0067
vj	-12.0068
myw	-12.0069
original	-12.0071
▁sui	-12.0071
mystery	-12.0072
american	-12.0073
rze	-12.0076
▁709	-12.0078
▁826	-12.0094
▁uruguay	-12.0102
tetsu	-12.0105
uette	-12.0108
nx	-12.0112
dinskoy	-12.0123
▁miyagi	-12.0127
▁gerald	-12.0129
gerkrieg	-12.0129
herself	-12.0129
▁bandiagara	-12.0129
▁cabrera	-12.0129
▁ebenezer	-12.0129
▁iglesia	-12.0129
▁inauguration	-12.0129
▁joaquin	-12.0129
▁liberia	-12.0129
▁mckinley	-12.0129
▁paraiso	-12.0129
▁patterson	-12.0129
▁purple	-12.0129
▁shepherd	-12.0129
▁treasure	-12.0129
▁tyumen	-12.0129
▁velilla	-12.0129
▁balaguer	-12.0129
▁hydro	-12.0129
▁compostela	-12.0129
▁leganes	-12.0129
▁journalist	-12.0129
▁metropolis	-12.0129
▁granadilla	-12.0129
▁addison	-12.0129
▁iwami	-12.0129
.09888	-12.0129
▁huntington	-12.0129
▁common	-12.0129
▁lagoon	-12.013
▁hainan	-12.013
crest	-12.013
▁wildwood	-12.013
▁gustav	-12.013
▁faux	-12.013
▁pic	-12.013
▁viso	-12.0132
▁shell	-12.0133
▁campana	-12.0133
▁haro	-12.0134
▁bueno	-12.0134
▁burma	-12.0138
▁ying	-12.0139
▁589	-12.014
▁kwan	-12.0146
▁paso	-12.0146
▁gali	-12.015
▁seahawks	-12.0154
bn	-12.0155
▁bing	-12.0162
abu	-12.0166
▁early	-12.0168
▁bates	-12.0169
765	-12.017
▁hato	-12.0171
▁806	-12.0178
▁519	-12.0183
417	-12.0191
▁197	-12.0196
▁bee	-12.0198
▁1897	-12.0201
▁232	-12.0203
▁late	-12.0203
▁suit	-12.0204
▁alha	-12.0216
▁milano	-12.0216
▁772	-12.0224
▁307	-12.0226
▁shoot	-12.0228
▁ren	-12.0233
▁juli	-12.0237
▁1913	-12.0239
▁salar	-12.0265
ated	-12.0283
▁1933	-12.0285
▁391	-12.0285
▁277	-12.0285
▁ihr	-12.0287
▁quart	-12.0293
▁1789	-12.0294
▁fo	-12.0303
▁222	-12.0304
▁korean	-12.0304
▁1918	-12.0319
330	-12.0334
▁said	-12.0335
▁fer	-12.0345
▁but	-12.0352
▁335	-12.0352
▁oto	-12.0357
▁301	-12.0357
bian	-12.0357
▁796	-12.0361
▁rat	-12.0368
province	-12.0373
▁1892	-12.0376
▁bus	-12.0378
▁817	-12.0379
▁zhong	-12.038
▁has	-12.0382
▁thor	-12.0384
▁talkin	-12.0385
▁receiv	-12.0387
▁taka	-12.0387
▁speech	-12.0388
▁alcazar	-12.0389
▁readers	-12.0389
▁olive	-12.0389
▁huerta	-12.039
saurus	-12.039
zizur	-12.039
▁agypten	-12.039
▁arsenal	-12.039
▁belief	-12.039
▁benidorm	-12.039
▁cervello	-12.039
▁cuellar	-12.039
▁diplomat	-12.039
▁heilongjiang	-12.039
▁milwaukee	-12.039
▁orenburg	-12.039
▁quetzaltenango	-12.039
▁roscoe	-12.039
▁search	-12.039
▁somerset	-12.039
▁southampton	-12.039
▁torralba	-12.039
▁vampire	-12.039
▁90210	-12.039
▁clyde	-12.039
▁exhibition	-12.039
▁naperville	-12.039
▁bougouni	-12.039
▁boeing	-12.039
▁doyle	-12.039
▁laredo	-12.039
▁kryl	-12.039
▁hamamatsu	-12.039
▁edgewater	-12.039
▁whitney	-12.039
▁hopewell	-12.0391
ntaisie	-12.0391
▁freeport	-12.0391
▁febr	-12.0391
▁pearson	-12.0391
▁milk	-12.0391
▁bastienne	-12.0391
▁jamie	-12.0391
▁cabra	-12.0391
▁ruth	-12.0391
▁633	-12.0391
▁brighton	-12.0391
▁faust	-12.0392
▁deerfield	-12.0392
▁services	-12.0393
asso	-12.0393
▁ark	-12.0393
▁154	-12.0395
▁scientist	-12.0397
erinda	-12.0397
cle	-12.0398
▁kagawa	-12.0401
▁boca	-12.0402
▁torrent	-12.0403
▁686	-12.0404
aric	-12.0405
ullo	-12.0405
rrington	-12.0405
▁744	-12.0406
▁lakeview	-12.0406
.04_	-12.0412
▁look	-12.0413
▁zur	-12.042
▁records	-12.0422
▁67	-12.0423
vsc	-12.0424
▁bio	-12.0429
▁stoner	-12.0429
▁manu	-12.0443
▁bfg	-12.0447
nes	-12.0451
889	-12.0452
▁814	-12.0454
mio	-12.0459
hg	-12.046
▁reve	-12.0466
203	-12.0467
▁niles	-12.0475
ql	-12.0479
▁926	-12.0481
▁623	-12.0492
yoshi	-12.0492
hun	-12.0493
hpn	-12.0494
▁arenas	-12.0495
▁yokosuka	-12.0505
▁mula	-12.0511
▁sah	-12.0512
db	-12.0514
▁soros	-12.0518
▁everett	-12.0519
▁1005	-12.0522
hph	-12.0526
agawa	-12.0526
▁bolo	-12.0527
▁858	-12.053
▁put	-12.0536
▁781	-12.0537
kawaguchi	-12.0551
▁773	-12.0552
yagi	-12.0554
▁776	-12.0556
▁cami	-12.0556
▁432	-12.0557
bfn	-12.0559
▁236	-12.0566
kro	-12.0566
▁839	-12.0567
▁este	-12.0574
▁ac	-12.0578
▁tie	-12.058
▁685	-12.0586
stuck	-12.059
▁1912	-12.059
einer	-12.0591
lar	-12.0597
▁penn	-12.0602
▁824	-12.0603
▁837	-12.0606
▁shadows	-12.0606
was	-12.0608
991	-12.0612
▁1796	-12.0613
▁712	-12.0617
▁chic	-12.0618
▁millan	-12.0621
▁mota	-12.0628
rillo	-12.0632
ix	-12.0632
fm	-12.0632
zhong	-12.0634
▁secondary	-12.0636
▁698	-12.0637
chang	-12.0639
▁657	-12.064
low	-12.064
▁pines	-12.0641
561	-12.0653
▁missa	-12.0654
▁meiji	-12.0655
▁899	-12.0656
uta	-12.0657
▁heav	-12.0657
ous	-12.0658
▁holly	-12.0658
▁defens	-12.0659
▁1801-03-04	-12.0659
▁absolute	-12.0659
▁astrakhan	-12.0659
▁buenavista	-12.0659
▁cabezo	-12.0659
▁curacao	-12.0659
▁dioila	-12.0659
▁dundee	-12.0659
▁insurance	-12.0659
▁protestantism	-12.0659
▁schiller	-12.0659
▁skokie	-12.0659
▁tirajana	-12.0659
▁tupac	-12.0659
▁valdepenas	-12.0659
▁huercal	-12.0659
▁spielberg	-12.0659
▁survivors	-12.0659
▁comput	-12.0659
▁melrose	-12.0659
▁mchenry	-12.0659
▁dewey	-12.0659
▁tsugaru	-12.0659
▁twice	-12.0659
▁galesburg	-12.0659
▁bedford	-12.0659
enfant	-12.0659
▁kelley	-12.0659
▁maggie	-12.0659
▁sakhalin	-12.0659
▁morse	-12.0659
▁hartford	-12.0659
▁parque	-12.0659
▁harbourview	-12.0659
▁normandy	-12.0659
▁giza	-12.066
▁austen	-12.066
▁serrano	-12.066
▁southeast	-12.066
▁fear	-12.066
rriana	-12.0661
▁feet	-12.0661
▁albany	-12.0661
▁duarte	-12.0661
▁duque	-12.0662
▁fool	-12.0663
▁rita	-12.0665
▁labour	-12.0665
▁neil	-12.0666
▁aston	-12.0666
fallon	-12.0666
▁yates	-12.0667
▁birthday	-12.0669
▁1901	-12.0669
▁tambo	-12.0673
ime	-12.0674
▁bu	-12.0675
▁cueva	-12.0677
▁689	-12.0677
heil	-12.0677
▁662	-12.0677
▁1026	-12.0678
▁mira	-12.0683
▁oil	-12.0683
great	-12.0683
▁federation	-12.0685
▁izumo	-12.0693
▁chuo	-12.0694
▁pack	-12.0702
▁281	-12.0707
▁kenn	-12.0716
nyc	-12.0717
shiba	-12.0718
▁yin	-12.0722
121	-12.0723
▁866	-12.0725
oshi	-12.0726
alla	-12.0733
▁minotaur	-12.0733
jade	-12.0737
▁chimneys	-12.0743
pop	-12.0755
▁993	-12.0756
oji	-12.0763
▁georgetown	-12.0769
▁barac	-12.0769
bank	-12.077
nato	-12.0776
▁dorma	-12.0781
▁844	-12.0782
▁dana	-12.079
osaki	-12.0791
▁cabeza	-12.0794
pade	-12.0796
hpq	-12.0799
▁most	-12.08
▁orchestre	-12.0801
108	-12.0803
▁304	-12.0803
awara	-12.0805
▁nights	-12.0807
dan	-12.0809
▁fly	-12.081
gare	-12.0818
▁independence	-12.0819
▁seymour	-12.0819
605	-12.0827
▁kor	-12.083
▁774	-12.0831
▁seal	-12.0831
read	-12.0832
▁1004	-12.0833
▁819	-12.0837
▁mis	-12.0837
▁sh	-12.0837
▁1889	-12.0842
nic	-12.0847
luc	-12.0857
yan	-12.0858
hvx	-12.0858
eren	-12.086
iro	-12.0862
▁hira	-12.0863
▁1909	-12.0864
▁progressi	-12.0867
▁721	-12.0869
▁728	-12.087
▁leo	-12.0872
▁sino	-12.0873
▁valdes	-12.0874
▁abbott	-12.0877
▁955	-12.0883
nami	-12.0889
eung	-12.0889
▁1907	-12.0891
▁mama	-12.0894
less	-12.0903
▁beaumont	-12.0906
west	-12.0906
eng	-12.0907
▁634	-12.0909
▁zar	-12.0912
obi	-12.0914
▁castello	-12.0918
▁corn	-12.0918
909	-12.0923
▁colonia	-12.0925
▁herrin	-12.0928
▁forrest	-12.0929
▁express	-12.0934
▁carpenter	-12.0935
▁klavier	-12.0935
emporda	-12.0935
pacheco	-12.0935
unabridged	-12.0935
▁castilleja	-12.0935
▁champaign	-12.0935
▁cuervo	-12.0935
▁guadalix	-12.0935
▁schaumburg	-12.0935
▁somerhalder	-12.0935
▁steffens	-12.0935
▁sturgeon	-12.0935
▁sycamore	-12.0935
▁tarazona	-12.0935
▁through	-12.0935
▁ulyanovsk	-12.0935
▁antiphon	-12.0935
▁mimasaka	-12.0935
▁potosi	-12.0935
▁sketchbook	-12.0935
▁accompagnato	-12.0935
▁lutheranism	-12.0935
▁sayago	-12.0935
▁correction	-12.0935
▁nayarit	-12.0935
▁elementary	-12.0935
▁guarena	-12.0935
▁keyboard	-12.0935
▁novelist	-12.0935
▁carrion	-12.0935
▁tribute	-12.0935
▁kushiro	-12.0935
▁altamirano	-12.0935
▁woodridge	-12.0935
▁cotton	-12.0935
▁glenview	-12.0935
▁marbella	-12.0935
▁higuera	-12.0936
▁cohen	-12.0936
▁bolton	-12.0936
kaigan	-12.0936
▁santander	-12.0937
▁daito	-12.0937
▁hagar	-12.0937
▁corrales	-12.0937
▁belleville	-12.0937
▁sunny	-12.0937
▁ndeg	-12.0937
▁minya	-12.0938
▁dillon	-12.0938
libet	-12.0939
▁robledo	-12.094
▁musicum	-12.0941
▁wheeling	-12.0944
▁youth	-12.0945
▁balka	-12.0946
ev	-12.0952
▁wade	-12.0954
▁elche	-12.0955
602	-12.0955
▁northfield	-12.0956
▁brewer	-12.0957
▁hund	-12.0959
▁cloud	-12.096
▁llano	-12.096
tsu	-12.0961
▁newspapers	-12.0962
ruce	-12.0968
hannah	-12.097
▁motors	-12.0976
▁bag	-12.0976
seki	-12.0982
▁lily	-12.0982
▁ono	-12.0983
rade	-12.0984
638	-12.0994
▁ship	-12.0995
daira	-12.0996
horo	-12.0998
▁novels	-12.0998
▁pod	-12.0998
▁kra	-12.0999
road	-12.0999
wayne	-12.1004
▁iwa	-12.1004
▁306	-12.1006
gep	-12.1013
▁glenn	-12.1022
▁lind	-12.1029
▁257	-12.103
▁trees	-12.1032
▁800	-12.1032
▁ros	-12.1037
gri	-12.1037
▁crescent	-12.104
haku	-12.1049
ado	-12.105
▁655	-12.1051
▁box	-12.1059
▁shang	-12.1065
▁gonn	-12.1066
▁brea	-12.107
▁qian	-12.1071
▁bone	-12.1071
▁clocks	-12.1081
▁667	-12.1082
.0113	-12.1083
▁aspe	-12.1083
▁low	-12.1089
wang	-12.1093
eo	-12.1093
gues	-12.1097
▁jaim	-12.1098
▁1143	-12.1101
▁309	-12.1105
▁intro	-12.1111
▁ravens	-12.1117
▁cry	-12.1118
▁kas	-12.112
rfj	-12.1124
▁731	-12.1129
▁758	-12.113
▁795	-12.1133
nj	-12.1136
▁830	-12.1149
neal	-12.1151
▁lok	-12.1151
▁bir	-12.1155
▁1788	-12.1157
▁808	-12.1161
▁shoppin	-12.1163
204	-12.1163
▁morata	-12.1166
▁duch	-12.117
▁yamada	-12.1171
190	-12.1172
▁1055	-12.1176
▁dalt	-12.1179
▁789	-12.118
▁gay	-12.1181
▁boo	-12.1182
▁baron	-12.1182
▁614	-12.1184
▁1879	-12.1185
▁779	-12.1187
nite	-12.1196
▁thing	-12.1198
ato	-12.1199
▁wai	-12.1199
▁forks	-12.1201
▁jardin	-12.1208
▁show	-12.1209
▁concord	-12.1209
▁koch	-12.121
ame	-12.1216
efore	-12.1217
▁perfect	-12.1218
▁fischer	-12.1218
▁2007-01-03	-12.1218
▁aristotle	-12.1218
▁arzobispo	-12.1218
▁drake	-12.1218
▁drood	-12.1218
▁entrepreneur	-12.1218
▁godfrey	-12.1218
▁hefei	-12.1218
▁jerusalem	-12.1218
▁montbui	-12.1218
▁revenge	-12.1218
▁schmitt	-12.1218
▁windmill	-12.1218
▁winnebago	-12.1218
▁yuzhny	-12.1218
▁automobile	-12.1218
▁fortress	-12.1218
▁leslie	-12.1218
▁taoism	-12.1218
▁tudela	-12.1218
▁swansea	-12.1218
▁macomb	-12.1218
▁cruces	-12.1219
▁advance	-12.1219
▁hector	-12.1219
▁taiyuan	-12.1219
▁327	-12.1219
▁ortho	-12.1219
▁khabarovsk	-12.1219
▁pinilla	-12.1219
▁warsaw	-12.1219
everyman	-12.122
▁holden	-12.122
▁vicar	-12.122
▁bunka	-12.122
▁nash	-12.122
▁esplanada	-12.1221
▁hunger	-12.1221
▁caroline	-12.1221
▁massig	-12.1221
▁growing	-12.1221
▁lora	-12.1222
▁moses	-12.1222
▁dock	-12.1225
shire	-12.1225
ional	-12.1226
▁dunn	-12.1226
dell	-12.123
▁egyptian	-12.1232
▁planet	-12.1233
▁age	-12.1236
▁mariano	-12.1237
▁bolshoy	-12.1238
.0105	-12.1239
▁derby	-12.1239
▁1125	-12.1239
278	-12.124
▁kuma	-12.1244
▁polis	-12.1245
mine	-12.1246
▁lance	-12.1249
▁animal	-12.1252
▁wir	-12.1256
▁brady	-12.1262
▁mag	-12.1264
▁spa	-12.1267
rl	-12.1268
▁guang	-12.127
▁bryansk	-12.127
▁evan	-12.1271
▁996	-12.1277
▁victory	-12.1279
stone	-12.1281
.0944	-12.1282
▁moral	-12.1282
▁usa	-12.1284
▁717	-12.1293
061	-12.1296
▁dreams	-12.1298
main	-12.1298
▁hau	-12.1299
▁bera	-12.1303
kar	-12.1307
▁dom	-12.1313
▁poblet	-12.1315
tony	-12.1315
▁lamar	-12.1315
class	-12.1316
beau	-12.1323
ock	-12.1326
higashi	-12.1332
▁1900	-12.1332
david	-12.1334
▁corral	-12.134
ibi	-12.1342
▁967	-12.1342
▁alcolea	-12.1343
▁hermitage	-12.1343
▁que	-12.1343
▁818	-12.135
bar	-12.1354
▁783	-12.1358
▁cote	-12.1366
▁811	-12.1367
▁ballade	-12.1372
▁1320	-12.1377
▁wat	-12.1378
105	-12.138
▁dry	-12.1384
▁627	-12.1387
kita	-12.1387
▁rene	-12.1388
▁733	-12.1392
▁790	-12.1396
▁199	-12.1397
▁oi	-12.1397
rey	-12.1403
▁856	-12.1403
953	-12.1409
425	-12.1411
▁picture	-12.1412
dame	-12.1415
▁eva	-12.1417
▁vous	-12.1417
lana	-12.1418
▁cher	-12.1422
dodo	-12.1424
zx	-12.1424
▁820	-12.1435
uca	-12.1437
ovskaya	-12.1437
mba	-12.1437
▁riu	-12.1438
▁smoke	-12.144
▁794	-12.1442
185	-12.1448
▁1127	-12.145
▁lima	-12.1452
▁levi	-12.1453
▁331	-12.1458
▁matsumoto	-12.1461
▁1086	-12.1465
khr	-12.1469
▁rag	-12.147
▁anton	-12.1475
160	-12.1475
▁harmon	-12.1478
▁351	-12.1479
320	-12.1486
hurst	-12.1489
▁boon	-12.1492
483	-12.1493
mere	-12.1502
essa	-12.1504
hashi	-12.1507
▁chancellor	-12.1509
▁margari	-12.151
quod	-12.151
▁alonso	-12.151
liberte	-12.151
▁alfons	-12.151
▁armavir	-12.151
▁assumption	-12.151
▁claiborne	-12.151
▁corbera	-12.151
▁enmedio	-12.151
▁eureka	-12.151
▁mopti	-12.151
▁mundelein	-12.151
▁ocotepeque	-12.151
▁progreso	-12.151
▁psychedeli	-12.151
▁putnam	-12.151
▁salvatierra	-12.151
▁strogoff	-12.151
▁sylvan	-12.151
▁waukegan	-12.151
▁palatine	-12.151
▁resources	-12.151
▁alcoy	-12.151
▁alliance	-12.151
▁pskov	-12.151
▁sangyo	-12.151
▁tudor	-12.151
▁picasso	-12.151
▁barrett	-12.151
▁standard	-12.151
▁lockport	-12.151
▁vader	-12.151
▁beckham	-12.151
▁consolation	-12.151
▁ichikawa	-12.1511
▁galway	-12.1511
▁wenzhou	-12.1511
▁une	-12.1511
▁bernardino	-12.1511
▁corporation	-12.1511
▁gateway	-12.1511
▁yantai	-12.1511
▁abona	-12.1511
▁fairmont	-12.1511
▁manchu	-12.1511
▁vitoria	-12.1511
▁hidaka	-12.1512
ostia	-12.1512
▁barca	-12.1512
▁alava	-12.1512
▁fiji	-12.1513
▁appointed	-12.1513
▁sanyo	-12.1514
▁edwardsville	-12.1515
alparti	-12.1515
▁jessica	-12.1515
▁roca	-12.1515
▁danville	-12.1516
▁lerman	-12.1517
▁sudan	-12.1518
▁aviation	-12.152
▁estudio	-12.1521
▁aoyama	-12.1524
hie	-12.1527
▁946	-12.1527
▁trent	-12.1528
dental	-12.1531
choir	-12.1532
▁gua	-12.1532
319	-12.1537
▁milanes	-12.1543
.0220	-12.1547
▁804	-12.1548
▁hawk	-12.1548
▁cash	-12.1549
▁1790	-12.1552
▁every	-12.1553
gard	-12.1553
▁novyy	-12.1556
olin	-12.1559
▁severny	-12.1563
▁825	-12.157
▁emotions	-12.1571
▁ping	-12.1571
▁pet	-12.1572
▁yasu	-12.1572
▁982	-12.1573
mara	-12.1576
▁thumbs	-12.1579
▁lauren	-12.158
▁lewistown	-12.158
koku	-12.1584
▁luz	-12.1588
▁1277	-12.159
▁sony	-12.1598
▁campoo	-12.1599
▁akasaka	-12.1599
▁carlton	-12.1602
▁rights	-12.1602
▁sakha	-12.1603
▁krasny	-12.1607
roja	-12.1612
891	-12.1622
▁730	-12.1625
dox	-12.1633
▁centennial	-12.1638
▁cana	-12.1646
▁garrett	-12.1646
alcom	-12.1648
▁sixt	-12.1651
296	-12.1654
▁alli	-12.1655
fn	-12.1656
▁wish	-12.1659
songwriter	-12.1662
wu	-12.1664
▁fac	-12.1665
▁koma	-12.167
bvcz	-12.1675
life	-12.1677
▁985	-12.1681
qn	-12.1694
▁rye	-12.1697
▁vesely	-12.1702
heim	-12.1703
ncr	-12.1705
▁1073	-12.1708
669	-12.171
▁mayo	-12.1713
borough	-12.1717
▁valls	-12.1719
▁jun	-12.1722
▁bryan	-12.1732
hei	-12.1732
▁973	-12.1736
poli	-12.1738
▁taki	-12.1749
▁mat	-12.1754
▁1056	-12.1769
wen	-12.1769
aria	-12.1771
inley	-12.1772
957	-12.1783
yp	-12.1789
▁still	-12.1796
▁1121	-12.1797
▁continent	-12.1798
912	-12.18
num	-12.18
lun	-12.1803
▁mena	-12.1804
nun	-12.1804
koshi	-12.1807
▁arecibo	-12.1808
▁kemp	-12.1808
amania	-12.1809
mighty	-12.1809
▁musique	-12.1811
daigaku	-12.1811
▁conqueror	-12.1811
▁davenport	-12.1811
▁degree	-12.1811
▁fuentiduena	-12.1811
▁guadix	-12.1811
▁jadraque	-12.1811
▁lautner	-12.1811
▁lempira	-12.1811
▁newcastle	-12.1811
▁plymouth	-12.1811
▁racecourse	-12.1811
▁tlaxcala	-12.1811
▁venezia	-12.1811
▁westminster	-12.1811
▁winthrop	-12.1811
▁zernograd	-12.1811
shiyakusho	-12.1811
▁thought	-12.1811
▁mattoon	-12.1811
▁november	-12.1811
▁lazaro	-12.1811
▁rupert	-12.1811
▁truman	-12.1811
camaguey	-12.1811
ancien	-12.1811
▁fifteen	-12.1811
▁dodgers	-12.1811
▁duenas	-12.1811
▁morning	-12.1811
abanto	-12.1811
▁barkley	-12.1811
▁fidel	-12.1811
▁baud	-12.1811
▁plainfield	-12.1812
ichinomiya	-12.1812
▁wonderland	-12.1812
▁otis	-12.1812
▁palestine	-12.1812
▁rising	-12.1812
▁brena	-12.1812
▁match	-12.1812
▁barbier	-12.1812
▁copper	-12.1812
▁stay	-12.1812
▁brig	-12.1813
urawa	-12.1813
hachiman	-12.1813
▁maywood	-12.1813
kubo	-12.1813
▁timber	-12.1813
▁chapman	-12.1814
▁patton	-12.1814
▁alejandro	-12.1814
▁ruben	-12.1815
▁ellyn	-12.1815
▁courthouse	-12.1816
kogen	-12.1817
▁batavia	-12.1818
▁room	-12.1822
abi	-12.1823
▁784	-12.1824
▁manning	-12.1825
▁saku	-12.1825
nn	-12.1826
obe	-12.1827
angshan	-12.1829
▁doll	-12.1831
allard	-12.1831
▁leland	-12.1832
oshima	-12.1833
▁1007	-12.1833
▁nakano	-12.1834
bata	-12.1837
▁maman	-12.1838
▁dancer	-12.1838
▁hoyo	-12.1843
▁help	-12.1846
▁adria	-12.1851
▁1781	-12.1853
652	-12.1854
▁welch	-12.1855
ences	-12.1857
▁infantes	-12.1858
▁hits	-12.186
▁aero	-12.1862
▁322	-12.1862
▁yankee	-12.1863
▁895	-12.1865
▁mitch	-12.1866
▁burgo	-12.1868
▁354	-12.187
▁150.0	-12.1873
lton	-12.1881
▁1940-	-12.1884
▁1101	-12.1894
ways	-12.1895
▁aires	-12.1895
▁pigs	-12.1897
▁arte	-12.1897
▁aguas	-12.1899
kitsu	-12.19
gin	-12.1905
▁938	-12.1906
▁raiders	-12.1915
rock	-12.1916
dv	-12.192
▁matsuyama	-12.1924
▁pitt	-12.1924
ani	-12.1925
▁816	-12.1926
▁797	-12.1926
▁987	-12.1936
986	-12.1942
onga	-12.1943
▁expression	-12.1943
▁732	-12.1945
▁sparks	-12.1946
▁grover	-12.1946
▁1865	-12.1947
▁635	-12.1954
▁tommy	-12.1958
nto	-12.1959
▁812	-12.1967
▁1786	-12.1968
ume	-12.1968
▁harp	-12.197
▁4.	-12.1981
▁sociali	-12.1992
▁kawachi	-12.1995
▁fork	-12.1996
sage	-12.1999
080	-12.2
▁fuku	-12.2001
mg	-12.2004
▁administration	-12.2005
▁lives	-12.2005
▁dogs	-12.2006
▁cre	-12.2007
alcudia	-12.2013
pierre	-12.2022
▁bog	-12.2023
▁shape	-12.2025
▁1886	-12.2039
▁tecnic	-12.2039
▁plateau	-12.204
erdale	-12.2057
fan	-12.206
front	-12.2061
999	-12.2067
▁mexican	-12.2069
▁1888	-12.2074
▁1394	-12.2074
▁porto	-12.2078
971	-12.208
▁ras	-12.208
▁cane	-12.2082
▁lai	-12.2083
omachi	-12.2086
▁1053	-12.2087
▁chitose	-12.2089
smith	-12.209
▁1122	-12.2101
oria	-12.2105
kami	-12.211
▁kir	-12.2111
▁commerc	-12.2113
▁erie	-12.2115
▁990	-12.2115
▁roth	-12.2118
▁keep	-12.212
maurice	-12.2121
▁admiral	-12.2121
▁alhambra	-12.2121
▁arevalo	-12.2121
▁bourbonnais	-12.2121
▁campeche	-12.2121
▁carlyle	-12.2121
▁changchun	-12.2121
▁coventry	-12.2121
▁crocodile	-12.2121
▁hernandez	-12.2121
▁huetor	-12.2121
▁ildefonso	-12.2121
▁macfarlane	-12.2121
▁oswego	-12.2121
▁please	-12.2121
▁rutherford	-12.2121
▁slaughter	-12.2121
▁berwyn	-12.2121
▁villarreal	-12.2121
bisbal	-12.2121
▁alarcon	-12.2121
▁fruit	-12.2121
▁conference	-12.2121
▁pontific	-12.2121
▁hancock	-12.2121
▁laurel	-12.2121
▁score	-12.2121
▁bolivar	-12.2121
▁hirosaki	-12.2121
▁lanzhou	-12.2121
▁miracle	-12.2121
▁dennings	-12.2121
guysborough	-12.2121
▁freak	-12.2121
rrence	-12.2121
▁ogden	-12.2121
▁occu	-12.2122
▁payne	-12.2122
▁pooh	-12.2122
▁assai	-12.2122
▁vespe	-12.2122
▁isidro	-12.2122
▁dirai	-12.2122
▁self	-12.2122
▁powell	-12.2122
muriel	-12.2122
▁bradford	-12.2123
▁horton	-12.2123
▁july	-12.2123
▁buddha	-12.2123
▁daisy	-12.2123
chrys	-12.2124
▁food	-12.2124
▁dalton	-12.2124
▁716	-12.2124
▁chita	-12.2125
sonate	-12.2125
▁hayes	-12.2126
tran	-12.2126
▁allende	-12.2126
▁myers	-12.2126
▁frost	-12.2128
117	-12.2129
▁heather	-12.2132
▁belmonte	-12.2132
ormou	-12.2134
▁zhu	-12.2134
▁earle	-12.2138
ude	-12.2141
▁654	-12.2144
▁rim	-12.2145
▁singh	-12.2147
▁876	-12.215
▁916	-12.2151
koko	-12.2153
nny	-12.2154
esio	-12.2155
▁711	-12.2162
▁nicht	-12.2167
roy	-12.2167
▁ames	-12.2167
▁reus	-12.2172
▁1896	-12.2172
▁shadow	-12.2182
▁chamber	-12.2184
rfg	-12.2185
▁baga	-12.2187
▁752	-12.2189
▁815	-12.2192
ding	-12.2192
▁beni	-12.2194
▁727	-12.2196
▁had	-12.2199
▁basse	-12.22
▁berga	-12.2203
cala	-12.2207
▁portuguese	-12.2208
▁duck	-12.221
▁sancho	-12.2215
▁cary	-12.2223
▁quin	-12.2223
933	-12.2224
▁para	-12.2226
zaki	-12.2229
915	-12.2234
isc	-12.2237
▁803	-12.2237
arth	-12.2238
▁russ	-12.225
▁forces	-12.2252
▁reno	-12.2253
▁bug	-12.2261
▁kath	-12.2262
▁771	-12.2265
▁1064	-12.2269
▁658	-12.2271
▁bulls	-12.2271
▁kala	-12.2274
▁azua	-12.2279
▁beas	-12.2279
rod	-12.2283
.04_83	-12.2283
120	-12.2284
▁stream	-12.2286
▁toy	-12.2287
▁azu	-12.2287
▁1836	-12.2291
▁1066	-12.2291
879	-12.2293
uku	-12.2302
ogi	-12.2304
658	-12.2306
▁1158	-12.2306
▁977	-12.2306
▁1869	-12.2312
▁hale	-12.2314
158	-12.2316
▁918	-12.2316
and	-12.2321
▁gale	-12.2325
▁lara	-12.2325
▁1047	-12.2329
affe	-12.233
▁liz	-12.2337
▁jaca	-12.2338
▁brock	-12.2338
▁tao	-12.234
▁seto	-12.234
▁842	-12.2341
▁935	-12.2357
▁clima	-12.2361
jtgc	-12.2362
▁792	-12.2363
▁805	-12.2366
▁incident	-12.2367
▁sio	-12.2372
▁seki	-12.2378
▁winds	-12.2379
▁sax	-12.2381
▁708	-12.2389
electric	-12.2391
linsky	-12.2393
quebec	-12.2396
stance	-12.2398
nell	-12.2405
▁sher	-12.2406
▁763	-12.2407
▁revolution	-12.241
▁cru	-12.2411
▁introduction	-12.2412
▁mao	-12.2414
▁1031	-12.2417
▁966	-12.2418
▁destin	-12.2419
▁mongol	-12.2431
▁bund	-12.2432
olley	-12.2433
▁714	-12.2436
▁engineer	-12.2436
adilla	-12.2436
dieu	-12.2437
lai	-12.2438
▁sadurni	-12.2441
▁acentejo	-12.2441
▁afternoon	-12.2441
▁apostle	-12.2441
▁belgrade	-12.2441
▁bergantinos	-12.2441
▁bierzo	-12.2441
▁fairfax	-12.2441
▁gelendzhik	-12.2441
▁independent	-12.2441
▁jutiapa	-12.2441
▁juvenil	-12.2441
▁kankakee	-12.2441
▁observation	-12.2441
▁palazzo	-12.2441
▁pepper	-12.2441
▁ribsy	-12.2441
▁tampico	-12.2441
▁torroella	-12.2441
▁valdavia	-12.2441
▁wilmington	-12.2441
▁yekaterinburg	-12.2441
▁dorothy	-12.2441
▁garriga	-12.2441
▁sherbrooke	-12.2441
▁tabasco	-12.2441
▁bloomington	-12.2441
▁rochelle	-12.2441
▁gandia	-12.2441
▁gloria	-12.2441
▁siberia	-12.2441
▁dancing	-12.2441
▁torello	-12.2441
▁employees	-12.2441
▁lynwood	-12.2441
▁ceremon	-12.2441
wordsworth	-12.2441
▁shakur	-12.2441
▁xiamen	-12.2441
▁pilar	-12.2441
▁hermanas	-12.2442
scope	-12.2442
▁philosopher	-12.2442
▁wagon	-12.2442
▁scary	-12.2442
▁plus	-12.2443
▁wheaton	-12.2443
▁montejo	-12.2444
▁zala	-12.2444
▁converse	-12.2444
▁libertyville	-12.2444
▁glenwood	-12.2444
▁merchants	-12.2444
▁saline	-12.2444
▁christina	-12.2445
▁lock	-12.2447
▁hum	-12.2449
▁kuro	-12.245
▁guam	-12.2451
▁maryville	-12.2453
▁francoise	-12.2453
▁colonial	-12.2456
▁1057	-12.2459
▁icon	-12.2459
▁terre	-12.246
hare	-12.246
myz	-12.246
▁andros	-12.2463
bora	-12.2463
▁1068	-12.2464
▁887	-12.2466
▁hida	-12.2467
▁994	-12.2469
▁herman	-12.2471
nosato	-12.2473
▁pace	-12.2474
▁1043	-12.2475
ija	-12.2477
▁947	-12.2483
▁832	-12.2486
▁centerville	-12.2488
▁gregory	-12.2491
▁why	-12.2491
esca	-12.2496
ssy	-12.2498
tuen	-12.2498
▁pelicans	-12.2499
▁lemont	-12.2508
▁sula	-12.2509
▁883	-12.2509
▁falcon	-12.2511
260	-12.2513
quin	-12.2516
▁valde	-12.2516
▁738	-12.252
▁1135	-12.2523
▁801	-12.2524
▁lyons	-12.2524
▁kani	-12.2525
underland	-12.2527
▁1249	-12.2536
▁newman	-12.2539
ange	-12.2542
▁274	-12.2549
▁788	-12.2554
▁maru	-12.2559
▁1109	-12.256
▁gallegos	-12.2568
▁1079	-12.2577
▁artibonite	-12.2582
▁behind	-12.2582
▁kowloon	-12.2582
▁roma	-12.2585
▁1022	-12.2585
▁communications	-12.2585
▁672	-12.2586
▁ferrer	-12.2587
mile	-12.259
▁999	-12.259
▁products	-12.2591
rick	-12.2599
▁jer	-12.261
979	-12.2611
meric	-12.2619
972	-12.2621
▁singles	-12.2621
▁1862	-12.2621
▁355	-12.2622
▁hani	-12.2623
164	-12.2623
▁malaya	-12.2629
▁aka	-12.2634
▁1051	-12.2639
▁teatr	-12.264
▁1902	-12.2643
otani	-12.2646
▁rosal	-12.2646
▁810	-12.2652
▁799	-12.2659
▁785	-12.2667
▁1049	-12.267
lian	-12.2671
▁problems	-12.2681
▁1067	-12.2685
705	-12.2685
▁gaku	-12.2691
▁fri	-12.2691
▁867	-12.2704
▁coastal	-12.2705
▁noel	-12.2716
vaya	-12.2717
▁mic	-12.2718
▁lied	-12.272
btv	-12.272
▁1078	-12.2723
ology	-12.2725
112	-12.2735
▁wuxi	-12.2736
▁mad	-12.2739
▁bridges	-12.2741
▁1126	-12.2743
▁1038	-12.2746
▁1032	-12.2747
▁monarch	-12.2749
▁continental	-12.2752
▁974	-12.2753
jtgb	-12.2756
▁takes	-12.2758
▁852	-12.2766
▁xia	-12.2767
▁1785	-12.2768
yosu	-12.2768
▁janu	-12.2768
noy	-12.2769
▁shing	-12.2771
illustrated	-12.2771
iwakuni	-12.2772
▁abidjan	-12.2772
▁accra	-12.2772
▁aldehuela	-12.2772
▁aljarafe	-12.2772
▁arithmetic	-12.2772
▁barahona	-12.2772
▁carthage	-12.2772
▁castelldefels	-12.2772
▁fantasie	-12.2772
▁getafe	-12.2772
▁gijon	-12.2772
▁gomera	-12.2772
▁griswold	-12.2772
▁hammond	-12.2772
▁kremlin	-12.2772
▁lancaster	-12.2772
▁larghetto	-12.2772
▁midlothian	-12.2772
▁nassau	-12.2772
▁oropesa	-12.2772
▁oswald	-12.2772
▁prospekt	-12.2772
▁rantoul	-12.2772
▁rhythm	-12.2772
▁valldigna	-12.2772
▁bolanos	-12.2772
▁hinsdale	-12.2772
▁palmyra	-12.2772
▁stratford	-12.2772
▁telecom	-12.2772
▁antioch	-12.2772
▁kyrie	-12.2772
▁caledonia	-12.2772
▁citadel	-12.2772
▁ropeway	-12.2772
▁vivace	-12.2772
▁regis	-12.2772
▁lansing	-12.2772
▁cugat	-12.2772
▁burnham	-12.2772
▁bacon	-12.2772
▁ensenada	-12.2772
▁salva	-12.2772
▁meyer	-12.2772
▁aranda	-12.2772
▁thornton	-12.2772
▁etchu	-12.2772
▁reggie	-12.2772
▁lucena	-12.2772
▁continu	-12.2773
enshu	-12.2773
▁lincolnshire	-12.2773
▁foshan	-12.2773
▁louga	-12.2773
▁comedy	-12.2773
▁harima	-12.2773
▁kurume	-12.2773
▁quiet	-12.2774
▁portillo	-12.2774
▁maison	-12.2774
▁rondeau	-12.2774
▁gull	-12.2774
▁malibu	-12.2774
▁rota	-12.2776
▁bint	-12.2776
▁boat	-12.2777
▁assembly	-12.2777
▁tag	-12.2778
▁stevenson	-12.2779
▁flower	-12.2779
ema	-12.2779
▁astronom	-12.278
▁keisei	-12.2781
▁saving	-12.2785
▁saddle	-12.2785
▁gregg	-12.2786
▁850	-12.2795
▁950	-12.2795
▁amur	-12.2795
▁sadovy	-12.2797
downer	-12.28
▁rambl	-12.2803
▁kol	-12.2804
▁1875	-12.2809
▁remin	-12.281
lena	-12.2815
▁osma	-12.2816
▁1891	-12.2817
▁yorkville	-12.2818
▁danse	-12.2818
▁employ	-12.2819
▁fury	-12.2822
▁wizards	-12.2822
421	-12.2824
▁1237	-12.2825
239	-12.2828
▁sagami	-12.2829
▁1019	-12.2836
ozu	-12.2837
etta	-12.2839
▁josep	-12.2842
▁str	-12.2844
iwo	-12.2845
▁1899	-12.2848
▁1021	-12.2849
▁1893	-12.2849
▁1111	-12.2851
▁krasno	-12.2852
▁worth	-12.2856
▁paper	-12.2857
▁saka	-12.2857
▁midland	-12.2858
▁hair	-12.2859
▁836	-12.2861
ossa	-12.2862
▁1867	-12.2862
hpl	-12.2863
910	-12.2873
nbwd	-12.2874
▁edg	-12.2875
itter	-12.2878
504	-12.288
932	-12.288
sea	-12.288
.047	-12.2882
lov	-12.2883
449	-12.2883
▁ecol	-12.2883
▁entre	-12.2886
▁hal	-12.2897
▁nikola	-12.29
▁romano	-12.29
▁louise	-12.29
▁shira	-12.2903
925	-12.2903
khs	-12.2904
▁parla	-12.2905
▁seconda	-12.2907
▁860	-12.2908
▁lamb	-12.2909
▁ou	-12.2914
cnn	-12.2914
▁793	-12.2918
esa	-12.2919
▁975	-12.2919
▁tea	-12.2923
▁santi	-12.2929
▁723	-12.2931
▁franc	-12.2934
▁749	-12.2935
yanagi	-12.2938
548	-12.2944
▁jewel	-12.2947
buchi	-12.2949
▁791	-12.2952
bella	-12.2953
▁841	-12.2954
▁aso	-12.2963
▁belt	-12.2965
ees	-12.2965
▁shall	-12.297
▁778	-12.297
▁gaspe	-12.2972
▁892	-12.2976
▁spi	-12.298
▁cab	-12.299
136	-12.2991
▁1887	-12.2994
▁chong	-12.2996
▁748	-12.2999
▁caro	-12.2999
▁1130	-12.3002
jean	-12.3007
▁coronation	-12.3008
▁1800	-12.301
▁1050	-12.3013
▁1001	-12.3013
▁michel	-12.3015
▁linea	-12.3017
▁871	-12.3018
ohara	-12.3019
▁melodies	-12.3032
▁descen	-12.3037
▁940	-12.3037
kino	-12.304
▁flora	-12.3044
▁barra	-12.305
▁hold	-12.3051
▁isabela	-12.3054
▁rand	-12.3055
▁1176	-12.3057
▁bana	-12.3059
▁1895	-12.3063
arita	-12.3069
eria	-12.3071
▁908	-12.3071
▁888	-12.3077
598	-12.3078
741	-12.3081
▁chip	-12.3097
born	-12.3102
834	-12.3106
104	-12.3107
▁buddhis	-12.3107
dsq	-12.3111
▁tara	-12.3113
▁horcaj	-12.3114
▁cartoon	-12.3114
▁monmouth	-12.3114
▁koshekhabl	-12.3114
pitre	-12.3114
▁1983-01-03	-12.3114
▁adventist	-12.3114
▁alvarez	-12.3114
▁announced	-12.3114
▁bautista	-12.3114
▁bombali	-12.3114
▁caesar	-12.3114
▁cahokia	-12.3114
▁catarina	-12.3114
▁cazalla	-12.3114
▁cinema	-12.3114
▁energy	-12.3114
▁formentera	-12.3114
▁fuenlabrada	-12.3114
▁jalapa	-12.3114
▁lipetsk	-12.3114
▁logrono	-12.3114
▁mississauga	-12.3114
▁montornes	-12.3114
▁murdoch	-12.3114
▁narcea	-12.3114
▁phantom	-12.3114
▁tatarstan	-12.3114
▁valdeorras	-12.3114
▁vilafranca	-12.3114
▁yelimane	-12.3114
▁beethoven	-12.3114
▁lenox	-12.3114
▁utsunomiya	-12.3114
▁dekalb	-12.3114
▁lyndon	-12.3114
▁elmhurst	-12.3114
▁peralta	-12.3114
▁setagaya	-12.3114
▁baztan	-12.3114
▁teresa	-12.3114
▁yugoslavia	-12.3114
▁estrada	-12.3114
▁winfield	-12.3114
▁carpio	-12.3114
▁blind	-12.3114
▁willowbrook	-12.3114
▁bureau	-12.3114
▁carbondale	-12.3114
▁cascade	-12.3114
▁salmon	-12.3114
▁quoin	-12.3114
▁calvin	-12.3114
▁norton	-12.3114
▁dolton	-12.3114
▁ramos	-12.3115
▁skyline	-12.3115
▁socks	-12.3115
▁westmount	-12.3115
▁crestwood	-12.3115
argama	-12.3115
▁orekhovo	-12.3115
▁goodwin	-12.3115
▁heroes	-12.3116
▁shorewood	-12.3116
▁yaroslavl	-12.3116
▁penza	-12.3116
ombey	-12.3116
▁papa	-12.3117
▁panda	-12.3118
▁ramsey	-12.3118
▁gregorio	-12.3119
▁crane	-12.312
richton	-12.3121
▁owner	-12.3121
▁iscar	-12.3122
bamba	-12.3123
▁courtney	-12.3125
▁taft	-12.3126
▁viana	-12.3126
▁plana	-12.3127
.04_75	-12.3128
▁bower	-12.3128
▁802	-12.3129
▁1084	-12.3129
▁loha	-12.3132
▁1059	-12.3135
▁once	-12.3135
▁trial	-12.3137
▁931	-12.3137
▁taylorville	-12.3139
▁takasaki	-12.314
jzx	-12.3141
309	-12.3142
gon	-12.3152
you	-12.3153
ashiki	-12.3154
elee	-12.3155
▁moran	-12.3155
▁fuge	-12.3156
▁elvi	-12.3157
▁airlines	-12.3166
▁cardenas	-12.3166
▁zao	-12.317
▁1058	-12.3171
ship	-12.3172
▁767	-12.3175
▁plato	-12.3177
lyn	-12.3179
emma	-12.3179
▁wendel	-12.3183
▁813	-12.3185
▁host	-12.3185
▁wil	-12.3197
arco	-12.3198
▁map	-12.3202
mf	-12.3204
▁1319	-12.3205
▁patriot	-12.3208
▁problem	-12.3208
▁venta	-12.3212
▁kurt	-12.3228
▁1118	-12.323
▁925	-12.3234
▁1791	-12.3238
▁962	-12.324
une	-12.324
chev	-12.3241
mal	-12.3242
cca	-12.3244
▁992	-12.3249
▁hier	-12.3249
ati	-12.325
▁1138	-12.3256
▁boxed	-12.3261
▁863	-12.3264
▁chelsea	-12.3264
boro	-12.3265
▁xind	-12.3269
▁729	-12.3272
mol	-12.3277
▁trout	-12.3279
hui	-12.3282
▁893	-12.3283
▁kang	-12.3283
▁cie	-12.3285
▁miya	-12.3286
▁malco	-12.3286
▁jak	-12.3286
931	-12.3293
▁quai	-12.3297
▁1023	-12.3299
▁831	-12.3304
▁1120	-12.3309
knsd	-12.3312
enko	-12.3315
▁1037	-12.332
▁1133	-12.3321
▁chico	-12.3322
▁studios	-12.3324
hold	-12.3327
▁995	-12.3329
sten	-12.3331
▁1155	-12.3332
terra	-12.3335
omon	-12.3342
523	-12.3352
▁927	-12.3355
eaton	-12.3361
▁1071	-12.3362
2)	-12.3366
▁261	-12.3368
▁barbera	-12.3369
toria	-12.3372
▁989	-12.3374
▁gluck	-12.3378
▁sk	-12.3378
▁838	-12.3379
knsg	-12.3379
▁sim	-12.3379
anes	-12.3379
▁ibi	-12.338
gahara	-12.3385
▁hood	-12.3385
▁pobr	-12.3385
738	-12.3385
▁1137	-12.3386
▁luo	-12.3391
ode	-12.3394
▁sanda	-12.3397
wq	-12.3397
▁chambers	-12.3399
▁hel	-12.3401
▁furu	-12.3403
▁1182	-12.3406
▁selections	-12.3408
▁funabashi	-12.3409
▁1040	-12.341
ebi	-12.3411
eiro	-12.3412
746	-12.3412
▁1557	-12.3414
mein	-12.3416
▁1431	-12.3416
▁arch	-12.3419
▁675	-12.3419
▁cur	-12.3424
▁asahikawa	-12.3432
▁million	-12.3432
▁ikeda	-12.3432
▁1054	-12.3433
▁1421	-12.3436
▁burn	-12.3439
rflm	-12.3441
▁894	-12.3441
▁poet	-12.3443
rubio	-12.3444
▁aki	-12.3446
anoia	-12.3449
▁kon	-12.3451
▁pau	-12.3454
umeda	-12.3454
▁noda	-12.3456
emo	-12.3458
▁734	-12.3458
▁mahon	-12.346
gong	-12.3462
▁llore	-12.3464
ulver	-12.3465
agan	-12.3465
▁tempe	-12.3465
▁1238	-12.3465
haffner	-12.3468
gasteiz	-12.3468
unreleased	-12.3468
▁alajuela	-12.3468
▁alfoz	-12.3468
▁belvidere	-12.3468
▁bibliote	-12.3468
▁burnaby	-12.3468
▁cancun	-12.3468
▁chillicothe	-12.3468
▁circus	-12.3468
▁croix	-12.3468
▁ejido	-12.3468
▁enterprise	-12.3468
▁guillermo	-12.3468
▁hakodate	-12.3468
▁humboldt	-12.3468
▁kewanee	-12.3468
▁lisbon	-12.3468
▁marengo	-12.3468
▁mendoza	-12.3468
▁pedraza	-12.3468
▁penaranda	-12.3468
▁shriver	-12.3468
▁sinfonia	-12.3468
▁wisdom	-12.3468
▁yanfolila	-12.3468
▁abbey	-12.3468
▁dudley	-12.3468
▁jarvis	-12.3468
▁moose	-12.3468
▁appli	-12.3468
▁sancti	-12.3468
▁support	-12.3468
▁scottsdale	-12.3468
▁cottage	-12.3468
▁wonderful	-12.3468
▁vandalia	-12.3468
▁cantos	-12.3468
▁dearborn	-12.3468
▁kitakyushu	-12.3468
▁police	-12.3468
▁colima	-12.3468
▁concertante	-12.3468
▁estado	-12.3468
▁garland	-12.3468
▁editor	-12.3468
▁corozal	-12.3468
▁anaheim	-12.3468
ybrid	-12.3468
▁olney	-12.3468
bfmg	-12.3468
▁fredericton	-12.3468
▁guide	-12.3468
▁kurobe	-12.3468
▁lisle	-12.3468
▁olivares	-12.3468
▁curse	-12.3469
▁kennet	-12.3469
ulabe	-12.347
▁sharm	-12.347
ibanez	-12.347
▁comba	-12.347
bgkr	-12.3471
▁martha	-12.3471
▁pier	-12.3471
▁darby	-12.3471
▁taber	-12.3472
▁collinsville	-12.3472
▁cobb	-12.3472
▁barton	-12.3472
▁tunnel	-12.3473
▁emile	-12.3473
▁hongroise	-12.3473
▁prussian	-12.3473
▁656	-12.3473
▁current	-12.3474
▁stiller	-12.3474
▁moody	-12.3474
source	-12.3475
▁diary	-12.3475
▁canet	-12.3475
▁premiere	-12.3476
▁1868	-12.3476
▁yale	-12.3476
▁1242	-12.3476
▁spot	-12.3477
▁egli	-12.3478
▁barker	-12.3479
▁steele	-12.3481
▁1403	-12.3482
574	-12.3483
▁atlas	-12.3483
▁mcdowell	-12.3483
▁bea	-12.3484
▁horne	-12.3485
▁midori	-12.3487
▁urbana	-12.3488
▁nagato	-12.3489
▁funk	-12.3493
▁harmony	-12.3496
▁weib	-12.3496
esteve	-12.3498
tsuda	-12.3503
▁dover	-12.3503
▁argan	-12.3507
karen	-12.3508
▁tampa	-12.3509
▁lang	-12.351
▁vikings	-12.3513
▁1095	-12.3513
▁1849	-12.3514
▁1335	-12.3514
▁palomar	-12.3515
▁care	-12.3516
akim	-12.3517
inskaya	-12.3519
▁1140	-12.3519
▁huai	-12.3522
▁nacht	-12.3522
▁725	-12.3523
air	-12.3523
▁cri	-12.3526
uine	-12.3528
▁dewan	-12.353
▁baza	-12.3533
▁sonett	-12.3536
▁toba	-12.3537
▁1373	-12.3539
479	-12.354
▁1029	-12.3543
▁overture	-12.3544
▁villasec	-12.3544
▁bound	-12.3545
▁zo	-12.3548
eton	-12.3553
▁1167	-12.3555
▁fleurs	-12.3561
▁treasury	-12.3567
opera	-12.3568
connor	-12.357
wie	-12.3571
▁kame	-12.3571
▁monkey	-12.3572
▁oca	-12.3576
point	-12.358
▁ski	-12.358
ouest	-12.358
▁vostochnyy	-12.3581
mala	-12.3583
ute	-12.3583
▁1215	-12.3583
ille	-12.3583
oxford	-12.3584
wata	-12.3586
▁1139	-12.3587
villar	-12.3588
▁847	-12.3589
▁1017	-12.3601
▁1863	-12.3602
514	-12.3606
▁1294	-12.3611
▁1200	-12.3613
fort	-12.3624
▁colchester	-12.3624
▁annapolis	-12.3624
▁guizhou	-12.3624
▁1217	-12.3627
vdb	-12.3631
▁998	-12.3634
▁rog	-12.3634
▁sacr	-12.3634
▁carnegie	-12.3635
▁1252	-12.3643
▁949	-12.3643
▁frei	-12.3644
▁fil	-12.3645
▁songwriter	-12.3646
▁matanzas	-12.3647
een	-12.3647
uel	-12.3648
▁pana	-12.3652
▁849	-12.3652
▁1235	-12.3659
fic	-12.3661
anger	-12.3663
annan	-12.3668
minato	-12.3671
▁1129	-12.3672
▁silva	-12.3682
▁1)	-12.369
knsc	-12.3692
sanjo	-12.3699
igan	-12.37
▁gros	-12.3703
▁indians	-12.3706
▁743	-12.3709
kii	-12.371
▁835	-12.3713
▁wanted	-12.3714
333	-12.3714
cion	-12.3718
▁865	-12.3719
▁bonds	-12.3719
▁1601	-12.3731
lation	-12.3731
▁ranges	-12.3732
▁try	-12.3735
eza	-12.3736
wes	-12.3738
▁1212	-12.3738
▁guayama	-12.374
▁dion	-12.3741
▁1097	-12.3743
▁anti	-12.3744
▁hang	-12.375
▁tall	-12.3751
ltz	-12.3757
eco	-12.3759
nur	-12.3768
964	-12.3768
stead	-12.3769
▁874	-12.377
ejos	-12.377
▁plan	-12.3773
und	-12.3775
428	-12.3781
▁1406	-12.3784
▁abi	-12.3795
ea	-12.3796
▁nia	-12.3798
date	-12.3803
aise	-12.3805
mitsu	-12.3806
▁1173	-12.3807
ujia	-12.3808
530	-12.3815
kel	-12.3821
▁browns	-12.3828
▁hound	-12.3829
▁nadi	-12.383
▁commission	-12.383
achi	-12.3833
oya	-12.3834
▁algeciras	-12.3835
▁athabasca	-12.3835
▁badalona	-12.3835
▁berkeley	-12.3835
▁bloomingdale	-12.3835
▁bolingbrook	-12.3835
▁custom	-12.3835
▁gillespie	-12.3835
▁glasgow	-12.3835
▁guanacaste	-12.3835
▁llerena	-12.3835
▁moncada	-12.3835
▁phnom	-12.3835
▁principal	-12.3835
▁riofrio	-12.3835
▁sacatepequez	-12.3835
▁virden	-12.3835
▁vladivostok	-12.3835
▁voorhees	-12.3835
▁watkins	-12.3835
▁wauconda	-12.3835
▁bizen	-12.3835
▁cinca	-12.3835
▁crossroads	-12.3835
▁perkins	-12.3835
▁simeon	-12.3835
▁sunshine	-12.3835
▁lorca	-12.3835
▁staffordshire	-12.3835
▁terrassa	-12.3835
▁swiss	-12.3835
▁elfman	-12.3835
▁sabadell	-12.3835
▁rocafort	-12.3835
▁shonan	-12.3835
▁sanuki	-12.3835
▁yauco	-12.3835
▁roselle	-12.3835
▁burbank	-12.3835
▁oryol	-12.3835
ncaa	-12.3835
▁phone	-12.3835
▁magnet	-12.3835
▁alvaro	-12.3835
▁tapia	-12.3835
▁peterborough	-12.3835
possible	-12.3835
▁cardona	-12.3835
▁romeoville	-12.3835
▁retail	-12.3835
▁promen	-12.3835
▁augustine	-12.3835
▁maestra	-12.3835
▁newell	-12.3836
▁derrick	-12.3836
▁tesla	-12.3836
elecommunication	-12.3836
▁turkey	-12.3836
▁cake	-12.3836
▁lajas	-12.3836
▁fairfield	-12.3836
▁jill	-12.3836
▁hillsboro	-12.3836
▁barney	-12.3836
▁astor	-12.3836
takashima	-12.3837
▁blackburn	-12.3837
▁donnelly	-12.3837
▁kazusa	-12.3837
▁forbes	-12.3837
▁1010	-12.3837
krcs	-12.3838
yokota	-12.3838
▁ruby	-12.3838
▁macon	-12.3839
▁casares	-12.3839
▁employer	-12.3839
▁1784	-12.3839
▁sage	-12.384
▁chorale	-12.384
ciego	-12.384
krcv	-12.384
▁bellwood	-12.3841
▁strike	-12.3841
▁osborne	-12.3841
myr	-12.3841
▁tunisia	-12.3842
▁pinares	-12.3842
▁mercy	-12.3843
▁regency	-12.3843
shoe	-12.3845
▁security	-12.3845
▁wise	-12.3845
eisei	-12.3845
rvera	-12.3845
zhao	-12.3846
▁mukai	-12.3846
feat	-12.3846
▁willie	-12.3847
▁gage	-12.3847
▁dumme	-12.385
raffe	-12.385
▁musee	-12.385
▁1305	-12.385
hari	-12.385
echigo	-12.3852
▁saba	-12.3853
▁hex	-12.3855
▁stanton	-12.3857
▁980	-12.3857
zede	-12.3858
ization	-12.3859
461	-12.3859
▁1041	-12.386
▁orion	-12.3861
▁coca	-12.3862
standing	-12.3862
▁qing	-12.3863
▁ulan	-12.3864
▁shawn	-12.3864
bourg	-12.3866
▁villarrubi	-12.3866
▁1837	-12.3866
nakano	-12.3866
▁ph	-12.3869
▁essen	-12.3869
▁900	-12.387
yashiro	-12.3871
▁kono	-12.3873
▁umm	-12.3873
▁1132	-12.3874
▁jian	-12.3878
▁cale	-12.3879
▁orden	-12.3879
chaya	-12.3881
jthf	-12.3882
azumi	-12.3886
▁yoko	-12.3891
brush	-12.3894
▁dow	-12.3898
▁ojos	-12.39
tani	-12.3902
▁gory	-12.3908
nagata	-12.3908
amet	-12.391
lee	-12.3912
508	-12.3916
▁carib	-12.3919
fg	-12.3931
▁moderato	-12.3938
▁skin	-12.3938
▁pueblo	-12.3939
sly	-12.3941
▁panthers	-12.3941
▁740	-12.3945
▁854	-12.3946
▁chinatown	-12.3947
▁wait	-12.3948
▁mtv	-12.3948
▁warrior	-12.3954
▁orio	-12.3955
▁dialect	-12.3955
▁dialogue	-12.3956
▁872	-12.3964
revis	-12.3964
▁882	-12.3965
apture	-12.3969
▁vid	-12.3971
bra	-12.3972
law	-12.3974
▁stand	-12.3975
▁1880	-12.3976
▁1898	-12.3979
rup	-12.3983
▁877	-12.3986
▁tsuki	-12.3988
▁997	-12.3988
▁897	-12.3994
▁kok	-12.3995
nokuchi	-12.3995
▁1258	-12.3996
▁hizen	-12.3997
▁fujisawa	-12.3998
▁carleton	-12.3998
jtgw	-12.3998
▁tracks	-12.4001
elsa	-12.4007
otel	-12.4008
francois	-12.4009
▁asa	-12.4012
▁1028	-12.4015
nbwb	-12.4017
ations	-12.4019
▁marlins	-12.4019
▁1110	-12.4021
▁1105	-12.4024
▁noah	-12.4025
▁1035	-12.4025
▁fier	-12.4032
208	-12.4033
▁924	-12.4039
tec	-12.4039
rjw	-12.404
▁907	-12.4041
▁grass	-12.4041
▁1243	-12.4048
▁1142	-12.4051
▁1146	-12.4051
266	-12.4053
▁9811	-12.4053
sala	-12.4056
▁961	-12.4059
▁rings	-12.406
▁1165	-12.4062
▁miki	-12.4068
▁olmos	-12.4071
▁beasts	-12.4071
▁yang	-12.4073
▁1209	-12.4074
kkn	-12.4074
▁1904	-12.4079
hwa	-12.4079
wo	-12.408
▁novy	-12.4081
▁cover	-12.4082
▁dialogues	-12.4091
▁bravo	-12.4093
▁germantown	-12.4099
▁1878	-12.4104
ccc	-12.4105
▁meg	-12.4106
▁simmons	-12.4116
unni	-12.4125
188	-12.4129
soo	-12.4131
▁arenal	-12.4133
▁1405	-12.4134
▁911	-12.4134
▁1090	-12.4134
zing	-12.4135
pani	-12.4138
▁6.	-12.4145
257	-12.4147
niki	-12.4151
ikoma	-12.4152
▁1324	-12.4156
riviere	-12.4158
▁755	-12.416
▁sag	-12.4163
▁alte	-12.4164
▁premier	-12.4168
kaido	-12.417
▁1076	-12.4172
▁mache	-12.4173
▁jet	-12.4174
432	-12.4177
▁1842	-12.4179
▁dali	-12.4185
▁boz	-12.4186
jtgy	-12.4186
▁1239	-12.4187
▁bru	-12.4188
gran	-12.4192
unk	-12.4192
▁1081	-12.4194
jtgx	-12.4196
innie	-12.4197
174	-12.4199
▁lama	-12.42
▁grosse	-12.4206
koo	-12.4209
▁rex	-12.4209
▁della	-12.4211
▁yo	-12.4212
▁speak	-12.4212
▁navalmoral	-12.4213
▁calder	-12.4214
▁knox	-12.4215
▁2005-01-03	-12.4216
▁agriculture	-12.4216
▁almonacid	-12.4216
▁andalucia	-12.4216
▁bachelor	-12.4216
▁bensenville	-12.4216
▁buelna	-12.4216
▁cabanillas	-12.4216
▁cartwright	-12.4216
▁cerdanyola	-12.4216
▁chauncey	-12.4216
▁citizen	-12.4216
▁confessions	-12.4216
▁emerson	-12.4216
▁heinrich	-12.4216
▁kilimanjaro	-12.4216
▁kujalleq	-12.4216
▁mckenzie	-12.4216
▁mcleod	-12.4216
▁paracuellos	-12.4216
▁requena	-12.4216
▁sioux	-12.4216
▁somebody	-12.4216
▁tebbits	-12.4216
▁torrijo	-12.4216
▁totentanz	-12.4216
▁vazquez	-12.4216
▁vilalba	-12.4216
▁villahermosa	-12.4216
▁wilmette	-12.4216
▁wolverhampton	-12.4216
▁yecla	-12.4216
▁laviana	-12.4216
▁antequera	-12.4216
▁herrlich	-12.4216
▁langsam	-12.4216
▁lindenhurst	-12.4216
▁pavillion	-12.4216
▁sohag	-12.4216
▁tinker	-12.4216
▁chozas	-12.4216
▁nioro	-12.4216
▁sandwich	-12.4216
▁temagami	-12.4216
▁buckingham	-12.4216
▁olivenza	-12.4216
▁sotillo	-12.4216
▁riells	-12.4216
▁almazan	-12.4216
▁cortland	-12.4216
▁krasnogvardeysk	-12.4216
▁carpentersville	-12.4216
▁takatsuki	-12.4216
▁largo	-12.4216
▁abdul	-12.4216
▁higgins	-12.4216
▁streator	-12.4216
▁kawanishi	-12.4216
▁montemayor	-12.4216
▁estepa	-12.4216
▁brentwood	-12.4216
▁rinconada	-12.4216
▁fulton	-12.4216
▁balkans	-12.4216
▁rosemont	-12.4216
▁guilin	-12.4216
▁mala	-12.4216
▁transcenden	-12.4217
▁macane	-12.4217
qpd	-12.4217
▁zeus	-12.4217
▁wonder	-12.4217
olesa	-12.4217
▁1998-	-12.4217
▁mollet	-12.4218
▁kumano	-12.4218
riens	-12.4218
▁broadcasting	-12.4218
▁mews	-12.4219
▁duport	-12.4219
▁xvii	-12.4219
▁1327	-12.422
▁sahara	-12.422
quito	-12.422
ogaki	-12.4222
.04_85	-12.4222
rfll	-12.4223
▁ronda	-12.4223
▁granville	-12.4223
krct	-12.4224
agen	-12.4224
▁suez	-12.4224
▁bright	-12.4225
nouchi	-12.4225
▁lento	-12.4226
▁duetto	-12.4226
soft	-12.4226
▁burning	-12.4226
▁jinan	-12.4228
▁lester	-12.4229
issue	-12.4229
▁cite	-12.4229
kjw	-12.4231
▁virgil	-12.4232
ajima	-12.4238
▁1124	-12.4238
▁condesa	-12.4238
knsb	-12.4242
▁metal	-12.4243
▁1069	-12.4244
hojo	-12.4244
▁shields	-12.4244
▁cassettes	-12.4245
▁1807	-12.4248
▁eve	-12.4249
mel	-12.4256
▁ernst	-12.4256
▁1384	-12.426
▁chor	-12.426
▁1103	-12.4262
▁month	-12.4263
imate	-12.4264
▁tel	-12.4269
▁1159	-12.427
▁1881	-12.427
▁ti	-12.4271
jl	-12.4272
amar	-12.4272
pes	-12.4273
▁jardines	-12.4278
▁kura	-12.4286
▁936	-12.4288
▁jos	-12.4289
dol	-12.4291
▁753	-12.4298
jthd	-12.4313
▁1894	-12.4313
arte	-12.4314
▁semi	-12.432
▁ouro	-12.4322
▁athletics	-12.4326
ack	-12.4327
▁1036	-12.4327
jin	-12.4328
▁kozu	-12.4329
▁palmar	-12.4334
qin	-12.4337
310	-12.4338
horn	-12.434
▁978	-12.4348
▁morristown	-12.4348
▁plaines	-12.4351
▁latin	-12.4352
▁phillip	-12.4354
komae	-12.4354
▁browning	-12.4358
▁kashiwa	-12.4359
154	-12.4359
▁921	-12.436
▁1325	-12.436
▁1848	-12.436
xy	-12.4362
yev	-12.4362
▁roque	-12.4368
218	-12.4371
▁mead	-12.4372
▁centralia	-12.4373
▁stock	-12.4378
▁tempo	-12.4378
▁nowhere	-12.438
▁bit	-12.4382
▁hachinohe	-12.4384
▁beck	-12.4385
▁tsurumi	-12.4385
▁gus	-12.4394
▁miyako	-12.44
▁1854	-12.4403
▁stat	-12.4405
iana	-12.4415
▁1220	-12.4419
▁emili	-12.4422
▁abinsk	-12.4425
166	-12.4426
arwood	-12.443
▁198	-12.4432
taka	-12.4432
▁raf	-12.4433
▁1033	-12.4434
zar	-12.4441
▁tracy	-12.4446
▁pudong	-12.4446
▁pound	-12.4447
▁wilde	-12.445
▁979	-12.445
hpx	-12.445
▁kidd	-12.4451
space	-12.4459
▁1823	-12.446
▁huck	-12.4463
▁moss	-12.4464
267	-12.447
▁sham	-12.447
▁zama	-12.4484
286	-12.4485
nbwc	-12.449
▁rad	-12.4497
▁1046	-12.4503
bishi	-12.4503
▁penh	-12.4504
kon	-12.4505
▁1180	-12.451
▁forty	-12.4512
▁1268	-12.4512
eiros	-12.452
566	-12.4529
462	-12.4529
▁domini	-12.453
▁dal	-12.4531
master	-12.4538
▁dumb	-12.4539
over	-12.4541
604	-12.4541
▁lover	-12.4542
kura	-12.4544
utian	-12.4545
▁sheng	-12.4551
tulia	-12.4554
▁melga	-12.4555
baru	-12.4558
bvcy	-12.4562
872	-12.4562
▁hoso	-12.4564
▁1853	-12.458
▁maximo	-12.4585
▁1339	-12.459
▁2015	-12.459
▁870	-12.4598
▁eugeni	-12.46
▁maykop	-12.4603
aught	-12.4604
▁pie	-12.4606
▁1485	-12.4607
▁store	-12.461
▁catch	-12.461
eros	-12.461
kaku	-12.4611
▁clare	-12.4612
▁journal	-12.4612
almunia	-12.4612
appalach	-12.4612
▁alsip	-12.4612
▁blanques	-12.4612
▁brewster	-12.4612
▁calahorra	-12.4612
▁canterbury	-12.4612
▁carballo	-12.4612
▁cavaliers	-12.4612
▁chamberlain	-12.4612
▁channahon	-12.4612
▁chuzzlewit	-12.4612
▁control	-12.4612
▁dorrit	-12.4612
▁expedition	-12.4612
▁experience	-12.4612
▁fowler	-12.4612
▁garibaldi	-12.4612
▁hathaway	-12.4612
▁huerva	-12.4612
▁madagascar	-12.4612
▁matagalpa	-12.4612
▁maurici	-12.4612
▁mccarthy	-12.4612
▁mendota	-12.4612
▁minutes	-12.4612
▁mostoles	-12.4612
▁orihuela	-12.4612
▁padron	-12.4612
▁pneumonia	-12.4612
▁priego	-12.4612
▁rebellion	-12.4612
▁reforma	-12.4612
▁ripley	-12.4612
▁ryukyu	-12.4612
▁torremocha	-12.4612
▁tournament	-12.4612
▁ziguinchor	-12.4612
▁hinduism	-12.4612
▁horace	-12.4612
▁jiaotong	-12.4612
▁murphysboro	-12.4612
▁pittsfield	-12.4612
▁utuado	-12.4612
▁velasco	-12.4612
▁belcher	-12.4612
▁bombardment	-12.4612
▁estrella	-12.4612
▁mokena	-12.4612
▁rozas	-12.4612
▁zorita	-12.4612
▁corneja	-12.4612
▁bamberg	-12.4612
▁canillas	-12.4612
▁clarence	-12.4612
▁hamburg	-12.4612
▁padul	-12.4612
▁pagoda	-12.4612
▁fearless	-12.4612
▁married	-12.4612
▁mineral	-12.4612
▁mascot	-12.4612
▁tortosa	-12.4612
▁elkhorn	-12.4612
▁yeltes	-12.4612
▁alcorcon	-12.4612
nippes	-12.4612
▁922	-12.4612
▁network	-12.4612
▁tipton	-12.4612
▁martos	-12.4612
▁bailen	-12.4612
▁retirement	-12.4612
▁suzuka	-12.4612
▁cornwallis	-12.4612
▁irene	-12.4612
▁lookout	-12.4612
▁sunnyside	-12.4612
▁pilas	-12.4612
grammy	-12.4612
▁charter	-12.4612
▁morioka	-12.4612
▁buchanan	-12.4612
▁archie	-12.4613
▁mishima	-12.4613
▁shinagawa	-12.4613
▁concordia	-12.4613
▁close	-12.4613
▁farley	-12.4613
▁astoria	-12.4613
▁democracy	-12.4613
lloredo	-12.4613
▁sonny	-12.4614
▁machine	-12.4614
yuzawa	-12.4614
▁mataro	-12.4614
▁bridgeview	-12.4615
▁luxor	-12.4615
▁samoa	-12.4615
▁waltham	-12.4616
▁1104	-12.4616
▁bages	-12.4616
▁oreja	-12.4616
▁madera	-12.4616
▁warrenville	-12.4616
zbf	-12.4616
▁pedrosa	-12.4616
▁westmont	-12.4617
roig	-12.4618
▁bafo	-12.4618
▁nijo	-12.4618
▁talk	-12.4618
▁parada	-12.4618
komatsu	-12.4618
▁barrow	-12.4619
▁frankie	-12.4619
▁campton	-12.4619
▁garza	-12.462
▁carles	-12.4621
▁lincolnwood	-12.4622
▁bitter	-12.4622
▁beata	-12.4623
▁dios	-12.4623
umba	-12.4626
koizumi	-12.4626
▁yard	-12.4627
▁1074	-12.4627
▁bath	-12.4629
▁louisville	-12.4632
▁auto	-12.4633
▁263	-12.4634
▁bonn	-12.4634
▁vilar	-12.4635
▁centreville	-12.4638
riano	-12.464
kstx	-12.4642
kana	-12.4642
▁consol	-12.4642
▁ordes	-12.4643
▁loop	-12.4644
▁within	-12.4646
▁colts	-12.4648
▁1824	-12.4649
▁shimizu	-12.4649
▁1164	-12.4653
▁poly	-12.4653
364	-12.4654
ance	-12.4654
▁salut	-12.4658
▁azul	-12.4658
▁nina	-12.4663
chell	-12.4666
▁1048	-12.4668
▁846	-12.4668
▁authority	-12.4669
▁massif	-12.467
▁faculta	-12.4671
▁presents	-12.4673
▁1018	-12.4674
▁liang	-12.4682
▁seu	-12.4684
gxsy	-12.4685
uji	-12.469
▁kuk	-12.4692
▁1082	-12.4693
▁jude	-12.4695
▁sto	-12.4697
arge	-12.4699
jtgv	-12.47
▁1070	-12.4701
▁1780	-12.4701
▁bald	-12.4709
▁parra	-12.4712
▁raven	-12.4712
down	-12.4715
▁1205	-12.4717
▁roses	-12.4718
▁leis	-12.4719
▁1380	-12.4719
egi	-12.472
▁northville	-12.4721
▁ser	-12.4724
.0446	-12.4728
▁1726	-12.4728
lemon	-12.4737
kum	-12.4737
▁jong	-12.4743
aux	-12.4745
▁prophet	-12.4746
gww	-12.4747
abara	-12.4752
▁futa	-12.4757
hali	-12.4757
▁jia	-12.4758
▁1371	-12.4762
▁okazaki	-12.4762
▁frog	-12.4763
▁olmo	-12.4765
▁monster	-12.4765
alve	-12.4768
▁jesu	-12.477
▁curtiss	-12.477
▁whit	-12.4771
▁ume	-12.4771
▁1063	-12.4771
▁salina	-12.4775
usi	-12.4776
▁kasuga	-12.4782
▁ferdinand	-12.4787
agano	-12.479
gres	-12.4791
▁massey	-12.4792
▁muros	-12.4792
▁884	-12.4792
▁laurier	-12.4793
▁doe	-12.4795
pre	-12.4795
hori	-12.4797
▁elliot	-12.4798
▁1883	-12.4799
109	-12.48
▁1006	-12.4802
shin	-12.4807
▁reds	-12.4808
▁rudol	-12.4811
▁1020	-12.4822
▁romana	-12.4824
▁wie	-12.4832
▁toya	-12.4834
▁fang	-12.4836
▁1107	-12.4845
gami	-12.4847
▁1793	-12.4849
▁lori	-12.4855
▁juliet	-12.4857
▁bosch	-12.4859
▁penas	-12.4863
▁898	-12.4868
zz	-12.4874
▁958	-12.4874
▁878	-12.4875
▁1872	-12.4879
▁873	-12.488
▁hear	-12.4886
▁tide	-12.4886
ashi	-12.4891
ooka	-12.4892
▁1141	-12.4892
▁1844	-12.4897
▁983	-12.4898
▁norm	-12.49
shirakawa	-12.4901
▁1501	-12.4902
▁mazo	-12.4903
tique	-12.4904
▁747	-12.4906
▁patriots	-12.4912
▁lam	-12.4914
▁gang	-12.4916
▁cle	-12.4917
nakayama	-12.4921
▁caves	-12.4921
zira	-12.4923
ius	-12.4927
▁falcons	-12.4932
young	-12.4933
▁motion	-12.4933
spanish	-12.4934
▁ike	-12.4934
jamaica	-12.4936
book	-12.4938
▁1292	-12.4938
▁pacifica	-12.494
▁khor	-12.4941
▁rubio	-12.4944
▁mika	-12.4944
national	-12.4946
▁1487	-12.4952
▁progress	-12.4954
▁1595	-12.4955
498	-12.4956
▁1083	-12.4956
▁1731	-12.4957
▁pare	-12.4958
sud	-12.4958
wng	-12.4962
▁espino	-12.4965
▁1458	-12.4967
wind	-12.4969
▁dill	-12.4972
▁1245	-12.4973
▁1102	-12.4983
▁honjo	-12.4983
▁1884	-12.4991
▁tome	-12.4993
oud	-12.4999
▁despi	-12.5003
▁1144	-12.5005
▁comet	-12.5009
▁zwei	-12.5009
▁928	-12.501
▁cornella	-12.5012
217	-12.5014
236	-12.5016
▁booth	-12.5017
gawara	-12.5018
▁1153	-12.5018
▁bernie	-12.5019
ustin	-12.502
ameron	-12.5021
▁trump	-12.5022
▁martorell	-12.5022
▁akashi	-12.5022
▁exerci	-12.5023
▁ube	-12.5023
▁immigra	-12.5023
▁kiso	-12.5023
easant	-12.5024
▁amherst	-12.5024
raphael	-12.5024
salzburg	-12.5024
▁alcaniz	-12.5024
▁alcobendas	-12.5024
▁balboa	-12.5024
▁breakfast	-12.5024
▁buckeye	-12.5024
▁buenaventura	-12.5024
▁burguillos	-12.5024
▁caudete	-12.5024
▁centelles	-12.5024
▁dartmouth	-12.5024
▁discourse	-12.5024
▁eleanor	-12.5024
▁fagerbakke	-12.5024
▁fashion	-12.5024
▁frusciante	-12.5024
▁geneseo	-12.5024
▁grayslake	-12.5024
▁guadarrama	-12.5024
▁gurnee	-12.5024
▁gymnasium	-12.5024
▁kaolack	-12.5024
▁mallarme	-12.5024
▁mausoleum	-12.5024
▁melbourne	-12.5024
▁mondragon	-12.5024
▁mordovia	-12.5024
▁pasadena	-12.5024
▁ponferrada	-12.5024
▁rapszodia	-12.5024
▁reeves	-12.5024
▁sheldon	-12.5024
▁solihull	-12.5024
▁suffolk	-12.5024
▁sweeney	-12.5024
▁taganrog	-12.5024
▁uprising	-12.5024
▁vallbona	-12.5024
▁walsall	-12.5024
▁waterfall	-12.5024
▁zafra	-12.5024
▁zigeuner	-12.5024
▁elijah	-12.5024
▁ingenio	-12.5024
▁itasca	-12.5024
▁kensington	-12.5024
▁monzon	-12.5024
▁paraguay	-12.5024
▁ruiz	-12.5024
▁ashikaga	-12.5024
▁chemical	-12.5024
▁mowry	-12.5024
▁toluca	-12.5024
▁agency	-12.5024
▁gaspar	-12.5024
▁polvorosa	-12.5024
execution	-12.5024
▁belog	-12.5024
▁grazioso	-12.5024
▁winnetka	-12.5024
platja	-12.5024
▁leather	-12.5024
▁pipeline	-12.5024
kegel	-12.5024
▁moncayo	-12.5024
▁ribes	-12.5024
▁fatick	-12.5024
▁garner	-12.5024
▁guijo	-12.5024
▁independencia	-12.5024
▁norridge	-12.5024
▁modeste	-12.5024
▁pendleton	-12.5024
▁alfaro	-12.5024
▁ferndale	-12.5024
▁sumner	-12.5024
bayashi	-12.5024
▁burlington	-12.5024
▁hengshui	-12.5024
▁omsk	-12.5024
▁paseo	-12.5024
▁unicef	-12.5024
▁cartago	-12.5024
▁wives	-12.5024
▁rodney	-12.5025
▁exeter	-12.5025
▁salceda	-12.5025
▁skinner	-12.5025
▁almaden	-12.5025
388	-12.5025
▁diaries	-12.5025
▁buey	-12.5025
▁jinzhou	-12.5025
▁streamwood	-12.5025
▁monterey	-12.5025
tanabe	-12.5025
▁harrisburg	-12.5025
▁woodward	-12.5025
▁bingham	-12.5026
▁tropic	-12.5026
▁iberia	-12.5026
▁unitar	-12.5026
▁sailor	-12.5026
▁jimena	-12.5026
▁emmanuel	-12.5026
▁chapelle	-12.5027
▁architecture	-12.5027
▁prayer	-12.5027
▁painter	-12.5027
▁bethel	-12.5028
▁paw	-12.5028
▁molins	-12.5028
▁ewing	-12.5029
tenjin	-12.5029
▁bowen	-12.503
▁alone	-12.503
▁broken	-12.503
▁poemes	-12.503
infant	-12.5031
▁wiege	-12.5031
gonn	-12.5031
▁napo	-12.5031
▁williamsburg	-12.5031
▁gava	-12.5031
anover	-12.5031
▁linus	-12.5031
▁gordo	-12.5033
▁nice	-12.5033
shore	-12.5035
▁homewood	-12.5036
▁caspe	-12.5036
307	-12.5036
jingu	-12.5038
349	-12.5039
▁1877	-12.504
▁parkview	-12.504
▁rider	-12.5041
▁7600	-12.5041
▁bayou	-12.5041
▁congo	-12.5041
▁benson	-12.5042
▁sauk	-12.5042
▁granger	-12.5043
▁tamari	-12.5045
▁svobodny	-12.5046
▁pole	-12.5048
▁elm	-12.5048
▁ukrain	-12.5049
▁1438	-12.5049
▁kerr	-12.5049
▁gunn	-12.5052
making	-12.5052
▁sox	-12.5055
▁favorites	-12.5055
▁1187	-12.5056
▁thur	-12.5057
▁hicks	-12.5057
▁strong	-12.5058
itabashi	-12.5058
azuma	-12.5061
▁katsura	-12.5063
amos	-12.5063
isch	-12.5068
qpm	-12.5068
▁kawai	-12.5071
▁esplu	-12.5074
▁rapids	-12.5077
▁1505	-12.5078
▁santana	-12.5082
▁kiyo	-12.5083
▁1154	-12.5085
▁nikko	-12.5086
▁1813	-12.5086
gjg	-12.5088
▁lettres	-12.5088
▁ultimat	-12.509
▁nuit	-12.509
kstp	-12.5091
aqui	-12.5093
▁huron	-12.5095
▁aller	-12.5096
sanche	-12.5096
▁180.0	-12.5098
366	-12.5099
▁1503	-12.5101
▁toa	-12.5102
jvv	-12.5102
▁1195	-12.5105
.0111	-12.511
dro	-12.5116
▁liberation	-12.5118
eff	-12.5126
djz	-12.5129
▁kamikawa	-12.513
▁1191	-12.5134
.051	-12.5136
amachi	-12.5138
▁mitt	-12.5139
▁vologda	-12.5141
ryo	-12.5141
▁1024	-12.5143
▁1858	-12.5146
elie	-12.5148
▁1250	-12.5151
och	-12.5151
▁ponds	-12.5151
▁sunda	-12.5152
kako	-12.5153
▁1296	-12.5156
▁970	-12.5159
355	-12.5162
▁uji	-12.5163
▁leeds	-12.5164
512	-12.5166
taki	-12.5167
tau	-12.5168
▁1303	-12.5172
▁mini	-12.5173
▁jiao	-12.5174
▁lakeland	-12.5176
ochi	-12.5179
▁tachikawa	-12.5181
▁koya	-12.5183
▁helm	-12.5185
▁oji	-12.5186
▁navia	-12.5188
▁trad	-12.5194
▁granj	-12.5195
▁studio	-12.5195
▁1149	-12.5198
▁luci	-12.5199
▁1749	-12.5202
▁relation	-12.5205
▁shipp	-12.5214
sugi	-12.5214
▁woody	-12.5214
▁1171	-12.5215
▁yuno	-12.5216
▁tennis	-12.5222
▁fra	-12.5232
▁paula	-12.5232
▁chun	-12.5235
▁wuli	-12.5238
chau	-12.524
165	-12.524
ois	-12.5242
suke	-12.5244
386	-12.5249
bas	-12.5249
▁mode	-12.5251
▁guys	-12.5255
▁1838	-12.5256
gaya	-12.5257
▁pal	-12.5261
zaka	-12.5263
▁nou	-12.5266
▁severn	-12.5266
▁zapardiel	-12.5275
▁friedrich	-12.5275
▁durham	-12.5275
▁1100	-12.5281
▁hoshi	-12.5289
▁hook	-12.5292
▁lou	-12.5293
▁1819	-12.5296
805	-12.5298
672	-12.53
▁paperback	-12.5301
▁914	-12.5309
aze	-12.5312
▁1247	-12.5313
▁1227	-12.5314
▁sabina	-12.5317
khb	-12.532
779	-12.5322
▁cow	-12.5324
▁rom	-12.5325
▁connor	-12.5331
▁1379	-12.5333
fuku	-12.5333
415	-12.5334
goode	-12.5337
▁prison	-12.5337
qi	-12.5338
▁2045	-12.5339
bod	-12.534
▁nolan	-12.5341
nada	-12.5342
▁1806	-12.5344
sando	-12.5357
▁hoz	-12.5359
▁1855	-12.5364
▁1493	-12.5368
▁rum	-12.5371
▁smok	-12.5379
▁1555	-12.5379
nette	-12.5381
▁rule	-12.5381
▁huan	-12.5383
▁korhogo	-12.5384
▁duett	-12.5384
▁than	-12.5386
▁matam	-12.5386
▁1859	-12.5388
grat	-12.539
▁elena	-12.5393
▁1404	-12.5397
▁baba	-12.5397
jthl	-12.54
▁mia	-12.54
aseda	-12.5401
▁1368	-12.5403
▁1228	-12.5406
▁929	-12.5409
▁cristo	-12.5411
lic	-12.5412
▁tamagawa	-12.5412
▁miyano	-12.5413
▁domine	-12.5414
rouge	-12.5415
▁officer	-12.5418
▁plano	-12.5424
itch	-12.5424
▁roads	-12.5427
uelo	-12.5427
dover	-12.5428
▁ami	-12.5429
sawyer	-12.5429
arrow	-12.543
itami	-12.5432
▁krasnoarmeysk	-12.5432
▁sue	-12.5432
titlan	-12.5433
▁juana	-12.5436
▁920	-12.5437
▁mona	-12.5439
▁fuchu	-12.544
▁988	-12.544
▁whi	-12.5443
▁roci	-12.5443
▁frederic	-12.5445
▁trou	-12.5448
▁vicent	-12.5449
▁2171	-12.5452
▁janet	-12.5453
559	-12.5454
gourma	-12.5454
▁alcantarilla	-12.5454
▁anaconda	-12.5454
▁aranjuez	-12.5454
▁auditorium	-12.5454
▁carlinville	-12.5454
▁cazorla	-12.5454
▁chinandega	-12.5454
▁coliseum	-12.5454
▁consumer	-12.5454
▁cordova	-12.5454
▁cunningham	-12.5454
▁entertainment	-12.5454
▁figueres	-12.5454
▁gloucester	-12.5454
▁gramenet	-12.5454
▁herencia	-12.5454
▁holguin	-12.5454
▁illescas	-12.5454
▁ishikari	-12.5454
▁judith	-12.5454
▁langreo	-12.5454
▁lindsay	-12.5454
▁ojeda	-12.5454
▁padre	-12.5454
▁peabody	-12.5454
▁perpetua	-12.5454
▁syktyvkar	-12.5454
▁trumbull	-12.5454
▁underground	-12.5454
▁vendrell	-12.5454
▁wainwright	-12.5454
▁wilbur	-12.5454
▁wilcox	-12.5454
▁woodrow	-12.5454
▁1942-11	-12.5454
▁1944-06	-12.5454
▁ardoz	-12.5454
▁emanuel	-12.5454
▁forsyth	-12.5454
▁mccoy	-12.5454
▁tarifa	-12.5454
▁genoa	-12.5454
▁haunted	-12.5454
▁mahomet	-12.5454
▁rodgers	-12.5454
▁stickney	-12.5454
▁castillejo	-12.5454
▁matteson	-12.5454
▁bourne	-12.5454
▁horizon	-12.5454
▁pozoblanco	-12.5454
▁dorado	-12.5454
materiali	-12.5454
▁cubillo	-12.5454
▁surprise	-12.5454
▁frailes	-12.5454
▁gounda	-12.5454
▁llanes	-12.5454
▁shark	-12.5454
▁darkness	-12.5455
▁osuna	-12.5455
▁toyohashi	-12.5455
▁anglo	-12.5455
▁straw	-12.5455
▁cruise	-12.5455
▁townsend	-12.5455
▁chofu	-12.5455
▁madeira	-12.5455
▁llera	-12.5455
cliff	-12.5455
▁gallo	-12.5455
▁pollenca	-12.5455
▁borja	-12.5455
▁ceiba	-12.5455
▁esther	-12.5455
▁olalla	-12.5455
▁clifton	-12.5455
▁shelley	-12.5455
▁ashiya	-12.5455
▁wilderness	-12.5455
▁norwood	-12.5455
▁teide	-12.5455
▁farrington	-12.5455
▁whistler	-12.5455
▁derek	-12.5455
▁lightning	-12.5455
▁mogan	-12.5455
▁benavente	-12.5455
▁villamartin	-12.5455
▁richland	-12.5456
▁atomi	-12.5456
▁bonnie	-12.5456
▁triton	-12.5456
▁sallent	-12.5456
▁chance	-12.5456
▁salou	-12.5456
▁939	-12.5456
▁milo	-12.5457
▁rojo	-12.5457
▁grandview	-12.5457
▁almanzora	-12.5457
▁fever	-12.5457
▁fancy	-12.5457
▁1680	-12.5457
▁narita	-12.5457
▁piper	-12.5457
▁905	-12.5458
▁enchanted	-12.5458
▁samana	-12.5458
▁clown	-12.5458
▁staunton	-12.5459
▁poco	-12.5459
▁thad	-12.5459
▁calvo	-12.5461
▁odon	-12.5461
▁northlake	-12.5462
▁goin	-12.5462
▁jenner	-12.5463
muel	-12.5463
▁shake	-12.5463
▁1240	-12.5465
immortal	-12.5466
yevo	-12.5467
▁artur	-12.5468
▁cage	-12.5469
▁1183	-12.547
gotta	-12.547
▁halo	-12.5471
▁boyle	-12.5471
ween	-12.5471
hof	-12.5473
▁onis	-12.5475
ntza	-12.5477
aine	-12.5477
▁indies	-12.548
▁dirk	-12.5481
▁eula	-12.5483
▁asaka	-12.5483
▁875	-12.5486
enne	-12.5487
▁keio	-12.5489
kane	-12.5491
koda	-12.5492
▁vie	-12.5494
▁rouge	-12.5495
▁869	-12.5496
amur	-12.5497
▁edited	-12.5499
▁koku	-12.5499
▁1099	-12.5502
▁franque	-12.5503
▁gracia	-12.5504
mth	-12.5506
▁roe	-12.5507
▁hollis	-12.5509
416	-12.5509
▁sanford	-12.5511
▁ningxia	-12.5514
▁andrea	-12.5515
▁mayer	-12.5516
▁tous	-12.5516
▁tur	-12.5516
▁1316	-12.5516
▁orr	-12.5517
weise	-12.5519
▁hiro	-12.5521
▁1520	-12.5529
dition	-12.5533
813	-12.5538
▁toros	-12.5539
▁style	-12.5549
▁williamson	-12.555
358	-12.5554
rqv	-12.5556
remix	-12.5556
▁nakagawa	-12.5559
▁1008	-12.5565
137	-12.5565
nuno	-12.5565
▁steps	-12.5566
▁1495	-12.5568
kamiya	-12.557
▁did	-12.5571
khz	-12.5571
▁1762	-12.5573
▁sie	-12.5574
▁campillos	-12.558
▁frontier	-12.5583
stic	-12.5584
▁1756	-12.5586
▁1065	-12.5586
▁1289	-12.559
▁posadas	-12.5591
▁2039	-12.5593
▁bona	-12.5594
284	-12.5601
▁motown	-12.5603
▁swed	-12.5604
mizo	-12.5605
▁sumiyoshi	-12.5605
▁1560	-12.5606
▁alcudia	-12.5607
▁1882	-12.5607
▁wor	-12.561
▁1506	-12.5616
▁settlement	-12.5619
este	-12.5622
518	-12.5623
▁caler	-12.5627
▁1113	-12.5631
▁anan	-12.5631
▁demon	-12.5635
noura	-12.5641
▁1798	-12.5644
.0123	-12.5644
▁shimonoseki	-12.5646
▁murders	-12.5647
▁cardinal	-12.5648
▁barnes	-12.565
▁xv	-12.5653
yon	-12.5654
▁1331	-12.5656
ebre	-12.5661
▁705	-12.5662
▁lights	-12.5666
▁melid	-12.5669
▁1061	-12.5676
▁1561	-12.5685
▁beast	-12.5687
▁lux	-12.5694
▁finc	-12.5695
▁elliott	-12.5696
▁1092	-12.5699
▁jacque	-12.57
▁1231	-12.57
▁1089	-12.5702
▁1052	-12.571
▁figure	-12.5712
▁fin	-12.5713
444	-12.5714
▁cop	-12.5715
▁1445	-12.5715
pil	-12.5729
▁968	-12.5731
▁1482	-12.5732
▁1214	-12.5732
rei	-12.5741
▁hero	-12.5743
▁ram	-12.5744
▁flor	-12.5745
abri	-12.5745
▁1206	-12.5749
379	-12.575
yamato	-12.5757
isla	-12.5757
mizu	-12.5758
▁medal	-12.5759
▁1417	-12.5759
▁1416	-12.576
etto	-12.5762
▁782	-12.5763
ishan	-12.5763
▁1621	-12.5771
▁matas	-12.5771
▁demi	-12.5772
ngari	-12.5772
▁wada	-12.5775
▁sims	-12.5777
▁abram	-12.5779
ysh	-12.5781
▁3000	-12.5782
▁1873	-12.5782
utsu	-12.5782
nab	-12.5782
▁880	-12.5786
▁images	-12.5786
▁fay	-12.5797
▁1198	-12.5798
▁913	-12.5799
▁confedera	-12.5802
▁core	-12.5803
524	-12.5815
▁1184	-12.5816
alpica	-12.5817
▁kiev	-12.5821
▁mixed	-12.5824
▁leninsk	-12.5824
667	-12.5826
rmn	-12.5828
▁1809	-12.5831
▁takamatsu	-12.5831
▁roku	-12.5831
▁altas	-12.5833
suyama	-12.5837
mj	-12.5838
▁1452	-12.5839
▁pela	-12.5839
515	-12.5841
▁kana	-12.5845
▁1740	-12.5847
338	-12.5849
▁chr	-12.585
▁1185	-12.5854
▁kost	-12.5854
▁loves	-12.5857
▁yawata	-12.5858
mille	-12.5859
▁1484	-12.5859
▁1463	-12.586
▁caniza	-12.5861
bri	-12.5862
▁1030	-12.5864
hre	-12.5866
▁886	-12.5867
polonaise	-12.5869
cassette	-12.587
▁1246	-12.5876
▁mater	-12.5878
bahama	-12.5886
▁faro	-12.5886
341	-12.5888
▁zhan	-12.5888
▁943	-12.589
▁gibbs	-12.5893
▁xiang	-12.5896
▁strange	-12.5897
▁1439	-12.5898
epos	-12.5898
▁natur	-12.5901
▁galile	-12.5901
▁liar	-12.5901
▁internacional	-12.5901
▁nichols	-12.5902
▁ripoll	-12.5903
▁briar	-12.5903
▁pollen	-12.5904
▁cornwall	-12.5904
▁1944-07	-12.5904
▁lynch	-12.5904
aladdin	-12.5904
▁adelaide	-12.5904
▁albarracin	-12.5904
▁alcaudete	-12.5904
▁barbate	-12.5904
▁benghazi	-12.5904
▁cerdanya	-12.5904
▁chimaltenango	-12.5904
▁colmenarejo	-12.5904
▁crimson	-12.5904
▁delivered	-12.5904
▁dentistry	-12.5904
▁dorset	-12.5904
▁effingham	-12.5904
▁eresma	-12.5904
▁ethiopia	-12.5904
▁ferrol	-12.5904
▁glencoe	-12.5904
▁hebrides	-12.5904
▁herschel	-12.5904
▁jiloca	-12.5904
▁juarros	-12.5904
▁lafayette	-12.5904
▁manacor	-12.5904
▁manresa	-12.5904
▁mephisto	-12.5904
▁miraflores	-12.5904
▁nickleby	-12.5904
▁norwegi	-12.5904
▁palafrugell	-12.5904
▁pantomime	-12.5904
▁petrarca	-12.5904
▁pharmacy	-12.5904
▁phillies	-12.5904
▁puntarenas	-12.5904
▁qaasuitsup	-12.5904
▁ransom	-12.5904
▁salisbury	-12.5904
▁talamanca	-12.5904
▁urdiales	-12.5904
▁vatican	-12.5904
▁verapaz	-12.5904
▁voltrega	-12.5904
▁wadsworth	-12.5904
▁westchester	-12.5904
▁wolcott	-12.5904
▁alpine	-12.5904
▁asuncion	-12.5904
▁knockin	-12.5904
▁magnolia	-12.5904
▁marquez	-12.5904
▁mercury	-12.5904
▁naranjo	-12.5904
▁pilgrim	-12.5904
▁tonight	-12.5904
▁valdemoro	-12.5904
▁congosto	-12.5904
▁delgado	-12.5904
▁lhasa	-12.5904
▁monasterio	-12.5904
▁roppongi	-12.5904
aravaca	-12.5904
▁mejorada	-12.5904
▁rioseco	-12.5904
▁scream	-12.5904
▁cotillas	-12.5904
▁palamos	-12.5904
▁rebollar	-12.5904
▁tuscola	-12.5904
▁carazo	-12.5904
oiwake	-12.5904
▁mclean	-12.5904
▁menorca	-12.5904
▁shonai	-12.5904
▁travis	-12.5904
hashimoto	-12.5904
kusatsu	-12.5904
▁maestre	-12.5904
▁heredia	-12.5904
▁luoyang	-12.5904
▁vieques	-12.5904
palestinian	-12.5904
shiroishi	-12.5904
▁barbour	-12.5904
▁emiliano	-12.5904
▁tobia	-12.5904
▁pravia	-12.5904
▁someday	-12.5904
▁1519	-12.5904
▁regal	-12.5904
▁montgri	-12.5904
▁pinto	-12.5904
▁matilla	-12.5904
▁lacrimosa	-12.5904
▁calella	-12.5904
▁moravia	-12.5904
▁taizhou	-12.5905
▁blaine	-12.5905
▁maebashi	-12.5905
▁silent	-12.5905
▁igualada	-12.5905
▁armilla	-12.5905
.08__	-12.5905
▁cieza	-12.5905
▁shangri	-12.5905
▁carlota	-12.5905
jerome	-12.5905
▁vienne	-12.5905
▁mihama	-12.5905
▁chicken	-12.5905
▁mechanic	-12.5905
▁nakamura	-12.5905
▁window	-12.5905
▁plantation	-12.5905
▁alfafar	-12.5905
▁bajo	-12.5905
scrib	-12.5905
▁1550	-12.5905
▁quiche	-12.5905
▁howell	-12.5905
▁silas	-12.5905
▁motif	-12.5905
▁siero	-12.5905
▁bartonville	-12.5905
▁edinburgh	-12.5905
▁dorchester	-12.5905
▁steger	-12.5905
▁turia	-12.5906
sphere	-12.5906
▁tamba	-12.5906
▁mirage	-12.5906
▁fresh	-12.5906
▁castellet	-12.5906
▁webb	-12.5906
isha	-12.5906
▁jedi	-12.5906
▁marchena	-12.5907
▁grado	-12.5907
shimo	-12.5907
▁abakan	-12.5907
▁villena	-12.5907
apache	-12.5907
▁posen	-12.5907
connell	-12.5907
▁talbot	-12.5907
▁pitch	-12.5908
▁witch	-12.5908
▁economist	-12.5908
▁rache	-12.5908
▁jaum	-12.5908
▁marcia	-12.5908
▁wanda	-12.5908
▁saved	-12.5909
▁humanes	-12.5909
▁honda	-12.5909
▁terzetto	-12.5909
▁sagrada	-12.591
▁hawthorne	-12.591
▁pros	-12.5911
▁carson	-12.5913
▁fallen	-12.5913
110	-12.5914
▁1777	-12.5915
▁villava	-12.5915
▁cody	-12.5916
▁killer	-12.5917
▁1479	-12.5917
▁peking	-12.5918
▁honor	-12.5919
▁caldera	-12.592
patch	-12.5921
▁disneyland	-12.5921
▁wave	-12.5923
▁irae	-12.5923
dake	-12.5923
▁greenville	-12.5925
▁montca	-12.5925
▁onda	-12.5927
xico	-12.5927
▁fajardo	-12.593
inta	-12.5931
237	-12.5932
▁carey	-12.5934
▁loran	-12.5936
bly	-12.5936
▁1232	-12.5936
▁1044	-12.5937
▁herreros	-12.5937
▁oka	-12.5939
▁kamen	-12.5939
.048	-12.594
▁hung	-12.5941
▁carmi	-12.5942
radio	-12.5952
grove	-12.5952
▁verin	-12.5952
▁lead	-12.5953
errell	-12.5953
▁2003-0	-12.5954
448	-12.5958
central	-12.5958
▁peri	-12.5961
407	-12.5963
276	-12.5965
▁calp	-12.5967
mica	-12.5968
nbyv	-12.5969
▁1389	-12.5971
▁bengals	-12.5974
cour	-12.5979
▁1267	-12.5979
▁ostrov	-12.5979
▁1300	-12.5981
▁1259	-12.5982
evsky	-12.5983
morrow	-12.5984
▁zack	-12.5987
▁1186	-12.5988
▁1488	-12.5991
▁kleine	-12.5992
run	-12.5993
▁schon	-12.5996
▁vallee	-12.5998
161	-12.5999
▁guo	-12.6
▁1465	-12.6001
kfc	-12.6002
▁palms	-12.6007
/5/	-12.6009
▁grounds	-12.6011
▁1156	-12.6013
▁1284	-12.6014
▁1287	-12.6018
pth	-12.6019
▁1179	-12.6021
▁raz	-12.6023
▁nakayama	-12.6023
eiwa	-12.6024
yevka	-12.6026
imple	-12.603
▁everything	-12.6031
▁ouverture	-12.6031
cnp	-12.6033
gyk	-12.6039
chu	-12.6043
nfl	-12.6047
▁jinja	-12.6048
kasse	-12.6054
▁lago	-12.6055
▁1282	-12.606
▁1623	-12.606
▁1157	-12.6064
anji	-12.6069
632	-12.6072
▁wes	-12.6072
▁yoshida	-12.6075
▁comedi	-12.6084
▁1285	-12.6084
▁1229	-12.6084
▁bare	-12.6086
▁1168	-12.6087
▁bali	-12.6087
▁perales	-12.6092
▁1622	-12.6092
.0115	-12.6093
▁1398	-12.6095
▁sera	-12.6097
acion	-12.6101
▁alle	-12.6102
▁yel	-12.6104
▁yokkaichi	-12.6104
takeda	-12.6104
345	-12.6105
ongo	-12.6106
▁madina	-12.6106
vbl	-12.6107
1782	-12.6107
rop	-12.6108
927	-12.6108
▁budd	-12.6109
▁cabana	-12.6116
▁single	-12.6118
▁barrio	-12.6122
▁fis	-12.6122
▁shika	-12.6132
sney	-12.6132
▁1108	-12.6133
▁868	-12.6133
▁teo	-12.6135
▁1148	-12.6136
▁1545	-12.6139
▁dalo	-12.6142
ueno	-12.6143
▁og	-12.6144
hall	-12.6145
dad	-12.6146
▁1343	-12.6147
▁flint	-12.6149
▁1178	-12.6152
yuri	-12.6158
kmg	-12.6158
jwk	-12.6161
dove	-12.6171
▁image	-12.6173
shaw	-12.6178
ici	-12.6179
▁ware	-12.618
▁lebr	-12.6182
485	-12.6185
399	-12.6186
▁class	-12.619
ente	-12.6192
▁elsa	-12.6195
248	-12.6197
▁2034	-12.6199
lau	-12.6206
▁anjo	-12.6211
acho	-12.6214
1257	-12.6215
▁volga	-12.6216
▁prophe	-12.6216
▁poble	-12.6217
▁asian	-12.6219
▁1170	-12.6223
▁rud	-12.6228
idi	-12.623
▁1523	-12.6232
▁1370	-12.6232
▁ogi	-12.6235
▁1874	-12.6235
igues	-12.6237
▁1866	-12.6237
202	-12.624
▁former	-12.6243
▁ventas	-12.6246
gona	-12.6248
▁1264	-12.6249
esta	-12.625
ozan	-12.6254
dora	-12.6258
▁dire	-12.626
▁togo	-12.626
ieme	-12.6263
lern	-12.6266
ender	-12.6266
▁komsomol	-12.6268
anni	-12.6268
▁miserere	-12.627
▁1747	-12.6275
▁rin	-12.6275
▁1815	-12.6278
buck	-12.6281
▁1649	-12.6283
mvx	-12.6283
▁1572	-12.6284
▁tui	-12.6285
▁tex	-12.629
▁1391	-12.629
▁1737	-12.6292
▁1418	-12.6297
▁1344	-12.6299
mah	-12.6301
muko	-12.6303
▁1532	-12.6304
▁conca	-12.6305
▁meri	-12.6308
lock	-12.631
nza	-12.6311
▁kom	-12.6313
▁901	-12.6313
sakura	-12.6315
tsubo	-12.6316
▁donne	-12.6316
207	-12.632
▁kawagoe	-12.6327
▁1801	-12.6327
▁irun	-12.6329
uela	-12.6336
beer	-12.6339
asse	-12.634
olson	-12.6341
▁georg	-12.6351
▁1581	-12.6353
▁917	-12.6354
▁1087	-12.6356
▁suwa	-12.6356
overa	-12.6356
izu	-12.6357
jvy	-12.6359
▁1803	-12.6366
▁osborn	-12.6366
▁1283	-12.6367
▁methodis	-12.6369
▁1876	-12.6373
▁dexter	-12.6374
▁rescue	-12.6374
▁chateau	-12.6375
dialakoro	-12.6375
richelieu	-12.6375
tachibana	-12.6375
vaudreuil	-12.6375
▁acadia	-12.6375
▁april	-12.6375
▁aurelio	-12.6375
▁bethalto	-12.6375
▁blount	-12.6375
▁chestnut	-12.6375
▁chiefdom	-12.6375
▁ciutadella	-12.6375
▁coristanco	-12.6375
▁crazy	-12.6375
▁daimiel	-12.6375
▁dynamo	-12.6375
▁eclipse	-12.6375
▁eldorado	-12.6375
▁fjord	-12.6375
▁fletcher	-12.6375
▁flossmoor	-12.6375
▁glendive	-12.6375
▁guixols	-12.6375
▁llanera	-12.6375
▁luthor	-12.6375
▁maynard	-12.6375
▁mojonera	-12.6375
▁ortega	-12.6375
▁palautordera	-12.6375
▁phelps	-12.6375
▁politics	-12.6375
▁proletarsk	-12.6375
▁proof	-12.6375
▁puertollano	-12.6375
▁pulaski	-12.6375
▁revelstoke	-12.6375
▁rokko	-12.6375
▁rubielos	-12.6375
▁safari	-12.6375
▁sculpture	-12.6375
▁seneca	-12.6375
▁soufriere	-12.6375
▁takhtamukay	-12.6375
▁tejeda	-12.6375
▁umbria	-12.6375
▁ursula	-12.6375
▁viladecans	-12.6375
▁vilamajor	-12.6375
▁villamanrique	-12.6375
▁vinaros	-12.6375
▁yuzhno	-12.6375
▁zapata	-12.6375
▁1944-10	-12.6375
▁1945-01	-12.6375
▁asheville	-12.6375
▁carboneras	-12.6375
▁carreno	-12.6375
▁dulce	-12.6375
▁iregua	-12.6375
▁morelia	-12.6375
▁tolleson	-12.6375
pueblonuevo	-12.6375
▁bustillo	-12.6375
▁marquette	-12.6375
▁bethune	-12.6375
▁sharon	-12.6375
▁coamo	-12.6375
▁iniesta	-12.6375
▁jumilla	-12.6375
▁cebria	-12.6375
▁veraguas	-12.6375
▁molinos	-12.6375
▁newark	-12.6375
▁segarra	-12.6375
▁macarthur	-12.6375
▁yachiyo	-12.6375
▁beacon	-12.6375
▁tabor	-12.6375
▁crisis	-12.6375
▁cerezo	-12.6375
▁creole	-12.6375
obihiro	-12.6375
▁besos	-12.6375
▁presley	-12.6375
▁aridane	-12.6375
▁surgut	-12.6375
▁pizarra	-12.6375
▁brenes	-12.6375
▁sakamoto	-12.6375
.02568	-12.6375
▁danforth	-12.6375
▁habana	-12.6375
▁sutton	-12.6375
▁talaia	-12.6375
▁horseshoe	-12.6375
▁glory	-12.6375
▁wakasa	-12.6375
▁cartama	-12.6375
▁musik	-12.6375
▁guimar	-12.6375
▁haikou	-12.6375
▁nakanoshima	-12.6375
▁hsbc	-12.6375
▁manteno	-12.6375
▁winkler	-12.6375
▁shibata	-12.6375
▁transmitter	-12.6375
▁325	-12.6375
▁scots	-12.6375
olu	-12.6375
▁fukuyama	-12.6375
▁ufa	-12.6375
▁reagan	-12.6376
▁adrada	-12.6376
▁galena	-12.6376
▁breese	-12.6376
frades	-12.6376
▁shady	-12.6376
▁koga	-12.6376
▁aswan	-12.6376
▁bitchu	-12.6376
▁carrillo	-12.6376
▁vince	-12.6376
▁overlander	-12.6376
▁belong	-12.6376
▁tsushima	-12.6377
▁vyborg	-12.6377
uozu	-12.6377
▁gogh	-12.6377
▁bitch	-12.6377
▁environmental	-12.6377
▁nanyang	-12.6378
krcr	-12.6378
▁verkhny	-12.6378
▁tegue	-12.6378
▁verkhne	-12.6378
▁peso	-12.6378
▁belaya	-12.6378
▁sears	-12.6378
alacant	-12.6378
▁formation	-12.6378
▁tsentral	-12.6378
▁tongue	-12.6378
brett	-12.6379
.0134	-12.6379
▁andujar	-12.6379
▁moment	-12.638
▁villarta	-12.6381
▁laugh	-12.6381
▁oakwood	-12.6381
principe	-12.6382
native	-12.6382
▁magda	-12.6382
▁valentine	-12.6382
▁drei	-12.6382
▁heiligen	-12.6382
button	-12.6382
▁willard	-12.6382
hirano	-12.6383
daimae	-12.6385
▁cran	-12.6386
kosugi	-12.6386
mundo	-12.6388
▁cornell	-12.6389
▁eje	-12.6389
▁altea	-12.639
▁tona	-12.6391
▁coup	-12.6392
▁crimea	-12.6393
▁mol	-12.6393
▁meco	-12.6393
▁groveland	-12.6395
fudo	-12.6399
▁cesar	-12.64
▁turtle	-12.6402
▁stepnoy	-12.6403
hunt	-12.6404
▁change	-12.6404
▁alberic	-12.6405
854	-12.6406
▁kip	-12.6406
▁mole	-12.6407
▁1181	-12.641
bantam	-12.641
ness	-12.6413
▁training	-12.6414
▁1794	-12.6414
▁muno	-12.6414
▁montij	-12.6416
▁palmera	-12.6416
▁younger	-12.6417
▁853	-12.6419
▁emmet	-12.6419
▁camar	-12.6419
gamo	-12.6422
▁951	-12.6422
▁linn	-12.6422
▁919	-12.6426
▁1870	-12.6429
▁sum	-12.6429
502	-12.643
tech	-12.6435
▁horts	-12.6436
gill	-12.6437
305	-12.6439
▁969	-12.6442
▁reine	-12.6442
hira	-12.6445
▁hind	-12.645
▁mutsu	-12.6452
▁1196	-12.6454
▁farms	-12.6456
279	-12.6456
nakagawa	-12.6461
▁bulldogs	-12.6461
▁1225	-12.6465
ellon	-12.6466
▁cheche	-12.6467
▁904	-12.6472
▁1851	-12.6472
▁perce	-12.6472
▁cumbres	-12.6474
▁davey	-12.6475
wilhelm	-12.6476
▁fen	-12.6478
▁wong	-12.6478
▁moya	-12.6479
miserere	-12.648
▁kino	-12.6481
418	-12.6483
▁chika	-12.6484
▁1203	-12.6486
▁spiritus	-12.6486
akhar	-12.6488
ther	-12.6488
hood	-12.649
486	-12.6494
▁1274	-12.6495
malaga	-12.6496
andre	-12.6497
israeli	-12.6499
▁1805	-12.65
370	-12.6503
1072	-12.6504
▁1820	-12.6506
▁banya	-12.6508
▁1362	-12.6508
tokyo	-12.6509
▁cayon	-12.6509
▁rai	-12.651
▁kelli	-12.6511
amani	-12.6511
538	-12.6511
▁waters	-12.6513
584	-12.6517
▁byrd	-12.6517
837	-12.6522
▁1190	-12.6522
▁1326	-12.6522
312	-12.6523
▁grau	-12.6524
▁1275	-12.6525
▁1424	-12.6526
ndi	-12.6527
▁poetic	-12.6527
▁elda	-12.6527
▁1730	-12.6528
▁isles	-12.6528
▁hog	-12.6528
vieja	-12.6532
avia	-12.6532
▁spears	-12.6538
▁uman	-12.654
crtd	-12.6542
jiri	-12.6543
▁electronic	-12.6545
kamo	-12.6545
▁942	-12.6546
▁fond	-12.6547
▁1689	-12.6547
▁encinas	-12.6551
▁nagaoka	-12.6557
martin	-12.6559
▁653	-12.6561
▁1467	-12.6563
▁bratsk	-12.6564
▁tune	-12.6564
▁acte	-12.6565
lois	-12.6567
▁caye	-12.6568
▁1388	-12.6569
▁1697	-12.657
▁buye	-12.6571
▁848	-12.6576
vskiy	-12.6581
▁cecil	-12.6584
▁both	-12.6584
▁hakone	-12.6585
▁obispo	-12.6585
▁tomioka	-12.6585
hpg	-12.6585
▁tenryu	-12.6586
▁albaida	-12.6587
jwj	-12.6593
▁1455	-12.6593
▁1821	-12.6595
▁tyron	-12.6596
▁yoshino	-12.6596
rufu	-12.66
▁1293	-12.6603
▁any	-12.6603
▁1827	-12.6605
▁lieder	-12.6608
▁1833	-12.6611
▁mines	-12.6613
▁1846	-12.6614
▁need	-12.6621
▁kore	-12.6625
inos	-12.6627
▁rams	-12.6629
igi	-12.6629
▁3-	-12.6632
▁egg	-12.6642
▁5.	-12.6642
team	-12.6644
▁1478	-12.6644
▁holt	-12.6646
koma	-12.6648
ifi	-12.6649
▁char	-12.6651
▁same	-12.6659
▁taisha	-12.6659
▁1763	-12.6666
056	-12.6668
▁934	-12.6668
▁1278	-12.6669
hdd	-12.667
▁965	-12.6685
laat	-12.6686
▁lie	-12.6688
▁lui	-12.6689
▁pavlov	-12.6692
▁nakatsu	-12.6697
078	-12.6704
▁eagles	-12.6709
▁1080	-12.671
▁1091	-12.6712
▁1556	-12.6718
azu	-12.6721
▁1042	-12.6722
▁waltz	-12.6726
▁soka	-12.6728
zbd	-12.673
zume	-12.6733
▁kofu	-12.6739
▁java	-12.674
▁zach	-12.6741
lejo	-12.6742
▁1169	-12.6746
▁1128	-12.6749
▁ogawa	-12.6751
▁kado	-12.6753
▁many	-12.6771
▁1540	-12.6771
▁1361	-12.6773
lene	-12.6778
▁1850	-12.6782
▁inca	-12.6783
▁leaf	-12.6784
▁1213	-12.6785
▁1290	-12.6789
herr	-12.6791
dao	-12.6793
▁1552	-12.6794
▁yun	-12.6797
▁1266	-12.6802
ashibetsu	-12.6806
▁shibu	-12.6806
▁okawa	-12.6807
▁tech	-12.6811
▁1841	-12.6811
▁1499	-12.6814
▁ghosts	-12.6815
▁1508	-12.682
▁misaki	-12.682
▁1729	-12.682
▁kawara	-12.6821
▁manati	-12.6821
▁1708	-12.6827
▁liu	-12.6827
▁kamino	-12.6828
▁2031	-12.6832
jtgd	-12.6834
▁toma	-12.6839
▁1430	-12.684
▁hin	-12.6843
▁1707	-12.6846
uichen	-12.6847
uga	-12.6852
▁strip	-12.6852
▁batavi	-12.6857
▁paint	-12.6859
nchen	-12.686
▁1826	-12.6861
anyang	-12.6861
▁1605	-12.6862
▁believe	-12.6862
▁tank	-12.6867
▁molar	-12.6867
▁sword	-12.6868
empuries	-12.6868
historische	-12.6868
penitente	-12.6868
rharous	-12.6868
▁4-12-63)	-12.6868
▁aguimes	-12.6868
▁almassora	-12.6868
▁almendralejo	-12.6868
▁amposta	-12.6868
▁arboretum	-12.6868
▁arrecife	-12.6868
▁arteixo	-12.6868
▁ayamonte	-12.6868
▁belmez	-12.6868
▁binefar	-12.6868
▁burlada	-12.6868
▁cambre	-12.6868
▁cascante	-12.6868
▁cehegin	-12.6868
▁ciencia	-12.6868
▁cienfuegos	-12.6868
▁clifford	-12.6868
▁copenhagen	-12.6868
▁corrina	-12.6868
▁culleredo	-12.6868
▁curiosity	-12.6868
▁diourbel	-12.6868
▁ecija	-12.6868
▁ellsworth	-12.6868
▁flanagan	-12.6868
▁geltru	-12.6868
▁gibraleon	-12.6868
▁glamorgan	-12.6868
▁gormaz	-12.6868
▁guernica	-12.6868
▁huelma	-12.6868
▁hunnam	-12.6868
▁hutchison	-12.6868
▁inaugural	-12.6868
▁ishinomaki	-12.6868
▁jayuya	-12.6868
▁llucmajor	-12.6868
▁macdonald	-12.6868
▁maestoso	-12.6868
▁mascoutah	-12.6868
▁monterrubio	-12.6868
▁nipissing	-12.6868
▁nowitzki	-12.6868
▁obregon	-12.6868
▁olancho	-12.6868
▁overdose	-12.6868
▁palazuelo	-12.6868
▁polinya	-12.6868
▁quiroga	-12.6868
▁rainbow	-12.6868
▁redondela	-12.6868
▁roanoke	-12.6868
▁saelices	-12.6868
▁santomera	-12.6868
▁savage	-12.6868
▁schuyler	-12.6868
▁shcherbinovsk	-12.6868
▁shirley	-12.6868
▁simcoe	-12.6868
▁skywalker	-12.6868
▁snyder	-12.6868
▁suriname	-12.6868
▁takarazuka	-12.6868
▁tambacounda	-12.6868
▁tordesillas	-12.6868
▁torredelcampo	-12.6868
▁torrox	-12.6868
▁valdemorillo	-12.6868
▁valderaduey	-12.6868
▁villarroya	-12.6868
▁viveiro	-12.6868
▁wickenburg	-12.6868
▁xativa	-12.6868
▁zumarraga	-12.6868
▁aviles	-12.6868
▁calonge	-12.6868
▁capesterre	-12.6868
▁gifford	-12.6868
▁minpins	-12.6868
▁orotava	-12.6868
▁silvis	-12.6868
▁virgen	-12.6868
▁penarroya	-12.6868
▁psychology	-12.6868
▁switch	-12.6868
▁castellanos	-12.6868
▁freight	-12.6868
▁hurtado	-12.6868
▁khamma	-12.6868
▁severo	-12.6868
▁escalona	-12.6868
▁rojales	-12.6868
▁quanzhou	-12.6868
▁utiel	-12.6868
▁equator	-12.6868
▁hallows	-12.6868
▁mcdonnell	-12.6868
▁stroke	-12.6869
▁bankass	-12.6869
▁denison	-12.6869
▁goodyear	-12.6869
▁clone	-12.6869
▁broadway	-12.6869
▁buckhorn	-12.6869
▁randall	-12.6869
▁almonte	-12.6869
▁schubert	-12.6869
▁priere	-12.6869
▁tsukuba	-12.6869
▁ethan	-12.6869
▁lavaca	-12.6869
▁bueu	-12.6869
▁caldelas	-12.6869
▁atalaya	-12.6869
▁akron	-12.6869
▁hoover	-12.6869
▁nigran	-12.6869
▁gavin	-12.6869
▁inglewood	-12.6869
▁lemos	-12.6869
▁someone	-12.6869
▁deportes	-12.6869
▁melilla	-12.6869
▁wife	-12.6869
▁armuna	-12.6869
tolosa	-12.6869
▁huangshan	-12.6869
▁hadley	-12.6869
▁fenton	-12.6869
▁cardio	-12.6869
▁banff	-12.6869
▁attacks	-12.6869
▁hakata	-12.6869
▁humber	-12.6869
▁tineo	-12.6869
▁ocana	-12.687
▁boedo	-12.687
▁tribe	-12.687
▁detention	-12.687
▁ubeda	-12.687
▁christiansted	-12.687
▁cullar	-12.687
liuzhou	-12.687
▁alfara	-12.687
▁archena	-12.687
▁passion	-12.687
▁hachi	-12.687
▁tateyama	-12.6871
▁greensburg	-12.6871
▁macina	-12.6871
▁better	-12.6871
finish	-12.6871
▁downey	-12.6871
▁faith	-12.6871
▁masaya	-12.6871
▁moana	-12.6871
▁leroy	-12.6871
▁loving	-12.6871
matsudo	-12.6871
▁totana	-12.6871
▁bump	-12.6871
wotan	-12.6872
▁comedian	-12.6872
discover	-12.6872
▁lyle	-12.6872
kameyama	-12.6872
▁brent	-12.6872
ulada	-12.6873
▁berkley	-12.6873
▁badia	-12.6873
▁alcazares	-12.6873
▁pedroso	-12.6873
▁gorda	-12.6873
senri	-12.6874
donnell	-12.6874
▁denia	-12.6875
▁greenfield	-12.6875
▁savoy	-12.6875
▁wanna	-12.6876
▁clean	-12.6876
ogui	-12.6877
▁seuss	-12.6877
loja	-12.6877
▁mercer	-12.6877
benedictus	-12.6878
▁alella	-12.6878
▁weller	-12.6878
▁asakura	-12.6879
chiva	-12.688
▁johnsburg	-12.688
▁canales	-12.6882
.04466	-12.6883
▁eugenia	-12.6883
▁9814	-12.6885
▁doch	-12.6885
etico	-12.6885
1256	-12.6887
▁1470	-12.6889
▁wax	-12.689
lny	-12.689
pvgc	-12.6891
▁rockton	-12.6892
▁welco	-12.6892
hol	-12.6892
▁tay	-12.6893
gakuen	-12.6894
▁yodo	-12.6895
▁hiram	-12.6895
▁herm	-12.6895
▁alva	-12.6896
▁337	-12.6897
▁sunday	-12.6898
▁hunting	-12.6898
▁coeur	-12.6898
▁borge	-12.6899
▁torrell	-12.6899
annee	-12.69
▁forum	-12.69
▁woodson	-12.6904
symphonie	-12.6905
▁orient	-12.6908
▁guardo	-12.6908
▁arun	-12.6909
uchezh	-12.6917
▁rebel	-12.6919
▁shio	-12.6919
▁890	-12.6919
▁ribas	-12.6921
▁owens	-12.6922
acatepec	-12.6922
▁riverdale	-12.6924
▁abad	-12.6924
▁1253	-12.6924
diane	-12.6933
▁kanda	-12.6934
otto	-12.6939
china	-12.6945
▁gibbons	-12.6946
▁1423	-12.6953
▁ayr	-12.6955
▁portmany	-12.6955
▁2064	-12.6956
▁pub	-12.6957
ianzhu	-12.6957
▁aguilas	-12.6959
1166	-12.696
▁xinz	-12.6961
▁word	-12.6963
▁1152	-12.6965
▁koz	-12.6965
bis	-12.6968
strom	-12.6968
▁sora	-12.6969
bonne	-12.697
▁1543	-12.697
vale	-12.697
▁shimoda	-12.6974
▁affairs	-12.6976
zug	-12.6978
▁inari	-12.6982
▁abe	-12.6983
inden	-12.6987
▁1856	-12.6987
gfm	-12.6993
▁1471	-12.6993
▁luki	-12.6993
nga	-12.6993
▁nana	-12.6994
▁serb	-12.6997
▁galaxy	-12.6997
▁cros	-12.6999
▁titans	-12.7
▁kuni	-12.7001
▁1742	-12.7002
agami	-12.7007
▁ares	-12.7013
▁bears	-12.7015
▁munda	-12.7016
▁maimona	-12.702
alf	-12.7023
▁160.0	-12.7029
▁kasa	-12.703
igo	-12.7031
▁1435	-12.7032
▁abiko	-12.7035
▁1457	-12.7035
▁aino	-12.7039
▁1317	-12.7039
▁sisters	-12.7042
▁1377	-12.7043
▁1551	-12.7043
▁1554	-12.7044
▁soll	-12.7045
▁fene	-12.7048
▁1474	-12.705
▁weh	-12.7055
▁1034	-12.7058
▁1009	-12.7058
dura	-12.706
▁paloma	-12.7061
wkc	-12.7066
▁coache	-12.7066
▁xun	-12.7066
picture	-12.7067
▁kosa	-12.7067
▁moi	-12.7069
▁ikawa	-12.7072
▁cubs	-12.7072
hpk	-12.7074
haven	-12.7075
mayor	-12.7075
lope	-12.7076
plaza	-12.7078
world	-12.7079
▁1291	-12.7079
▁2141	-12.7083
vbg	-12.7084
lord	-12.7085
mieres	-12.7087
▁wrigley	-12.709
▁aboisso	-12.709
cang	-12.709
▁1861	-12.7095
aroma	-12.7104
▁lego	-12.7106
▁om	-12.7107
▁oubliees	-12.7109
▁moe	-12.7113
▁1651	-12.7118
otte	-12.712
▁rid	-12.7125
▁otero	-12.7127
.098	-12.7127
▁matanza	-12.7129
jzz	-12.7134
liche	-12.7136
iman	-12.7141
▁barro	-12.7147
guna	-12.7148
▁cip	-12.7151
▁1-	-12.7154
▁2219	-12.7155
▁1744	-12.7156
▁1521	-12.7159
▁loch	-12.7161
▁maza	-12.7167
▁1349	-12.7169
▁foot	-12.7179
▁923	-12.718
▁pals	-12.718
▁1192	-12.718
tual	-12.7181
▁1625	-12.7183
▁1302	-12.7183
▁1548	-12.7187
▁2151	-12.7189
▁kri	-12.719
▁1454	-12.7196
elman	-12.7198
408	-12.72
▁12.0	-12.7203
▁conserva	-12.7204
▁marmo	-12.7206
gam	-12.7213
▁dialects	-12.7219
▁1150	-12.7219
▁ranger	-12.722
uy	-12.7221
khv	-12.7225
626	-12.7228
▁marlin	-12.723
▁sayi	-12.7231
nbwf	-12.7232
562	-12.7238
▁poza	-12.7238
root	-12.724
grand	-12.7241
▁biologica	-12.7244
▁cock	-12.7245
estro	-12.7245
▁thorn	-12.7246
▁nino	-12.7247
758	-12.7254
xue	-12.7255
▁gila	-12.7259
yamaguchi	-12.726
ancia	-12.7261
▁lev	-12.7261
hoku	-12.7261
▁poe	-12.7263
▁tsuruga	-12.7265
rush	-12.7265
▁1346	-12.7273
rino	-12.7274
▁taba	-12.7284
▁1746	-12.7288
ever	-12.7295
▁1098	-12.7295
ixi	-12.7296
▁cache	-12.7297
▁constantin	-12.7297
▁lent	-12.7298
atsu	-12.7303
▁1396	-12.7305
▁1397	-12.7309
hpj	-12.7312
▁1725	-12.7312
hms	-12.7313
332	-12.7314
▁clock	-12.7314
▁loud	-12.7314
▁tali	-12.7315
omotiv	-12.7317
eliana	-12.7318
▁fei	-12.7321
183	-12.7322
▁meine	-12.7322
▁1733	-12.7326
▁turin	-12.7328
▁residencia	-12.733
▁kamakura	-12.7336
lite	-12.7337
▁pak	-12.7337
▁toho	-12.7341
▁1222	-12.7343
▁bruno	-12.7345
lean	-12.7346
▁1792	-12.7347
▁2217	-12.7349
khf	-12.7353
▁1944-09	-12.7353
▁card	-12.7356
▁idea	-12.7359
▁1654	-12.736
▁1828	-12.736
▁dominic	-12.7364
▁norris	-12.7365
351	-12.7365
fria	-12.7369
▁neo	-12.737
attar	-12.7371
▁posad	-12.7376
ally	-12.7377
▁benedict	-12.7377
▁politecnic	-12.7378
▁glan	-12.7379
osu	-12.738
▁960	-12.7381
▁carrie	-12.7383
▁till	-12.7383
▁magnific	-12.7387
▁almoradi	-12.7387
urabo	-12.7388
lor	-12.7388
▁priest	-12.7388
luenga	-12.7388
▁benissa	-12.7388
▁culiacan	-12.7388
▁abymes	-12.7388
▁guelph	-12.7388
llinars	-12.7388
vaciamadrid	-12.7388
▁algaba	-12.7388
▁algete	-12.7388
▁almaguer	-12.7388
▁almansa	-12.7388
▁apparition	-12.7388
▁argentona	-12.7388
▁arnedo	-12.7388
▁arroyomolinos	-12.7388
▁atarrabia	-12.7388
▁atheism	-12.7388
▁azkoitia	-12.7388
▁azpeitia	-12.7388
▁barakaldo	-12.7388
▁baranain	-12.7388
▁barbastro	-12.7388
▁barrameda	-12.7388
▁basauri	-12.7388
▁bembibre	-12.7388
▁benicarlo	-12.7388
▁bracamonte	-12.7388
▁braidwood	-12.7388
▁cactus	-12.7388
▁calafell	-12.7388
▁cambados	-12.7388
▁canovelles	-12.7388
▁carballino	-12.7388
▁champlain	-12.7388
▁comercio	-12.7388
▁cullera	-12.7388
▁effect	-12.7388
▁escuintla	-12.7388
▁esparreguera	-12.7388
▁eurasia	-12.7388
▁felanitx	-12.7388
▁figuera	-12.7388
▁fresneda	-12.7388
▁fuensalida	-12.7388
▁galapagar	-12.7388
▁galdar	-12.7388
▁guantanamo	-12.7388
▁horadada	-12.7388
▁khimki	-12.7388
▁lagunilla	-12.7388
▁llavaneres	-12.7388
▁lumbreras	-12.7388
▁manilva	-12.7388
▁margalida	-12.7388
▁marratxi	-12.7388
▁medellin	-12.7388
▁mexicali	-12.7388
▁mockingjay	-12.7388
▁moncton	-12.7388
▁motril	-12.7388
▁mutxamel	-12.7388
▁naguabo	-12.7388
▁notebook	-12.7388
▁obninsk	-12.7388
▁ontinyent	-12.7388
▁penaflor	-12.7388
▁peotone	-12.7388
▁piazza	-12.7388
▁ponteareas	-12.7388
▁porrino	-12.7388
▁rabanedo	-12.7388
▁sagunto	-12.7388
▁sanxenxo	-12.7388
▁shiodome	-12.7388
▁suicide	-12.7388
▁surface	-12.7388
▁talayuela	-12.7388
▁thieves	-12.7388
▁tijuana	-12.7388
▁tolkien	-12.7388
▁torredonjimeno	-12.7388
▁torrelavega	-12.7388
▁torrelodones	-12.7388
▁trebujena	-12.7388
▁utrera	-12.7388
▁valsequillo	-12.7388
▁vilatorrada	-12.7388
▁villacarrillo	-12.7388
▁villajoyosa	-12.7388
▁villalbilla	-12.7388
▁vimianzo	-12.7388
▁zubia	-12.7388
▁brody	-12.7388
▁castanar	-12.7388
▁coffee	-12.7388
▁fairbanks	-12.7388
▁getxo	-12.7388
▁hohhot	-12.7388
▁livre	-12.7388
▁nagusia	-12.7388
▁petrer	-12.7388
▁poesies	-12.7388
▁redonda	-12.7388
▁sangamon	-12.7388
▁saratoga	-12.7388
▁tiburon	-12.7388
▁beloit	-12.7388
▁iverson	-12.7388
▁pickering	-12.7388
▁teguise	-12.7388
▁mojacar	-12.7388
▁truro	-12.7388
▁truth	-12.7388
vintage	-12.7388
▁beisbo	-12.7388
▁nunez	-12.7388
▁tomares	-12.7388
▁warwickshire	-12.7388
▁pinatar	-12.7388
▁daddy	-12.7388
▁reason	-12.7388
▁alcanar	-12.7388
▁guiyang	-12.7388
▁guadaira	-12.7388
▁ibarra	-12.7388
▁claremont	-12.7388
▁europa	-12.7388
▁mazarron	-12.7388
▁mcconnell	-12.7388
▁nerja	-12.7388
▁quesada	-12.7388
▁asyut	-12.7388
▁friendship	-12.7388
▁naples	-12.7388
▁mcgill	-12.7388
▁mogoda	-12.7388
▁azle	-12.7388
▁contract	-12.7388
▁blanes	-12.7388
▁melvin	-12.7388
▁campello	-12.7388
esperance	-12.7388
▁kamensk	-12.7388
▁laracha	-12.7388
▁champ	-12.7388
▁xabia	-12.7388
▁quarry	-12.7388
▁krabi	-12.7388
▁tordera	-12.7388
▁coslada	-12.7389
▁calvia	-12.7389
▁oilers	-12.7389
▁route	-12.7389
llacan	-12.7389
▁buff	-12.7389
▁miramar	-12.7389
▁cartaya	-12.7389
▁freeburg	-12.7389
▁luvin	-12.7389
▁torrevieja	-12.7389
▁polyana	-12.7389
▁maxwell	-12.7389
▁furious	-12.7389
▁rueda	-12.7389
▁dalhousie	-12.7389
▁hornillo	-12.7389
yeres	-12.7389
▁takayama	-12.7389
▁nanning	-12.7389
▁fuyang	-12.7389
▁wynn	-12.739
▁lozoya	-12.739
kuwana	-12.739
▁gines	-12.739
▁boiro	-12.739
▁santanyi	-12.739
▁beppu	-12.739
▁nishinomiya	-12.739
yichang	-12.739
▁isora	-12.739
▁pardo	-12.739
▁espinar	-12.739
▁greenview	-12.739
▁seaview	-12.739
▁stitch	-12.7391
watari	-12.7391
▁abaran	-12.7391
▁piece	-12.7391
▁pomar	-12.7391
▁mijas	-12.7391
fujioka	-12.7391
akuchi	-12.7392
ijona	-12.7392
▁tuppe	-12.7392
▁nules	-12.7392
▁pego	-12.7392
▁woodside	-12.7392
▁ugo	-12.7392
▁latham	-12.7392
012	-12.7393
▁ministry	-12.7394
madame	-12.7395
▁allison	-12.7395
▁hour	-12.7396
▁daily	-12.7396
nosawa	-12.7396
▁lune	-12.7397
yamate	-12.7397
▁yuki	-12.7397
▁shaun	-12.7398
▁goodman	-12.7398
▁marley	-12.7398
▁poio	-12.7399
▁tomino	-12.74
▁amagasaki	-12.74
esashi	-12.74
▁idle	-12.74
▁ladies	-12.7401
▁highwood	-12.7401
▁salado	-12.7401
▁stella	-12.7401
▁jerseyville	-12.7403
▁lepe	-12.7403
▁romo	-12.7403
▁ibn	-12.7403
▁meister	-12.7404
▁leninskiy	-12.7406
▁corpus	-12.7407
▁balta	-12.7407
▁chil	-12.7408
▁1871	-12.7408
▁foz	-12.7408
▁globe	-12.7408
▁ching	-12.7409
▁jeb	-12.741
▁clemente	-12.7412
▁parral	-12.7414
▁gen	-12.7415
ielo	-12.7416
▁dole	-12.7417
▁zhen	-12.7417
gorman	-12.7418
▁knolls	-12.7419
▁castel	-12.742
▁sprague	-12.7421
akwa	-12.7421
▁soro	-12.7421
▁today	-12.7422
▁drink	-12.7422
▁amore	-12.7423
▁nye	-12.7423
▁1172	-12.7424
▁1002	-12.7425
413	-12.7426
▁signal	-12.7426
spina	-12.743
▁vacation	-12.743
▁debora	-12.7437
▁suo	-12.744
▁colona	-12.7441
▁1468	-12.7444
▁1315	-12.7446
fini	-12.7446
loaf	-12.7446
▁bani	-12.7447
▁1864	-12.7449
▁davidson	-12.7453
riva	-12.7455
▁prose	-12.7457
awan	-12.7458
rgj	-12.7459
kota	-12.746
▁parc	-12.7461
▁been	-12.7463
▁hito	-12.7466
1679	-12.7468
▁kure	-12.7468
▁gabias	-12.7469
ature	-12.7469
▁drums	-12.7473
▁chica	-12.7476
sses	-12.7477
▁lund	-12.7479
▁hil	-12.7482
▁1399	-12.7482
ander	-12.7483
▁begins	-12.7484
▁rabbit	-12.7488
nskaya	-12.7489
myy	-12.749
▁avon	-12.749
vell	-12.7494
lark	-12.7497
atro	-12.7497
rovo	-12.7499
▁robertson	-12.7501
handy	-12.7501
▁1799	-12.7502
▁goes	-12.7505
▁1609	-12.7505
▁coles	-12.7509
▁1244	-12.7513
▁1639	-12.752
▁1174	-12.7527
ebo	-12.7528
▁bist	-12.7529
▁1151	-12.7531
▁kotelni	-12.7531
▁blanc	-12.7535
▁keiz	-12.7535
▁2086	-12.7535
▁1298	-12.7543
arem	-12.7544
274	-12.7545
▁1407	-12.7546
▁shen	-12.7547
▁kaya	-12.7548
.04_86	-12.755
▁1811	-12.7559
andy	-12.7563
▁1-2	-12.7564
▁peters	-12.7569
▁fried	-12.7571
ranz	-12.7572
▁1357	-12.7575
▁1843	-12.7576
▁miyoshi	-12.7586
▁1369	-12.7587
▁tokiwa	-12.759
▁talking	-12.759
nomori	-12.7591
▁hooke	-12.7591
▁soma	-12.7596
▁pok	-12.7599
▁pushkin	-12.7611
▁melo	-12.7612
fara	-12.7613
ruela	-12.7613
▁1234	-12.7615
▁rama	-12.7615
372	-12.7618
▁963	-12.7618
▁cee	-12.7618
▁1131	-12.7619
▁heat	-12.7619
▁koza	-12.762
▁stirling	-12.7621
▁momoyama	-12.7622
▁1260	-12.7626
▁hirata	-12.7633
▁7970	-12.7636
▁1593	-12.7641
▁1311	-12.7646
▁1584	-12.7651
park	-12.7654
residential	-12.7655
▁chiyoda	-12.7659
▁iida	-12.7659
899	-12.7666
bour	-12.7669
rack	-12.767
▁2029	-12.7672
▁1318	-12.7673
▁1852	-12.7673
osawa	-12.7674
fang	-12.7675
▁barthelemy	-12.7675
hear	-12.7675
▁oubliee	-12.7676
tennis	-12.7677
lieder	-12.7678
carnegie	-12.768
wly	-12.7681
tommy	-12.7683
▁cheng	-12.7684
hurley	-12.7685
bori	-12.7686
▁stoke	-12.7687
▁engel	-12.7687
181	-12.7688
▁1808	-12.7688
▁2032	-12.7691
coach	-12.7693
▁ruf	-12.7693
berger	-12.7693
james	-12.7694
▁barnett	-12.7698
cover	-12.7699
357	-12.7703
▁1448	-12.7704
▁oyama	-12.7706
▁sanctus	-12.7707
▁wohl	-12.7708
▁1436	-12.7715
▁lies	-12.7716
▁roquet	-12.7717
▁arias	-12.7718
▁1301	-12.7718
ihr	-12.772
egawa	-12.772
▁cong	-12.772
▁2244	-12.7722
▁1647	-12.7724
▁1442	-12.7725
▁yat	-12.7726
kgz	-12.7729
▁colin	-12.7735
liang	-12.7739
yono	-12.7746
▁rao	-12.775
▁2099	-12.7754
409	-12.7756
▁1269	-12.7759
▁beat	-12.7763
rose	-12.7766
ocho	-12.7769
uck	-12.777
start	-12.7774
▁2089	-12.7775
tail	-12.7782
oir	-12.7782
▁olmed	-12.7783
▁1223	-12.7785
whw	-12.7789
▁anni	-12.7794
▁yae	-12.7797
▁1273	-12.7797
▁1462	-12.7799
ugao	-12.7804
▁oda	-12.7805
sand	-12.7809
hou	-12.781
dang	-12.7811
▁1390	-12.7811
▁caribe	-12.7811
▁kola	-12.7813
▁libera	-12.7813
▁1337	-12.7814
▁1559	-12.7817
▁859	-12.7818
▁saz	-12.7818
▁muss	-12.782
wky	-12.7822
▁1276	-12.7823
▁akaishi	-12.7827
▁1565	-12.7834
▁1760	-12.7835
▁fre	-12.7836
camp	-12.7837
▁1703	-12.7837
▁1347	-12.7839
ury	-12.7841
▁2294	-12.7841
amino	-12.7842
▁spe	-12.7842
lech	-12.7844
▁1248	-12.7844
▁takaoka	-12.7851
▁olson	-12.7857
cock	-12.7858
▁2069	-12.7859
▁canas	-12.786
llica	-12.7862
akuma	-12.7862
▁1530	-12.7862
▁maka	-12.7865
▁1486	-12.7866
solita	-12.7869
▁1539	-12.7872
▁persi	-12.7881
▁1332	-12.7881
▁1338	-12.7881
▁shibaura	-12.7882
▁cars	-12.7884
▁moriyama	-12.7884
▁whole	-12.7891
dam	-12.7892
uring	-12.7896
▁2451	-12.7899
▁jonesboro	-12.7899
prague	-12.7901
galante	-12.7902
▁lug	-12.7903
odai	-12.7908
▁1832	-12.7909
▁nim	-12.7909
nbww	-12.7911
▁1522	-12.7912
▁1635	-12.7912
ium	-12.7913
xhj	-12.792
onoda	-12.7921
ultima	-12.7922
▁melodi	-12.7922
▁hearts	-12.7923
merton	-12.7924
▁interamerican	-12.7924
▁1039	-12.7926
gasaki	-12.7927
▁manufactur	-12.7929
rell	-12.7929
▁1885	-12.7931
pong	-12.7932
mmanuel	-12.7934
▁kawaguchi	-12.7934
▁transcend	-12.7934
▁jordi	-12.7934
shiri	-12.7936
pression	-12.7936
sylvania	-12.7936
aguirre	-12.7936
carvajal	-12.7936
confutatis	-12.7936
hitchcock	-12.7936
llodio	-12.7936
sakhalinsk	-12.7936
tajar	-12.7936
▁acapulco	-12.7936
▁alcasser	-12.7936
▁alginet	-12.7936
▁aljaraque	-12.7936
▁almunecar	-12.7936
▁alpedrete	-12.7936
▁ashanti	-12.7936
▁atarfe	-12.7936
▁atlantis	-12.7936
▁autumn	-12.7936
▁avinyo	-12.7936
▁benalmadena	-12.7936
▁benetusser	-12.7936
▁bermeo	-12.7936
▁blimp	-12.7936
▁bormujos	-12.7936
▁bulacan	-12.7936
▁calatayud	-12.7936
▁caldwell	-12.7936
▁cambrils	-12.7936
▁carcaixent	-12.7936
▁cardedeu	-12.7936
▁castaways	-12.7936
▁catarroja	-12.7936
▁cebolla	-12.7936
▁celoni	-12.7936
▁charlemagne	-12.7936
▁chipiona	-12.7936
▁chowchilla	-12.7936
▁ciempozuelos	-12.7936
▁committee	-12.7936
▁consuegra	-12.7936
▁crevillent	-12.7936
▁crouch	-12.7936
▁elgoibar	-12.7936
▁errenteria	-12.7936
▁espaillat	-12.7936
▁espana	-12.7936
▁estepona	-12.7936
▁failure	-12.7936
▁fleece	-12.7936
▁frelinghuysen	-12.7936
▁fuengirola	-12.7936
▁fuerte	-12.7936
▁fushimi	-12.7936
▁garrison	-12.7936
▁garrovilla	-12.7936
▁gilchrist	-12.7936
▁gingrich	-12.7936
▁gondomar	-12.7936
▁gonzales	-12.7936
▁guadalcanal	-12.7936
▁halliwell	-12.7936
▁hondarribia	-12.7936
▁intermezzo	-12.7936
▁intibuca	-12.7936
▁jimenez	-12.7936
▁kenieba	-12.7936
▁kwahu	-12.7936
▁kyzyl	-12.7936
▁llagosta	-12.7936
▁llagostera	-12.7936
▁macleod	-12.7936
▁magadan	-12.7936
▁majadahonda	-12.7936
▁manlleu	-12.7936
▁mansoura	-12.7936
▁mccartney	-12.7936
▁miguelturra	-12.7936
▁mollerussa	-12.7936
▁monograph	-12.7936
▁nijar	-12.7936
▁ortuella	-12.7936
▁palleja	-12.7936
▁panorama	-12.7936
▁penafiel	-12.7936
▁pescador	-12.7936
▁plaisance	-12.7936
▁plegamans	-12.7936
▁preserve	-12.7936
▁pudding	-12.7936
▁reinosa	-12.7936
▁reixac	-12.7936
▁rianxo	-12.7936
▁saunders	-12.7936
▁strathcona	-12.7936
▁sutherland	-12.7936
▁swimming	-12.7936
▁tacoronte	-12.7936
▁tarancon	-12.7936
▁tarrega	-12.7936
▁tomelloso	-12.7936
▁torredembarra	-12.7936
▁torremolinos	-12.7936
▁ubrique	-12.7936
▁uceda	-12.7936
▁vallirana	-12.7936
▁villablino	-12.7936
▁villacanas	-12.7936
▁villarrobledo	-12.7936
▁watseka	-12.7936
▁weather	-12.7936
▁weaver	-12.7936
▁xirivella	-12.7936
▁yarmouth	-12.7936
▁zarautz	-12.7936
▁zarechny	-12.7936
▁zemlya	-12.7936
▁zvezda	-12.7936
ekimae	-12.7936
▁cinco	-12.7936
▁column	-12.7936
▁epigra	-12.7936
▁gideon	-12.7936
▁isaiah	-12.7936
▁lamentin	-12.7936
▁minatitlan	-12.7936
▁narros	-12.7936
▁radisson	-12.7936
▁rosemary	-12.7936
▁tobarra	-12.7936
▁tucson	-12.7936
▁zierbena	-12.7936
salieri	-12.7936
uixo	-12.7936
▁alaquas	-12.7936
▁desvern	-12.7936
▁peniscola	-12.7936
▁rapita	-12.7936
▁sturm	-12.7936
▁albolote	-12.7936
▁farners	-12.7936
▁maracena	-12.7936
▁ogijares	-12.7936
▁subdistrict	-12.7936
▁beardstown	-12.7936
▁housing	-12.7936
▁sitges	-12.7936
▁utica	-12.7936
▁bottom	-12.7936
▁hikone	-12.7936
▁shatner	-12.7936
▁arzua	-12.7936
▁corneli	-12.7936
▁thief	-12.7936
▁beginning	-12.7936
sasebo	-12.7936
▁camrose	-12.7936
teikyo	-12.7936
▁andoain	-12.7936
▁sloan	-12.7936
▁utebo	-12.7936
▁claramunt	-12.7936
▁manises	-12.7936
▁sixteen	-12.7936
▁adeje	-12.7936
▁albatera	-12.7936
▁berja	-12.7936
▁datong	-12.7936
▁mirador	-12.7936
▁escobar	-12.7936
▁leadership	-12.7936
▁rutland	-12.7936
▁leaves	-12.7936
▁chaoyang	-12.7936
▁corinth	-12.7936
▁hammer	-12.7936
▁hilltop	-12.7936
▁bezana	-12.7936
▁jarrah	-12.7936
▁betera	-12.7936
▁castellbisbal	-12.7936
▁crash	-12.7936
▁kurashiki	-12.7936
▁monover	-12.7936
▁montgat	-12.7936
▁dewitt	-12.7936
▁pasaia	-12.7936
igahama	-12.7936
▁elmira	-12.7936
▁jucar	-12.7936
▁alora	-12.7936
▁masnou	-12.7936
▁phoe	-12.7936
▁compton	-12.7936
ladybird	-12.7936
▁ariza	-12.7936
▁amalie	-12.7936
▁paredes	-12.7936
▁buddies	-12.7936
▁adair	-12.7937
▁sonseca	-12.7937
▁ibor	-12.7937
▁kedougou	-12.7937
▁bushnell	-12.7937
▁darkwater	-12.7937
tatsumi	-12.7937
▁camille	-12.7937
▁nantong	-12.7937
▁coffin	-12.7937
▁jogakuin	-12.7937
shiogama	-12.7937
▁packers	-12.7937
worms	-12.7937
▁ripollet	-12.7937
▁pajara	-12.7937
▁vieux	-12.7937
▁savanna	-12.7937
▁poros	-12.7937
▁lawndale	-12.7937
schnell	-12.7937
▁camden	-12.7937
▁fraga	-12.7937
▁montilla	-12.7937
▁whitefish	-12.7937
▁ceuta	-12.7937
▁baena	-12.7937
▁baneza	-12.7937
▁siete	-12.7937
reverie	-12.7937
▁hayden	-12.7937
▁seibu	-12.7937
▁lanko	-12.7937
▁tiron	-12.7937
▁moguer	-12.7937
▁fleming	-12.7937
▁minooka	-12.7937
▁abeno	-12.7937
▁automo	-12.7937
▁liebana	-12.7937
▁miquelon	-12.7937
yodogawa	-12.7937
▁mitake	-12.7937
rakoczi	-12.7937
▁limia	-12.7937
kakegawa	-12.7937
▁telde	-12.7937
▁bergara	-12.7938
▁carmon	-12.7938
futami	-12.7938
ex	-12.7938
xiong	-12.7938
▁fujimi	-12.7938
alfas	-12.7938
▁borden	-12.7938
aioi	-12.7938
▁posey	-12.7938
shirahama	-12.7938
▁monteagudo	-12.7938
▁bernal	-12.7938
▁komaki	-12.7938
▁bomer	-12.7939
▁cantillana	-12.7939
▁eibar	-12.7939
▁roquetes	-12.7939
leary	-12.7939
▁caseyville	-12.7939
.02397	-12.7939
atzen	-12.7939
▁calderon	-12.7939
▁sharpe	-12.7939
▁photographer	-12.7939
▁brack	-12.7939
▁abdulla	-12.7939
▁adra	-12.7939
▁hirakata	-12.7939
gottes	-12.7939
▁billings	-12.7939
▁freund	-12.794
come	-12.794
pvmb	-12.794
kanayama	-12.794
▁bridgeport	-12.794
tanaka	-12.794
▁romero	-12.794
▁ritz	-12.794
appelle	-12.7941
▁hellin	-12.7941
▁banco	-12.7941
▁1500	-12.7941
walzer	-12.7941
▁onati	-12.7941
▁soller	-12.7941
▁godina	-12.7942
▁baeza	-12.7942
▁marvel	-12.7942
▁nago	-12.7942
▁alvin	-12.7942
▁sokol	-12.7942
.0131	-12.7942
▁emba	-12.7943
▁prisoner	-12.7943
▁kemper	-12.7943
furano	-12.7943
▁grabe	-12.7943
▁commissioner	-12.7944
assisi	-12.7944
gxbc	-12.7944
alexis	-12.7944
▁piu	-12.7944
▁southgate	-12.7945
▁yala	-12.7945
amunt	-12.7945
▁alcubilla	-12.7945
▁magas	-12.7945
aquille	-12.7945
▁bayard	-12.7946
lambert	-12.7946
▁naron	-12.7946
workers	-12.7946
lkh	-12.7947
▁suria	-12.7947
▁hoya	-12.7947
▁ocoa	-12.7947
▁southport	-12.7948
▁kaji	-12.7948
▁1845	-12.7948
▁teror	-12.7948
dieux	-12.7948
▁1451	-12.7949
▁bight	-12.7949
▁debbie	-12.7949
.04469	-12.7951
▁1-3	-12.7953
rocher	-12.7953
chem	-12.7953
▁yuda	-12.7953
▁alden	-12.7954
tuba	-12.7954
▁solenne	-12.7954
noshiro	-12.7956
▁superman	-12.7957
▁arrow	-12.7957
.0772	-12.7957
▁1189	-12.7958
▁dojo	-12.7958
▁gaia	-12.7958
▁pinoso	-12.796
▁1123	-12.796
▁tobu	-12.796
▁princeville	-12.796
▁novelda	-12.7963
▁westfield	-12.7963
▁denn	-12.7964
▁huescar	-12.7966
▁2101	-12.7967
terri	-12.7968
jiro	-12.7969
ukawa	-12.7969
icial	-12.797
▁paranoi	-12.7972
laudio	-12.7973
bove	-12.7974
anqing	-12.7975
▁soc	-12.7975
▁realejos	-12.7978
▁dort	-12.7978
▁castrillon	-12.7981
▁sumit	-12.7982
▁1681	-12.7983
tsuji	-12.7983
hqb	-12.7985
▁belen	-12.7986
▁theology	-12.7987
hirt	-12.799
▁avengers	-12.7992
▁tokachi	-12.7992
mpp	-12.7994
▁1401	-12.7995
▁albal	-12.7995
▁pure	-12.7996
osaka	-12.7997
▁solson	-12.7997
▁1753	-12.8
1255	-12.8002
▁valenci	-12.8007
cheskaya	-12.8008
goa	-12.8011
ejer	-12.8013
▁1136	-12.8013
▁dupo	-12.8017
▁sama	-12.8018
▁lange	-12.8018
ngn	-12.8019
▁fetes	-12.8023
▁ora	-12.8024
849	-12.8024
▁lakeside	-12.8027
▁1645	-12.8027
▁sils	-12.8028
▁1847	-12.8028
▁1093	-12.8033
▁lalin	-12.8035
▁1491	-12.8035
nfn	-12.8039
▁uly	-12.8042
▁1096	-12.8043
▁sporting	-12.8043
▁1769	-12.8044
▁aqua	-12.8046
▁pab	-12.8048
▁chimes	-12.805
▁cooke	-12.8051
▁ueda	-12.8054
▁tabara	-12.8058
▁oba	-12.8059
▁marcell	-12.8061
▁komsomolsk	-12.8061
▁comer	-12.8064
ginza	-12.8064
akawa	-12.8069
▁abel	-12.8071
frau	-12.8075
ulle	-12.8075
▁1365	-12.8077
▁kris	-12.8079
dham	-12.8081
▁memoirs	-12.8082
▁1163	-12.8083
hys	-12.8083
▁nang	-12.8087
kawashima	-12.8089
melodien	-12.8092
▁doue	-12.8092
▁plann	-12.8093
▁regents	-12.8097
▁rockets	-12.8114
illard	-12.8114
▁guest	-12.8114
▁howe	-12.8115
▁sund	-12.8119
hzd	-12.8123
▁1077	-12.8126
▁tachi	-12.8127
hoo	-12.8128
▁1464	-12.8128
▁1461	-12.813
2964	-12.8131
▁1717	-12.8131
▁2130	-12.8133
mata	-12.8134
ncq	-12.8136
▁1376	-12.8137
▁yuma	-12.8141
▁1304	-12.8142
▁neva	-12.8144
▁tokorozawa	-12.815
▁mum	-12.8152
▁1288	-12.8156
cua	-12.8156
▁1617	-12.8157
kcq	-12.8158
▁1444	-12.8162
▁competit	-12.8162
▁ivy	-12.8163
▁augusta	-12.8167
▁olot	-12.8169
yura	-12.817
▁dei	-12.817
▁hera	-12.8172
▁rope	-12.8176
▁1188	-12.8177
▁kaka	-12.818
▁2206	-12.818
omen	-12.818
▁yonago	-12.8183
vely	-12.8186
nui	-12.8186
▁1437	-12.819
▁bridgetown	-12.819
▁pastor	-12.8191
391	-12.8195
▁1045	-12.8197
▁rambling	-12.8197
rvey	-12.8198
ncx	-12.8199
▁2265	-12.82
▁gou	-12.8206
▁mounds	-12.8207
▁katie	-12.8208
▁1706	-12.8208
▁kak	-12.821
▁1414	-12.821
▁1600	-12.821
leia	-12.8214
▁fab	-12.8214
▁farr	-12.8216
▁1657	-12.8219
▁bogg	-12.8221
▁...	-12.8224
doo	-12.8231
▁1295	-12.8239
▁eye	-12.8247
▁amen	-12.825
▁1280	-12.825
▁pelayo	-12.8254
▁amos	-12.8257
▁2172	-12.8259
▁tuna	-12.8259
▁economic	-12.8261
▁chanson	-12.8261
▁yatsu	-12.8264
▁1386	-12.8264
▁kaga	-12.8265
▁1630	-12.8265
stick	-12.8267
knsf	-12.8268
▁1193	-12.827
.010_	-12.8277
▁1306	-12.828
▁bab	-12.8282
andro	-12.8282
villa	-12.8284
▁1542	-12.8284
▁2668	-12.8285
▁1383	-12.8287
hier	-12.8289
▁monsters	-12.8294
419	-12.83
.088	-12.8302
asahi	-12.8317
blanc	-12.8318
lphu	-12.833
jinja	-12.8332
carlton	-12.8338
▁portal	-12.8339
ikawa	-12.8341
nippo	-12.8341
burton	-12.8343
blood	-12.8344
akasaka	-12.8345
gora	-12.8345
▁1797	-12.8346
aragon	-12.8347
▁track	-12.8347
halifax	-12.8348
casas	-12.8348
▁ruin	-12.835
henry	-12.835
rrell	-12.8354
inary	-12.8355
weh	-12.8356
dkb	-12.8356
▁comun	-12.8357
place	-12.8358
pino	-12.836
form	-12.8361
▁reis	-12.8362
ozaki	-12.8362
▁1400	-12.8363
ische	-12.8363
534	-12.8366
cera	-12.8369
▁1602	-12.8371
jiao	-12.8374
▁eg	-12.8374
▁limon	-12.8374
▁1779	-12.8379
▁2392	-12.8381
eiden	-12.8382
▁folks	-12.8384
▁wilhelm	-12.8391
ets	-12.8395
▁balla	-12.8404
▁ducks	-12.8404
▁flowers	-12.8405
▁gem	-12.8406
creek	-12.8407
▁1297	-12.8407
ujina	-12.8408
▁1412	-12.8409
▁gai	-12.8414
▁2197	-12.8415
▁1489	-12.8417
shiratak	-12.8419
sendai	-12.8424
▁1536	-12.8425
chiba	-12.8425
llosa	-12.8425
amir	-12.8428
▁1202	-12.8428
▁2112	-12.8431
▁jaw	-12.8431
boke	-12.8433
▁keeg	-12.8434
valle	-12.8437
orrin	-12.8439
▁hoyos	-12.8442
▁lear	-12.8443
litsa	-12.8447
.096	-12.845
▁oa	-12.8454
▁sena	-12.8454
ucas	-12.8455
obara	-12.8456
▁schmidt	-12.8457
▁rooms	-12.8458
▁futamata	-12.8459
▁hachioji	-12.8459
bell	-12.8459
▁notturn	-12.8459
▁1460	-12.8461
▁kawabe	-12.8462
hanno	-12.8467
▁brou	-12.8472
▁1106	-12.8472
▁1492	-12.8472
neill	-12.8476
kagami	-12.8476
▁2220	-12.8476
▁made	-12.848
knoll	-12.8481
611	-12.8482
▁pictures	-12.8483
trumpet	-12.8485
arnia	-12.8485
▁otaki	-12.8491
enden	-12.8491
▁powers	-12.8492
▁fight	-12.8492
▁1810	-12.8493
▁juda	-12.8495
illon	-12.8495
▁robled	-12.8499
▁vostochny	-12.8501
▁1694	-12.8504
armi	-12.8504
neck	-12.8504
fia	-12.8505
ozawa	-12.8507
▁hawthorn	-12.8508
▁1840	-12.8508
▁wak	-12.8511
▁theodor	-12.8514
▁angles	-12.8515
▁commons	-12.8515
▁touba	-12.8516
versary	-12.8516
riddle	-12.8516
▁respons	-12.8516
alternative	-12.8516
biankouma	-12.8516
etxano	-12.8516
sidonia	-12.8516
thriller	-12.8516
wakkanai	-12.8516
zihuatanejo	-12.8516
▁abanilla	-12.8516
▁alboraya	-12.8516
▁algarrobo	-12.8516
▁algemesi	-12.8516
▁almussafes	-12.8516
▁ansoain	-12.8516
▁archibald	-12.8516
▁astillero	-12.8516
▁aznalfarache	-12.8516
▁barbadas	-12.8516
▁barbadillo	-12.8516
▁baroueli	-12.8516
▁benaguasil	-12.8516
▁benicassim	-12.8516
▁betanzos	-12.8516
▁blackstreet	-12.8516
▁blossom	-12.8516
▁bonnyville	-12.8516
▁bremen	-12.8516
▁brisbane	-12.8516
▁brunete	-12.8516
▁capdepera	-12.8516
▁carrasco	-12.8516
▁castuera	-12.8516
▁cinematographer	-12.8516
▁cocentaina	-12.8516
▁cruisin	-12.8516
▁dumbledore	-12.8516
▁ermua	-12.8516
▁eskimo	-12.8516
▁fadrique	-12.8516
▁fillmore	-12.8516
▁filosofi	-12.8516
▁galdakao	-12.8516
▁gentlemen	-12.8516
▁goethe	-12.8516
▁granollers	-12.8516
▁guerra	-12.8516
▁hepburn	-12.8516
▁hoopeston	-12.8516
▁izhevsk	-12.8516
▁kenilworth	-12.8516
▁kolokani	-12.8516
▁lliria	-12.8516
▁masamagrell	-12.8516
▁monticello	-12.8516
▁muskiz	-12.8516
▁muxia	-12.8516
▁naberezhny	-12.8516
▁navalcarnero	-12.8516
▁navarra	-12.8516
▁norfolk	-12.8516
▁oiartzun	-12.8516
▁ondarroa	-12.8516
▁paiporta	-12.8516
▁pedernales	-12.8516
▁picanya	-12.8516
▁picassent	-12.8516
▁pontedeume	-12.8516
▁portugalete	-12.8516
▁puigcerda	-12.8516
▁redovan	-12.8516
▁restaurant	-12.8516
▁ribadeo	-12.8516
▁santovenia	-12.8516
▁santurtzi	-12.8516
▁segorbe	-12.8516
▁shephard	-12.8516
▁socuellamos	-12.8516
▁sopela	-12.8516
▁souvenir	-12.8516
▁subterranean	-12.8516
▁tafalla	-12.8516
▁teardrop	-12.8516
▁testament	-12.8516
▁trimble	-12.8516
▁urumqi	-12.8516
▁vaughan	-12.8516
▁velazquez	-12.8516
▁vilamarxant	-12.8516
▁villaquilambre	-12.8516
▁wixom	-12.8516
▁woodruff	-12.8516
▁youwarou	-12.8516
gumiel	-12.8516
▁alaior	-12.8516
▁almaraz	-12.8516
▁bloor	-12.8516
▁burjassot	-12.8516
▁mislata	-12.8516
▁monreal	-12.8516
▁nucia	-12.8516
▁santiponce	-12.8516
▁silleda	-12.8516
▁wharf	-12.8516
▁wrath	-12.8516
alcora	-12.8516
▁arahal	-12.8516
▁guanica	-12.8516
▁mcclurg	-12.8516
▁oglesby	-12.8516
▁peralejos	-12.8516
▁vegadeo	-12.8516
▁andratx	-12.8516
▁candle	-12.8516
▁limestone	-12.8516
▁maricao	-12.8516
▁mengibar	-12.8516
▁montoro	-12.8516
placencia	-12.8516
▁aldaia	-12.8516
▁drug	-12.8516
▁lennon	-12.8516
▁clarksdale	-12.8516
▁ocampo	-12.8516
narashino	-12.8516
nthia	-12.8516
▁cedeira	-12.8516
▁sestao	-12.8516
▁chamdo	-12.8516
▁constitucion	-12.8516
▁disaster	-12.8516
▁lebrija	-12.8516
▁leioa	-12.8516
▁mandarin	-12.8516
mattox	-12.8516
trapagaran	-12.8516
▁almost	-12.8516
▁carlisle	-12.8516
▁picacho	-12.8516
▁shantou	-12.8516
▁azaba	-12.8516
▁cheek	-12.8516
▁guillena	-12.8516
▁hattie	-12.8516
▁ribeira	-12.8516
▁jiujiang	-12.8516
▁marquesado	-12.8516
▁nottingham	-12.8516
▁yaizu	-12.8516
▁conquest	-12.8516
▁cibao	-12.8516
▁iruma	-12.8516
▁salobrena	-12.8516
▁zenith	-12.8516
▁cedillo	-12.8516
▁tarzan	-12.8516
lloc	-12.8516
▁zumaia	-12.8516
▁picard	-12.8516
▁copeland	-12.8516
intercontinental	-12.8516
▁camuy	-12.8516
▁caselas	-12.8516
▁triple	-12.8516
▁bosque	-12.8516
olivi	-12.8516
▁tribu	-12.8516
▁jacinto	-12.8516
▁sovetskiy	-12.8516
▁brampton	-12.8516
oguni	-12.8516
▁alsas	-12.8516
▁deltebre	-12.8516
▁cutler	-12.8516
▁buckner	-12.8516
▁blanche	-12.8516
trapaga	-12.8517
comfort	-12.8517
vascu	-12.8517
▁cunit	-12.8517
ochiai	-12.8517
▁kaifeng	-12.8517
▁saltillo	-12.8517
▁juneau	-12.8517
▁bunny	-12.8517
▁harrington	-12.8517
▁atkinson	-12.8517
▁clawson	-12.8517
▁goldberg	-12.8517
▁kafr	-12.8517
▁pampa	-12.8517
▁corella	-12.8517
▁azuaga	-12.8517
▁levee	-12.8517
▁corwin	-12.8517
▁wilkinson	-12.8517
▁salama	-12.8517
rudge	-12.8517
▁huzhou	-12.8517
▁chesterfield	-12.8517
bieta	-12.8517
▁niono	-12.8517
qmwm	-12.8517
▁yegua	-12.8517
▁albox	-12.8517
▁larsen	-12.8517
▁bullas	-12.8518
▁thicke	-12.8518
▁armas	-12.8518
cnvd	-12.8518
lizarra	-12.8518
▁kolda	-12.8518
▁susanna	-12.8518
▁geoffr	-12.8518
▁hernani	-12.8518
▁kasei	-12.8518
▁marilyn	-12.8518
▁olga	-12.8518
▁huntley	-12.8518
▁olite	-12.8518
koganei	-12.8518
▁xuan	-12.8518
▁ohira	-12.8518
▁carlet	-12.8519
▁olvera	-12.8519
▁pilona	-12.8519
▁grimm	-12.8519
▁haute	-12.8519
▁sakata	-12.8519
ecilla	-12.8519
▁martorelles	-12.8519
▁gujo	-12.852
▁promo	-12.852
▁abadino	-12.852
▁gross	-12.8521
▁tamara	-12.8521
▁thies	-12.8521
▁2383	-12.8521
▁musashino	-12.8521
▁vinas	-12.8521
▁gozon	-12.8521
▁chapin	-12.8522
▁waterford	-12.8522
ondara	-12.8522
▁paulsen	-12.8522
▁beech	-12.8522
▁landry	-12.8523
▁matsue	-12.8523
▁academic	-12.8523
▁border	-12.8523
▁marian	-12.8523
▁acuna	-12.8523
▁alps	-12.8523
▁aledo	-12.8524
▁albu	-12.8524
▁drop	-12.8524
▁fame	-12.8525
▁newbery	-12.8525
durch	-12.8526
▁greenup	-12.8526
▁polk	-12.8526
▁blade	-12.8527
▁baine	-12.8528
watch	-12.8528
▁annie	-12.8529
akishima	-12.8529
▁heller	-12.8531
sault	-12.8531
▁flying	-12.8531
▁santona	-12.8532
▁raba	-12.8533
▁choral	-12.8533
dies	-12.8534
▁chuko	-12.8534
▁photography	-12.8535
bouna	-12.8537
▁piera	-12.8538
▁almag	-12.8543
▁tempest	-12.8544
▁campaigns	-12.8546
izum	-12.855
▁breed	-12.8552
▁handa	-12.8553
▁galantes	-12.8553
▁highlander	-12.8554
▁changed	-12.8556
▁puffin	-12.8557
▁1498	-12.8559
▁1094	-12.8562
▁westwood	-12.8562
wlx	-12.8565
wrx	-12.8566
eppe	-12.8568
▁nicolau	-12.8569
▁walls	-12.8573
▁1447	-12.8575
▁coin	-12.8578
▁1161	-12.8578
▁chamb	-12.8579
▁nik	-12.858
westin	-12.8581
niy	-12.8582
iruna	-12.8582
adri	-12.8583
▁1611	-12.8584
▁1604	-12.8584
▁viel	-12.8585
hansen	-12.8586
▁lucie	-12.8586
▁linde	-12.8587
kmj	-12.8587
▁tiny	-12.8588
▁neu	-12.8588
kstq	-12.8591
▁haynes	-12.8591
▁481:	-12.8593
volta	-12.8595
▁cb	-12.8596
▁cosmo	-12.8598
▁allo	-12.8598
▁peten	-12.8605
▁citi	-12.8608
hpm	-12.8608
ssian	-12.8609
gkj	-12.861
▁romanian	-12.8611
bws	-12.8611
qiu	-12.8615
▁2520	-12.8617
▁goat	-12.8617
meca	-12.8619
onian	-12.8621
▁gets	-12.8622
▁1219	-12.8626
slayer	-12.8626
▁komi	-12.8626
▁bring	-12.8627
ztw	-12.8628
▁iga	-12.8628
ragg	-12.8629
▁dust	-12.8629
kzv	-12.8629
▁soa	-12.8631
▁syd	-12.8632
▁1533	-12.8633
▁1831	-12.8633
▁1632	-12.8637
▁nishiki	-12.8638
▁harum	-12.864
▁abura	-12.8641
044	-12.8644
▁1199	-12.8652
▁cree	-12.8654
▁collector	-12.8656
isis	-12.8657
.02_4	-12.8662
▁eriks	-12.8662
▁kosh	-12.8668
taisha	-12.8668
▁vick	-12.8669
▁1818	-12.8669
▁tema	-12.8675
▁120.0	-12.8676
▁waite	-12.8677
▁deir	-12.8679
▁amami	-12.868
▁rybinsk	-12.868
▁viejas	-12.8681
▁1804	-12.8686
chigo	-12.8686
▁plants	-12.8688
ggie	-12.8697
▁1480	-12.8699
nye	-12.87
shizu	-12.8706
▁ace	-12.8709
ohama	-12.8712
rela	-12.8713
▁1420	-12.8714
orii	-12.8715
reig	-12.8715
▁1741	-12.8726
▁leap	-12.8726
▁nau	-12.8728
▁tod	-12.8737
▁estell	-12.8737
illian	-12.8741
▁funn	-12.8741
▁1676	-12.8743
ngfeng	-12.8748
bao	-12.8749
avec	-12.8752
▁christi	-12.8754
▁roseau	-12.8762
luce	-12.8764
▁garz	-12.877
▁1702	-12.8774
hants	-12.8775
▁vinos	-12.8775
▁jews	-12.8778
▁manitou	-12.8779
▁1350	-12.8779
messe	-12.8781
hala	-12.8784
▁uptown	-12.8786
▁brin	-12.8787
▁1469	-12.8788
▁1262	-12.8792
▁baden	-12.8801
▁instrument	-12.8804
▁unam	-12.8806
koji	-12.8812
grad	-12.8812
▁oteros	-12.8817
qual	-12.882
ual	-12.8822
▁galax	-12.8823
▁5000	-12.8825
▁released	-12.8825
▁1210	-12.8826
▁1675	-12.8829
oichi	-12.8831
tyana	-12.8832
▁1162	-12.8837
▁1767	-12.8837
▁1834	-12.8839
asies	-12.884
▁wealth	-12.884
shimizu	-12.8843
▁1477	-12.8843
▁1385	-12.8844
▁2184	-12.8852
▁gork	-12.8854
▁parr	-12.8855
▁1748	-12.8858
coa	-12.8858
▁2424	-12.886
▁1429	-12.8861
▁chao	-12.8862
deportiv	-12.8867
▁noguera	-12.8868
▁blackhawk	-12.8869
▁1704	-12.8874
▁cervantes	-12.8875
▁3704	-12.8878
chuk	-12.8879
▁meng	-12.8881
▁wings	-12.8883
▁1413	-12.8885
▁knights	-12.8886
▁seco	-12.8886
ragi	-12.8886
▁olmedo	-12.8886
qpj	-12.8887
ibar	-12.8892
▁2285	-12.8895
▁communication	-12.8895
▁1822	-12.8896
▁1825	-12.8898
▁rois	-12.8899
▁1272	-12.89
psey	-12.89
sanno	-12.8912
▁kona	-12.8913
▁2166	-12.8914
▁noia	-12.8917
▁marlo	-12.8918
kaba	-12.8918
▁1544	-12.893
▁warriors	-12.8931
ihara	-12.8935
▁malo	-12.8938
▁sonne	-12.8944
▁1775	-12.8944
▁1693	-12.8945
▁1802	-12.8945
xfnn	-12.8946
▁moni	-12.8948
mote	-12.8953
ushan	-12.8956
▁1695	-12.8956
▁1261	-12.8959
▁stepp	-12.8959
anna	-12.8961
▁1263	-12.8962
▁1684	-12.8963
▁vino	-12.8966
eguro	-12.8971
▁petrozavodsk	-12.8973
▁takada	-12.8974
qnz	-12.8976
zuyev	-12.8978
▁feder	-12.8982
▁1134	-12.8987
wenn	-12.8993
▁sia	-12.8994
▁1211	-12.8996
▁1160	-12.9002
420	-12.9004
kiy	-12.9006
▁happen	-12.9016
auf	-12.9016
anzan	-12.9017
▁perale	-12.902
▁1577	-12.9023
▁streets	-12.9023
home	-12.9027
249	-12.9032
▁activist	-12.9034
▁mack	-12.9036
▁atsugi	-12.9038
▁hatch	-12.9039
koyama	-12.904
welch	-12.9041
▁1627	-12.9041
▁1381	-12.9044
bird	-12.9045
nicht	-12.9048
▁1147	-12.9049
alberto	-12.9049
▁1529	-12.905
isolde	-12.905
tepec	-12.9051
allegro	-12.9051
institution	-12.9051
film	-12.9052
paul	-12.9053
jxf	-12.9054
▁tang	-12.9055
▁1860	-12.9056
blanco	-12.9056
iii	-12.9058
▁1392	-12.9061
benz	-12.9062
ohe	-12.9068
▁bros	-12.9068
▁kee	-12.907
▁minto	-12.9071
▁jacmel	-12.9072
▁matsubara	-12.9072
▁matsushima	-12.9072
hongo	-12.9076
▁rest	-12.9076
▁2556	-12.9079
▁peaks	-12.9079
▁herbi	-12.908
▁2200	-12.9084
▁1363	-12.9086
▁1481	-12.9088
▁1682	-12.9088
olula	-12.9089
belle	-12.909
▁gettin	-12.9097
▁1329	-12.9097
ganzo	-12.9099
▁cub	-12.9099
▁1177	-12.91
east	-12.9102
▁choi	-12.9109
▁prud	-12.9109
▁saransk	-12.911
lac	-12.9115
▁1585	-12.9115
▁durand	-12.9119
jtgz	-12.9119
▁guardia	-12.9119
centra	-12.9121
▁sequen	-12.9122
▁1631	-12.9123
▁aeterna	-12.9125
▁gods	-12.9126
▁cobble	-12.9126
bone	-12.9127
▁swe	-12.9127
▁thin	-12.9128
▁haza	-12.9128
▁1754	-12.9128
▁sacha	-12.9128
▁cool	-12.9129
quemada	-12.9131
cinto	-12.9131
▁monolog	-12.9131
▁cristi	-12.9131
posthorn	-12.9131
▁petropavlovsk	-12.9131
▁delegacion	-12.9131
bellevue	-12.9131
djxstc	-12.9131
fitzpatrick	-12.9131
kokubunji	-12.9131
konzert	-12.9131
leporello	-12.9131
onomichi	-12.9131
watermill	-12.9131
xixona	-12.9131
yonezawa	-12.9131
▁aberdeen	-12.9131
▁aceuchal	-12.9131
▁aldridge	-12.9131
▁alguazas	-12.9131
▁antigonish	-12.9131
▁arrigorriaga	-12.9131
▁assiniboine	-12.9131
▁balashikha	-12.9131
▁benavides	-12.9131
▁berceuse	-12.9131
▁bergamasque	-12.9131
▁berrocal	-12.9131
▁blagoveshchensk	-12.9131
▁bravura	-12.9131
▁bujalance	-12.9131
▁cadenza	-12.9131
▁calloway	-12.9131
▁carefree	-12.9131
▁castroverde	-12.9131
▁cheboksary	-12.9131
▁chiquimula	-12.9131
▁chontales	-12.9131
▁cleaver	-12.9131
▁coatepeque	-12.9131
▁cortegana	-12.9131
▁criptana	-12.9131
▁cudeyo	-12.9131
▁cuernavaca	-12.9131
▁culebra	-12.9131
▁diefenbaker	-12.9131
▁earthquake	-12.9131
▁ecatepec	-12.9131
▁einleitung	-12.9131
▁empty	-12.9131
▁erandio	-12.9131
▁extreme	-12.9131
▁feuille	-12.9131
▁fulgencio	-12.9131
▁gallagher	-12.9131
▁garganta	-12.9131
▁gelves	-12.9131
▁gibraltar	-12.9131
▁guitiriz	-12.9131
▁harlan	-12.9131
▁hibbing	-12.9131
▁holocaust	-12.9131
▁honolulu	-12.9131
▁humphries	-12.9131
▁introitus	-12.9131
▁iznalloz	-12.9131
▁kaffrine	-12.9131
▁kolondieba	-12.9131
▁lebhaft	-12.9131
▁ledesma	-12.9131
▁lekeitio	-12.9131
▁malavella	-12.9131
▁marlborough	-12.9131
▁massanassa	-12.9131
▁matadepera	-12.9131
▁mathew	-12.9131
▁mayfair	-12.9131
▁mcmahon	-12.9131
▁merritt	-12.9131
▁midnight	-12.9131
▁momsen	-12.9131
▁mondariz	-12.9131
▁montjuic	-12.9131
▁montmelo	-12.9131
▁morocco	-12.9131
▁najera	-12.9131
▁naranjito	-12.9131
▁odawara	-12.9131
▁orbigo	-12.9131
▁orellana	-12.9131
▁ortigueira	-12.9131
▁paisiello	-12.9131
▁palafolls	-12.9131
▁pembroke	-12.9131
▁placekicker	-12.9131
▁porcuna	-12.9131
▁poveda	-12.9131
▁prologu	-12.9131
▁pullman	-12.9131
▁quigley	-12.9131
▁raleigh	-12.9131
▁rasmussen	-12.9131
▁renfrew	-12.9131
[...]
